<unk>	0
<s>	0
</s>	0
<0x00>	0
<0x01>	0
<0x02>	0
<0x03>	0
<0x04>	0
<0x05>	0
<0x06>	0
<0x07>	0
<0x08>	0
<0x09>	0
<0x0A>	0
<0x0B>	0
<0x0C>	0
<0x0D>	0
<0x0E>	0
<0x0F>	0
<0x10>	0
<0x11>	0
<0x12>	0
<0x13>	0
<0x14>	0
<0x15>	0
<0x16>	0
<0x17>	0
<0x18>	0
<0x19>	0
<0x1A>	0
<0x1B>	0
<0x1C>	0
<0x1D>	0
<0x1E>	0
<0x1F>	0
<0x20>	0
<0x21>	0
<0x22>	0
<0x23>	0
<0x24>	0
<0x25>	0
<0x26>	0
<0x27>	0
<0x28>	0
<0x29>	0
<0x2A>	0
<0x2B>	0
<0x2C>	0
<0x2D>	0
<0x2E>	0
<0x2F>	0
<0x30>	0
<0x31>	0
<0x32>	0
<0x33>	0
<0x34>	0
<0x35>	0
<0x36>	0
<0x37>	0
<0x38>	0
<0x39>	0
<0x3A>	0
<0x3B>	0
<0x3C>	0
<0x3D>	0
<0x3E>	0
<0x3F>	0
<0x40>	0
<0x41>	0
<0x42>	0
<0x43>	0
<0x44>	0
<0x45>	0
<0x46>	0
<0x47>	0
<0x48>	0
<0x49>	0
<0x4A>	0
<0x4B>	0
<0x4C>	0
<0x4D>	0
<0x4E>	0
<0x4F>	0
<0x50>	0
<0x51>	0
<0x52>	0
<0x53>	0
<0x54>	0
<0x55>	0
<0x56>	0
<0x57>	0
<0x58>	0
<0x59>	0
<0x5A>	0
<0x5B>	0
<0x5C>	0
<0x5D>	0
<0x5E>	0
<0x5F>	0
<0x60>	0
<0x61>	0
<0x62>	0
<0x63>	0
<0x64>	0
<0x65>	0
<0x66>	0
<0x67>	0
<0x68>	0
<0x69>	0
<0x6A>	0
<0x6B>	0
<0x6C>	0
<0x6D>	0
<0x6E>	0
<0x6F>	0
<0x70>	0
<0x71>	0
<0x72>	0
<0x73>	0
<0x74>	0
<0x75>	0
<0x76>	0
<0x77>	0
<0x78>	0
<0x79>	0
<0x7A>	0
<0x7B>	0
<0x7C>	0
<0x7D>	0
<0x7E>	0
<0x7F>	0
<0x80>	0
<0x81>	0
<0x82>	0
<0x83>	0
<0x84>	0
<0x85>	0
<0x86>	0
<0x87>	0
<0x88>	0
<0x89>	0
<0x8A>	0
<0x8B>	0
<0x8C>	0
<0x8D>	0
<0x8E>	0
<0x8F>	0
<0x90>	0
<0x91>	0
<0x92>	0
<0x93>	0
<0x94>	0
<0x95>	0
<0x96>	0
<0x97>	0
<0x98>	0
<0x99>	0
<0x9A>	0
<0x9B>	0
<0x9C>	0
<0x9D>	0
<0x9E>	0
<0x9F>	0
<0xA0>	0
<0xA1>	0
<0xA2>	0
<0xA3>	0
<0xA4>	0
<0xA5>	0
<0xA6>	0
<0xA7>	0
<0xA8>	0
<0xA9>	0
<0xAA>	0
<0xAB>	0
<0xAC>	0
<0xAD>	0
<0xAE>	0
<0xAF>	0
<0xB0>	0
<0xB1>	0
<0xB2>	0
<0xB3>	0
<0xB4>	0
<0xB5>	0
<0xB6>	0
<0xB7>	0
<0xB8>	0
<0xB9>	0
<0xBA>	0
<0xBB>	0
<0xBC>	0
<0xBD>	0
<0xBE>	0
<0xBF>	0
<0xC0>	0
<0xC1>	0
<0xC2>	0
<0xC3>	0
<0xC4>	0
<0xC5>	0
<0xC6>	0
<0xC7>	0
<0xC8>	0
<0xC9>	0
<0xCA>	0
<0xCB>	0
<0xCC>	0
<0xCD>	0
<0xCE>	0
<0xCF>	0
<0xD0>	0
<0xD1>	0
<0xD2>	0
<0xD3>	0
<0xD4>	0
<0xD5>	0
<0xD6>	0
<0xD7>	0
<0xD8>	0
<0xD9>	0
<0xDA>	0
<0xDB>	0
<0xDC>	0
<0xDD>	0
<0xDE>	0
<0xDF>	0
<0xE0>	0
<0xE1>	0
<0xE2>	0
<0xE3>	0
<0xE4>	0
<0xE5>	0
<0xE6>	0
<0xE7>	0
<0xE8>	0
<0xE9>	0
<0xEA>	0
<0xEB>	0
<0xEC>	0
<0xED>	0
<0xEE>	0
<0xEF>	0
<0xF0>	0
<0xF1>	0
<0xF2>	0
<0xF3>	0
<0xF4>	0
<0xF5>	0
<0xF6>	0
<0xF7>	0
<0xF8>	0
<0xF9>	0
<0xFA>	0
<0xFB>	0
<0xFC>	0
<0xFD>	0
<0xFE>	0
<0xFF>	0
..	-0
영화	-1
▁영화	-2
▁이	-3
▁아	-4
...	-5
ᄏᄏ	-6
▁그	-7
▁보	-8
▁재	-9
!!	-10
니다	-11
▁정	-12
▁나	-13
는데	-14
너무	-15
▁다	-16
▁하	-17
▁좋	-18
▁없	-19
▁어	-20
▁너무	-21
▁사	-22
▁내	-23
▁감	-24
▁진	-25
▁재미	-26
....	-27
▁연	-28
▁있	-29
▁지	-30
으로	-31
지만	-32
하고	-33
▁최	-34
▁시	-35
▁한	-36
네요	-37
▁안	-38
▁1	-39
▁정말	-40
▁스	-41
▁만	-42
▁가	-43
에서	-44
▁재밌	-45
▁기	-46
▁봤	-47
▁평	-48
▁대	-49
▁전	-50
▁진짜	-51
▁연기	-52
▁마	-53
하는	-54
▁무	-55
▁모	-56
▁수	-57
▁여	-58
▁생	-59
▁잘	-60
어요	-61
▁주	-62
▁최고	-63
▁않	-64
▁더	-65
▁평점	-66
드라	-67
ᄏᄏᄏᄏ	-68
토리	-69
▁오	-70
습니다	-71
이다	-72
▁제	-73
▁개	-74
▁이런	-75
하다	-76
▁인	-77
▁말	-78
▁배	-79
드라마	-80
~~	-81
▁생각	-82
▁왜	-83
▁자	-84
들이	-85
▁같	-86
▁못	-87
▁스토리	-88
▁소	-89
▁남	-90
▁알	-91
▁본	-92
까지	-93
▁느	-94
▁유	-95
ᅲᅲ	-96
▁미	-97
▁보고	-98
▁볼	-99
▁감동	-100
하게	-101
▁일	-102
▁별	-103
이라	-104
▁쓰	-105
▁것	-106
▁비	-107
▁장	-108
보다	-109
었다	-110
▁지루	-111
▁우	-112
▁드라마	-113
;;	-114
▁많	-115
??	-116
▁작	-117
▁ᄏᄏ	-118
▁중	-119
▁재미있	-120
레기	-121
▁그냥	-122
▁부	-123
▁배우	-124
▁뭐	-125
▁아니	-126
▁공	-127
▁사람	-128
▁2	-129
해서	-130
면서	-131
▁조	-132
▁내용	-133
▁역	-134
▁10	-135
▁완	-136
▁만들	-137
▁감독	-138
▁끝	-139
▁저	-140
▁애	-141
▁좀	-142
적인	-143
▁재미없	-144
다는	-145
렇게	-146
리고	-147
▁고	-148
▁쓰레기	-149
▁해	-150
▁명	-151
▁사랑	-152
▁참	-153
▁되	-154
▁반	-155
▁보는	-156
▁영화를	-157
▁웃	-158
,,	-159
▁영	-160
^^	-161
▁예	-162
보고	-163
▁결	-164
▁봐	-165
ᄒᄒ	-166
▁다시	-167
지막	-168
액션	-169
▁좋은	-170
▁좋아	-171
▁시간	-172
라고	-173
▁거	-174
▁매	-175
▁싶	-176
▁상	-177
▁신	-178
으면	-179
▁눈	-180
입니다	-181
▁처	-182
▁실	-183
▁바	-184
▁이거	-185
들의	-186
▁노	-187
▁영화가	-188
▁불	-189
▁작품	-190
▁영화는	-191
지는	-192
OO	-193
▁원	-194
▁봤는데	-195
▁없는	-196
▁살	-197
하지	-198
▁이건	-199
인공	-200
▁최고의	-201
▁마지막	-202
!!!	-203
▁난	-204
▁내가	-205
▁3	-206
▁기대	-207
▁완전	-208
▁액션	-209
▁좋았	-210
다가	-211
▁있는	-212
▁하나	-213
▁넘	-214
▁할	-215
▁의	-216
다고	-217
▁코	-218
▁성	-219
야기	-220
▁도	-221
▁처음	-222
어서	-223
▁때	-224
▁죽	-225
▁몰	-226
▁한국	-227
없는	-228
적이	-229
세요	-230
▁추	-231
▁지금	-232
▁없다	-233
같은	-234
▁후	-235
했다	-236
인데	-237
▁나오	-238
▁현	-239
들은	-240
▁괜	-241
▁하는	-242
▁최악	-243
▁김	-244
!!!!	-245
▁이렇게	-246
▁이게	-247
에게	-248
▁모르	-249
▁또	-250
▁아깝	-251
▁극	-252
ᅳᅳ	-253
대로	-254
합니다	-255
라는	-256
▁별로	-257
적으로	-258
▁세	-259
이나	-260
▁허	-261
▁멋	-262
▁이해	-263
부터	-264
▁강	-265
겠다	-266
▁관	-267
▁위	-268
▁초	-269
연기	-270
▁연출	-271
▁분	-272
있는	-273
▁돈	-274
▁느낌	-275
▁짜	-276
▁명작	-277
한다	-278
▁두	-279
▁동	-280
▁역시	-281
▁화	-282
▁심	-283
▁로	-284
▁따	-285
▁잼	-286
▁구	-287
▁이야기	-288
▁했	-289
▁기억	-290
▁뭔	-291
▁음	-292
▁평점이	-293
▁재밌게	-294
되는	-295
▁우리	-296
▁캐	-297
▁많이	-298
▁괜찮	-299
▁당	-300
정도	-301
▁아이	-302
배우	-303
▁들	-304
▁이영화	-305
▁장면	-306
▁그래	-307
주는	-308
지도	-309
▁여자	-310
▁그리고	-311
▁잔	-312
▁에	-313
▁아름	-314
문에	-315
▁만든	-316
▁엄	-317
▁요	-318
▁발	-319
▁그런	-320
""	-321
▁아까	-322
▁막	-323
▁와	-324
리는	-325
▁꼭	-326
재미	-327
▁주인공	-328
▁포	-329
사람	-330
▁보여	-331
았다	-332
▁차	-333
▁마음	-334
▁귀	-335
▁특	-336
▁단	-337
▁같은	-338
필요	-339
▁슬	-340
만에	-341
▁아닌	-342
드는	-343
▁설	-344
것도	-345
▁공포	-346
▁유치	-347
▁울	-348
▁졸	-349
▁존	-350
진짜	-351
▁일본	-352
▁줄	-353
▁표	-354
을까	-355
ᄏᄏᄏᄏᄏᄏᄏᄏ	-356
▁박	-357
아서	-358
▁무슨	-359
하나	-360
........	-361
▁망	-362
가는	-363
없이	-364
▁없고	-365
00	-366
▁아무	-367
었는데	-368
▁점	-369
▁ᄏᄏᄏ	-370
▁볼만	-371
▁현실	-372
▁결말	-373
▁서	-374
ᄏᄏᄏ	-375
▁힘	-376
▁소재	-377
▁가장	-378
하기	-379
▁ᅲᅲ	-380
▁몰입	-381
였다	-382
▁아깝다	-383
▁다른	-384
▁누	-385
인가	-386
시간	-387
없다	-388
▁이상	-389
▁흥	-390
▁보면	-391
▁짱	-392
▁보기	-393
▁과	-394
▁.	-395
나는	-396
▁..	-397
▁OO	-398
니까	-399
▁매력	-400
▁반전	-401
▁속	-402
하면	-403
▁빠	-404
보는	-405
▁남자	-406
▁뻔	-407
▁절	-408
구나	-409
▁걸	-410
▁얼	-411
ᅮᅮ	-412
▁가슴	-413
▁스릴	-414
▁짜증	-415
인지	-416
▁말이	-417
▁애니	-418
▁리	-419
▁낮	-420
▁원작	-421
▁선	-422
▁영화다	-423
미디	-424
▁솔	-425
하지만	-426
▁눈물	-427
스럽	-428
▁맞	-429
이고	-430
▁ᄒᄒ	-431
▁억	-432
봐도	-433
▁정도	-434
▁높	-435
▁대한	-436
▁방	-437
는지	-438
▁드	-439
는다	-440
▁긴	-441
▁충	-442
▁계	-443
▁인생	-444
▁ᄏ	-445
▁있다	-446
려고	-447
릭터	-448
재밌	-449
▁만들어	-450
▁전개	-451
▁영상	-452
었던	-453
▁인간	-454
▁음악	-455
아요	-456
스러	-457
지않	-458
▁몇	-459
더라	-460
▁솔직	-461
지마	-462
▁많은	-463
▁집	-464
지고	-465
에는	-466
▁머	-467
리즈	-468
▁'	-469
▁필요	-470
▁극장	-471
▁순	-472
▁9	-473
▁건	-474
▁굿	-475
▁모든	-476
▁아름다	-477
나서	-478
▁한번	-479
▁돌	-480
처럼	-481
▁적	-482
▁간	-483
▁듯	-484
▁게	-485
▁4	-486
▁아직	-487
정말	-488
▁억지	-489
▁피	-490
메이	-491
▁끝까지	-492
▁새	-493
▁ᅳᅳ	-494
점이	-495
밖에	-496
▁문	-497
▁하고	-498
다니	-499
근데	-500
▁수준	-501
▁욕	-502
▁찾	-503
었음	-504
나오	-505
▁하지만	-506
▁8	-507
▁올	-508
▁편	-509
떨어	-510
▁봐도	-511
들을	-512
▁솔직히	-513
▁전혀	-514
▁받	-515
▁파	-516
중에	-517
▁재밋	-518
▁언	-519
스터	-520
▁행	-521
▁이제	-522
▁프	-523
▁모두	-524
▁...	-525
▁뭔가	-526
된다	-527
▁열	-528
▁외	-529
▁7	-530
떻게	-531
했던	-532
는거	-533
▁아주	-534
▁찍	-535
▁추천	-536
▁여운	-537
▁딱	-538
▁경	-539
나라	-540
▁5	-541
▁캐릭터	-542
▁좋다	-543
▁연기력	-544
▁엄청	-545
▁코미디	-546
이는	-547
리가	-548
타임	-549
▁같다	-550
▁실망	-551
▁공감	-552
.....	-553
준다	-554
▁대박	-555
기도	-556
장면	-557
▁치	-558
▁긴장	-559
▁호	-560
▁ᄏᄏᄏᄏ	-561
주고	-562
▁갈	-563
▁독	-564
스트	-565
▁봤다	-566
▁달	-567
감독	-568
을때	-569
▁약	-570
▁버	-571
▁출	-572
▁최악의	-573
▁놀	-574
▁나온	-575
이랑	-576
▁배우들	-577
▁먹	-578
▁크	-579
건지	-580
▁개봉	-581
주인공	-582
▁대단	-583
생각	-584
에도	-585
이지	-586
▁가족	-587
▁답	-588
▁믿	-589
친구	-590
▁손	-591
▁영화의	-592
▁재미있게	-593
라도	-594
▁이걸	-595
▁어떻게	-596
▁교	-597
만들	-598
▁엉	-599
때문에	-600
▁내내	-601
수록	-602
▁재밌다	-603
▁계속	-604
▁흥미	-605
했는데	-606
▁함	-607
없고	-608
영화는	-609
이가	-610
점도	-611
▁레	-612
▁표현	-613
하네요	-614
▁않고	-615
던데	-616
▁잔잔	-617
▁영화에	-618
수가	-619
이라는	-620
▁등	-621
▁어디	-622
스토리	-623
엔딩	-624
었어요	-625
▁악	-626
▁질	-627
▁야	-628
▁즐	-629
▁아니라	-630
있다	-631
최고	-632
▁대사	-633
기는	-634
어야	-635
▁모습	-636
▁제목	-637
▁아쉽	-638
봤는데	-639
내내	-640
▁물	-641
아니	-642
▁그래도	-643
▁20	-644
▁싸	-645
▁내용이	-646
▁떨어	-647
▁삶	-648
▁않은	-649
▁나오는	-650
내용	-651
하네	-652
▁-	-653
▁담	-654
보면	-655
▁카	-656
▁아쉬	-657
기에	-658
전에	-659
▁연기가	-660
한테	-661
라리	-662
▁잊	-663
▁아니다	-664
▁조금	-665
▁그렇	-666
성이	-667
▁기분	-668
▁스릴러	-669
영화가	-670
▁잠	-671
~~~~	-672
▁베	-673
▁느껴	-674
▁봐야	-675
▁진심	-676
▁막장	-677
리오	-678
어도	-679
▁보다	-680
▁긴장감	-681
해요	-682
▁자체	-683
만큼	-684
리스	-685
▁제대로	-686
하면서	-687
▁시리즈	-688
들도	-689
이라고	-690
▁아름다운	-691
▁개인	-692
▁메	-693
▁요즘	-694
▁제일	-695
▁재미없다	-696
▁떠	-697
▁오랜	-698
대체	-699
▁앞	-700
▁근데	-701
▁연기도	-702
▁네	-703
으나	-704
같다	-705
▁알바	-706
▁만드는	-707
ᄃᄃ	-708
▁부족	-709
인듯	-710
▁나는	-711
▁중간	-712
▁천	-713
▁홍	-714
훌륭	-715
▁웃기	-716
이상	-717
▁재미도	-718
▁내용도	-719
▁아까운	-720
▁정신	-721
▁제작	-722
▁스토리가	-723
▁0	-724
이란	-725
▁보다가	-726
▁잼있	-727
기가	-728
▁노래	-729
▁않는	-730
치는	-731
▁나름	-732
▁미국	-733
▁이유	-734
년대	-735
10	-736
▁어설	-737
만한	-738
▁날	-739
▁데	-740
▁나왔	-741
▁목	-742
▁시작	-743
난다	-744
점은	-745
~~~	-746
▁형	-747
▁아니고	-748
▁국	-749
▁삼	-750
▁감독이	-751
▁디	-752
ᄍᄍ	-753
▁타	-754
▁보고싶	-755
거리	-756
▁때문에	-757
▁왜이	-758
진다	-759
▁싶다	-760
▁각	-761
할수	-762
▁킬	-763
마다	-764
해도	-765
▁나와	-766
▁영화라고	-767
라이	-768
▁그러	-769
군요	-770
▁로맨	-771
▁절대	-772
▁모르겠	-773
▁남는	-774
▁보게	-775
▁훌륭	-776
▁시간이	-777
▁너무나	-778
▁복	-779
▁될	-780
▁뒤	-781
▁통	-782
영화를	-783
스팅	-784
▁된	-785
▁따뜻	-786
▁싶은	-787
▁감정	-788
▁의미	-789
▁살아	-790
▁영화로	-791
▁케	-792
이네	-793
적이고	-794
감동	-795
에요	-796
▁수작	-797
▁출연	-798
▁아직도	-799
나고	-800
▁느끼	-801
▁글	-802
▁뻔한	-803
▁티	-804
▁세상	-805
▁작가	-806
았는데	-807
▁여운이	-808
기를	-809
나리오	-810
로운	-811
▁괜찮은	-812
나요	-813
더니	-814
▁차라리	-815
으로도	-816
▁영화입니다	-817
스러운	-818
하는데	-819
▁스토리도	-820
▁^^	-821
▁그저	-822
▁나도	-823
▁신선	-824
▁희	-825
▁어이	-826
▁뭘	-827
▁재밌어요	-828
학교	-829
▁안되	-830
▁주는	-831
었습니다	-832
▁무엇	-833
▁얼마	-834
▁특히	-835
▁보면서	-836
▁6	-837
소리	-838
▁장난	-839
▁ᅲ	-840
▁걍	-841
이런	-842
▁C	-843
이야	-844
▁도대체	-845
해야	-846
▁만화	-847
▁변	-848
▁산	-849
없음	-850
▁점수	-851
▁싫	-852
▁감독의	-853
고싶	-854
▁무섭	-855
▁친구	-856
▁행복	-857
▁사실	-858
▁어린	-859
▁B	-860
▁무서	-861
▁니	-862
▁판	-863
▁황	-864
♥♥	-865
▁확	-866
▁영화였	-867
▁""	-868
이네요	-869
▁되는	-870
▁t	-871
▁갑	-872
▁언제	-873
메이션	-874
▁오랜만에	-875
▁훨	-876
점을	-877
▁답답	-878
▁시청	-879
▁좋았다	-880
▁용	-881
???	-882
▁멋진	-883
사랑	-884
지가	-885
▁이해가	-886
▁옛	-887
▁첨	-888
이지만	-889
▁없음	-890
▁부분	-891
▁허접	-892
_-	-893
▁마지막에	-894
▁재미가	-895
▁길	-896
▁토	-897
▁좋아하는	-898
▁빨	-899
▁빼	-900
나게	-901
;;;	-902
▁좋고	-903
▁자신	-904
▁초반	-905
▁관객	-906
▁봤습니다	-907
▁추억	-908
▁우리나라	-909
▁깨	-910
놓고	-911
▁귀여	-912
▁전쟁	-913
부분	-914
▁봤던	-915
▁인상	-916
것이	-917
▁양	-918
▁소름	-919
▁완벽	-920
▁깊	-921
성도	-922
한데	-923
▁엔딩	-924
▁생각이	-925
▁배경	-926
▁어색	-927
▁없이	-928
▁시나리오	-929
아깝	-930
▁OOO	-931
▁지루하고	-932
▁어떤	-933
▁궁	-934
▁킬링	-935
▁지루함	-936
▁청	-937
▁낚	-938
▁유쾌	-939
▁힘들	-940
디오	-941
치고	-942
▁못한	-943
▁영화관	-944
인이	-945
▁분위	-946
동안	-947
▁헐	-948
▁다큐	-949
▁흐	-950
▁총	-951
▁안타	-952
▁식	-953
▁준	-954
▁팬	-955
▁둘	-956
▁오늘	-957
▁최고다	-958
▁입	-959
다면	-960
▁스타	-961
▁배우들의	-962
▁문제	-963
▁시대	-964
▁이딴	-965
▁지루한	-966
▁잡	-967
▁슬프	-968
▁들어	-969
▁함께	-970
▁환	-971
구만	-972
,,,	-973
아까	-974
▁졸작	-975
▁찾아	-976
oo	-977
▁결국	-978
텐데	-979
▁만들었	-980
▁종	-981
한거	-982
▁있었	-983
▁큰	-984
▁개인적으로	-985
▁뛰	-986
▁범	-987
▁왠	-988
럽게	-989
들에게	-990
리지	-991
▁진정	-992
▁뿐	-993
▁보는내내	-994
▁태	-995
▁임	-996
시길	-997
▁당시	-998
▁어릴	-999
▁역사	-1000
을듯	-1001
▁애니메이션	-1002
▁러	-1003
그냥	-1004
점대	-1005
쓰레기	-1006
▁진부	-1007
▁보세요	-1008
▁재밌는	-1009
낭비	-1010
보니	-1011
▁예술	-1012
▁얼마나	-1013
건가	-1014
구요	-1015
좋아	-1016
▁코믹	-1017
▁책	-1018
그래	-1019
보단	-1020
▁꿈	-1021
▁포스터	-1022
~!	-1023
▁클	-1024
▁몰입도	-1025
▁아름답	-1026
나마	-1027
▁아무리	-1028
▁암	-1029
▁설정	-1030
▁캐스팅	-1031
▁혼	-1032
▁강추	-1033
▁"	-1034
▁백	-1035
지루	-1036
평점	-1037
▁킬링타임	-1038
레이	-1039
▁기억에	-1040
▁사람이	-1041
▁ᄒ	-1042
▁맘	-1043
▁연기는	-1044
▁웃음	-1045
▁안되는	-1046
▁지루하다	-1047
▁주연	-1048
▁후회	-1049
▁개연	-1050
▁오래	-1051
▁영화도	-1052
▁영화라	-1053
▁민	-1054
▁돌아	-1055
하며	-1056
있고	-1057
▁패	-1058
려는	-1059
작품	-1060
▁보지	-1061
▁공포영화	-1062
st	-1063
▁얘	-1064
했음	-1065
주의	-1066
▁꽤	-1067
▁브	-1068
▁매우	-1069
▁제발	-1070
▁몸	-1071
같이	-1072
자기	-1073
▁더빙	-1074
▁지나	-1075
▁충격	-1076
▁주제	-1077
▁그렇게	-1078
들과	-1079
당히	-1080
이버	-1081
▁여러	-1082
▁집중	-1083
한영화	-1084
▁폭	-1085
는게	-1086
▁어느	-1087
▁잔인	-1088
▁낫	-1089
▁엄마	-1090
▁보지마	-1091
인줄	-1092
말이	-1093
▁충분	-1094
▁같이	-1095
▁궁금	-1096
▁않았	-1097
▁있고	-1098
▁한국영화	-1099
렸다	-1100
▁좋아요	-1101
▁옛날	-1102
▁하나도	-1103
▁병	-1104
▁채	-1105
▁미친	-1106
학생	-1107
▁것이	-1108
▁빠져	-1109
▁따라	-1110
▁순수	-1111
ᅲᅲᅲᅲ	-1112
!!!!!!!!	-1113
▁T	-1114
▁군	-1115
마디	-1116
▁먼	-1117
르는	-1118
웠다	-1119
▁봤어요	-1120
▁터	-1121
▁감동적이	-1122
▁은	-1123
이거	-1124
▁불쌍	-1125
▁극장에서	-1126
▁모르겠다	-1127
......	-1128
▁블	-1129
▁느낌이	-1130
▁풀	-1131
▁뛰어	-1132
▁커	-1133
가지	-1134
것같	-1135
▁한다	-1136
꿀잼	-1137
만든	-1138
▁위해	-1139
▁광	-1140
▁탄	-1141
길래	-1142
▁나올	-1143
▁하지	-1144
▁숨	-1145
▁괴	-1146
야지	-1147
▁말도	-1148
▁색	-1149
▁ᅮᅮ	-1150
▁영화네요	-1151
▁너	-1152
▁투	-1153
▁흘	-1154
거지	-1155
함을	-1156
▁재밌음	-1157
▁o	-1158
린다	-1159
수있	-1160
▁중국	-1161
▁마음이	-1162
▁b	-1163
해지는	-1164
자가	-1165
▁그만	-1166
▁굳	-1167
▁상상	-1168
????	-1169
▁,	-1170
▁알고	-1171
▁위한	-1172
기만	-1173
▁영화중	-1174
▁약간	-1175
▁엉성	-1176
이라도	-1177
▁않는다	-1178
▁끌	-1179
성을	-1180
▁돋	-1181
봤다	-1182
▁왕	-1183
력이	-1184
워서	-1185
좋은	-1186
하시	-1187
▁감사	-1188
▁이름	-1189
▁!	-1190
전개	-1191
▁프로	-1192
▁여기	-1193
이야기	-1194
▁내용은	-1195
▁걸작	-1196
▁누가	-1197
▁대체	-1198
▁이쁘	-1199
▁읽	-1200
▁비슷	-1201
▁얼굴	-1202
했지만	-1203
▁후반	-1204
▁로맨스	-1205
그리고	-1206
▁똥	-1207
▁훨씬	-1208
▁영상미	-1209
▁이정도	-1210
느낌	-1211
▁철	-1212
이었다	-1213
▁가슴이	-1214
▁눈물이	-1215
으니	-1216
▁갈수록	-1217
▁감동도	-1218
▁사람들	-1219
▁CG	-1220
▁있을	-1221
▁존나	-1222
▁여주인공	-1223
▁첫	-1224
굉장	-1225
듯한	-1226
▁실화	-1227
▁그나마	-1228
것을	-1229
노잼	-1230
리를	-1231
자체	-1232
겠지만	-1233
가서	-1234
▁히	-1235
재밋	-1236
▁비교	-1237
이건	-1238
▁없었다	-1239
▁똑	-1240
▁번	-1241
▁죄	-1242
▁흔	-1243
인생	-1244
함이	-1245
▁연기를	-1246
▁재미없음	-1247
▁g	-1248
▁키	-1249
대한	-1250
라서	-1251
▁전체	-1252
▁발연기	-1253
년이	-1254
버린	-1255
타지	-1256
편이	-1257
▁노잼	-1258
겠지	-1259
▁알았	-1260
▁맛	-1261
재미있	-1262
▁없어	-1263
라면	-1264
멜로	-1265
▁어렸	-1266
▁기억이	-1267
▁그래서	-1268
▁장르	-1269
▁재밌고	-1270
▁S	-1271
▁갖	-1272
▁벌	-1273
▁단순	-1274
▁밖에	-1275
스럽다	-1276
▁어설픈	-1277
▁늘	-1278
시절	-1279
▁것도	-1280
▁s	-1281
ood	-1282
▁굉장	-1283
▁티비	-1284
▁비디오	-1285
년도	-1286
수준	-1287
지지	-1288
▁느낄	-1289
▁초딩	-1290
▁200	-1291
▁네이버	-1292
나온	-1293
이라면	-1294
▁취	-1295
든다	-1296
시키	-1297
▁알게	-1298
▁보여주는	-1299
▁사람들이	-1300
ᄋᄋ	-1301
보게	-1302
보기	-1303
▁딸	-1304
개도	-1305
정이	-1306
▁귀엽	-1307
▁다들	-1308
▁감동이	-1309
▁19	-1310
▁오글	-1311
▁다음	-1312
▁이미	-1313
아이	-1314
▁것을	-1315
▁시즌	-1316
▁인물	-1317
마지막	-1318
으면서	-1319
▁결말이	-1320
스가	-1321
▁....	-1322
한번	-1323
er	-1324
▁상황	-1325
▁주고	-1326
려서	-1327
말고	-1328
▁간만에	-1329
▁잘봤	-1330
▁쓰레기영화	-1331
▁영화관에서	-1332
▁ᄏᄏᄏᄏᄏᄏᄏᄏ	-1333
▁성룡	-1334
▁이것	-1335
적이다	-1336
▁송	-1337
그런	-1338
머니	-1339
▁섹	-1340
▁테	-1341
버지	-1342
▁한마디	-1343
▁꼬	-1344
인의	-1345
짜리	-1346
해라	-1347
▁등장	-1348
▁아쉽다	-1349
▁좋은데	-1350
었고	-1351
편은	-1352
▁30	-1353
▁교훈	-1354
▁존재	-1355
▁좋겠	-1356
▁화려	-1357
▁c	-1358
땜에	-1359
완전	-1360
하하	-1361
▁이후	-1362
보고싶	-1363
영화의	-1364
▁킬링타임용	-1365
▁트	-1366
▁풍	-1367
거같	-1368
▁온	-1369
▁독특	-1370
;;;;	-1371
▁영화였다	-1372
▁으	-1373
다른	-1374
론가	-1375
▁아님	-1376
▁생각을	-1377
▁감동적인	-1378
▁멍	-1379
▁훈	-1380
다시	-1381
▁맘에	-1382
▁바로	-1383
▁애들	-1384
▁평가	-1385
▁여배우	-1386
▁~	-1387
▁쓸	-1388
▁전부	-1389
▁스토리는	-1390
건데	-1391
되고	-1392
▁잘못	-1393
▁같아요	-1394
거야	-1395
연히	-1396
▁사회	-1397
▁있을까	-1398
▁배우들이	-1399
▁라	-1400
감이	-1401
았던	-1402
▁잔잔한	-1403
▁했는데	-1404
▁마이	-1405
▁보니	-1406
▁삼류	-1407
▁않다	-1408
▁생각보다	-1409
이팅	-1410
▁대해	-1411
주세요	-1412
▁진정한	-1413
▁틀	-1414
▁혹	-1415
들어	-1416
워요	-1417
할때	-1418
▁다운	-1419
▁별점	-1420
▁영화임	-1421
아닌	-1422
잖아	-1423
아깝다	-1424
▁그리	-1425
▁어울	-1426
▁상당히	-1427
▁직	-1428
수를	-1429
▁감동을	-1430
▁그대로	-1431
모르	-1432
정도로	-1433
▁정도로	-1434
▁거의	-1435
▁재미는	-1436
▁소설	-1437
▁영화인데	-1438
나오는	-1439
▁같은데	-1440
스타	-1441
▁높은	-1442
▁다르	-1443
,.	-1444
▁?	-1445
▁ᅳ	-1446
▁항	-1447
본다	-1448
중간	-1449
▁허무	-1450
▁세계	-1451
였음	-1452
▁재미있는	-1453
▁빵	-1454
▁ᄍᄍ	-1455
▁두번	-1456
▁예상	-1457
▁중간에	-1458
여자	-1459
을텐데	-1460
▁나와서	-1461
▁뭐야	-1462
▁자연	-1463
▁준다	-1464
거나	-1465
▁해서	-1466
▁재미있어요	-1467
................	-1468
졌다	-1469
하냐	-1470
▁하다	-1471
에서도	-1472
리의	-1473
영화다	-1474
▁휴	-1475
신이	-1476
하자	-1477
▁뭐지	-1478
▁있지만	-1479
댓글	-1480
이게	-1481
▁몇번	-1482
보다는	-1483
간다	-1484
분들	-1485
▁재밌네요	-1486
▁윤	-1487
▁멋있	-1488
▁봐서	-1489
▁재미있다	-1490
▁구성	-1491
▁어른	-1492
▁겁	-1493
▁봣	-1494
기대	-1495
▁기다	-1496
▁나의	-1497
▁혼자	-1498
▁봤지만	-1499
▁이영화를	-1500
▁볼수	-1501
▁실제	-1502
▁자기	-1503
▁100	-1504
시대	-1505
어나	-1506
여서	-1507
▁잃	-1508
을수	-1509
▁에로	-1510
▁평점을	-1511
▁착	-1512
아야	-1513
어가	-1514
저히	-1515
▁이번	-1516
▁밑	-1517
라니	-1518
▁멜로	-1519
었지만	-1520
▁압	-1521
때마다	-1522
에서는	-1523
▁맨	-1524
▁각본	-1525
▁제가	-1526
▁했다	-1527
▁마음에	-1528
▁(	-1529
▁흑	-1530
▁슬픈	-1531
,,,,	-1532
▁굉장히	-1533
음악	-1534
다는게	-1535
▁장면이	-1536
에선	-1537
▁낮은	-1538
▁좀비	-1539
▁O	-1540
▁묘	-1541
예요	-1542
▁더욱	-1543
▁갑자기	-1544
-_-	-1545
▁어쩌	-1546
▁질질	-1547
▁평범	-1548
▁어디서	-1549
▁있어서	-1550
사가	-1551
시다	-1552
▁90	-1553
랑스	-1554
이트	-1555
지를	-1556
▁머리	-1557
▁뭐냐	-1558
▁원작을	-1559
고는	-1560
▁방송	-1561
▁저런	-1562
▁즐거	-1563
▁권	-1564
▁까	-1565
▁빨리	-1566
▁여주	-1567
▁확실	-1568
보면서	-1569
▁극장판	-1570
▁새로운	-1571
▁판타지	-1572
▁누구	-1573
았음	-1574
▁예쁘	-1575
▁볼만한	-1576
던가	-1577
~!!	-1578
▁감독님	-1579
▁그녀	-1580
▁상영	-1581
▁못하는	-1582
▁재미없는	-1583
일이	-1584
▁의도	-1585
▁크리스	-1586
인다	-1587
▁개그	-1588
▁끝나	-1589
▁불편	-1590
▁밀	-1591
▁벗	-1592
▁믿고	-1593
▁화면	-1594
▁슈	-1595
▁가치	-1596
▁봐라	-1597
▁있어	-1598
스럽고	-1599
▁듣	-1600
▁빛	-1601
▁회	-1602
▁흠	-1603
우드	-1604
▁뭐가	-1605
코미디	-1606
▁생각하게	-1607
에겐	-1608
▁자체가	-1609
▁근	-1610
유의	-1611
하니	-1612
▁저는	-1613
▁전형	-1614
▁시청률	-1615
▁너무너무	-1616
▁놓	-1617
▁쳐	-1618
와서	-1619
▁일단	-1620
▁항상	-1621
지게	-1622
▁봤음	-1623
▁꺼	-1624
▁빈	-1625
년전	-1626
도록	-1627
리티	-1628
▁성우	-1629
▁역대	-1630
▁흥행	-1631
▁훌륭한	-1632
▁M	-1633
▁탄탄	-1634
▁그러나	-1635
▁봄	-1636
▁왔	-1637
▁운	-1638
현실	-1639
▁꿀잼	-1640
▁만드	-1641
▁예고	-1642
▁가지고	-1643
▁있는데	-1644
▁ᄉ	-1645
진진	-1646
▁있었다	-1647
그러	-1648
봐서	-1649
조건	-1650
▁감성	-1651
▁살인	-1652
▁빌	-1653
남자	-1654
속에	-1655
▁비해	-1656
▁아닐	-1657
▁중요	-1658
보다가	-1659
했어요	-1660
▁그런지	-1661
▁보여주	-1662
▁향	-1663
▁사람은	-1664
▁없어서	-1665
▁이런영화	-1666
▁써	-1667
들아	-1668
메디	-1669
▁관람	-1670
▁아까움	-1671
▁평론가	-1672
▁필	-1673
이라니	-1674
하지않	-1675
▁처음부터	-1676
in	-1677
▁TV	-1678
립니다	-1679
▁생각해	-1680
▁충분히	-1681
▁주인공이	-1682
없어	-1683
▁순간	-1684
▁한심	-1685
기고	-1686
▁돋보	-1687
하지도	-1688
내가	-1689
무리	-1690
▁것은	-1691
▁대단한	-1692
거다	-1693
▁진행	-1694
▁헐리	-1695
▁해도	-1696
▁개연성	-1697
▁됐	-1698
▁점점	-1699
▁쉽	-1700
별로	-1701
사회	-1702
▁리얼	-1703
▁안타깝	-1704
▁프랑스	-1705
▁합니다	-1706
▁댓글	-1707
으며	-1708
조차	-1709
▁만족	-1710
▁잘만들	-1711
▁금	-1712
이코	-1713
▁소리	-1714
▁어려	-1715
▁좋네요	-1716
▁짝	-1717
되어	-1718
▁tv	-1719
▁나이	-1720
▁시절	-1721
▁식상	-1722
▁한편	-1723
▁젊	-1724
▁몰랐	-1725
▁참고	-1726
▁훈훈	-1727
영화중	-1728
▁헤	-1729
웃음	-1730
▁당신	-1731
▁자극	-1732
만으로도	-1733
▁good	-1734
▁능	-1735
가고	-1736
처음	-1737
했고	-1738
히려	-1739
▁수가	-1740
▁분위기	-1741
▁m	-1742
짜증	-1743
▁먹먹	-1744
▁보았	-1745
▁소중	-1746
▁참신	-1747
▁홍콩	-1748
▁재밌는데	-1749
▁루	-1750
▁승	-1751
만의	-1752
스의	-1753
아도	-1754
▁황당	-1755
▁아닌가	-1756
▁좋은영화	-1757
▁맥	-1758
▁섬	-1759
저씨	-1760
▁그닥	-1761
시리즈	-1762
▁이영화는	-1763
▁창	-1764
한게	-1765
▁어쩔	-1766
▁하게	-1767
것같다	-1768
▁짧	-1769
러운	-1770
봐야	-1771
일까	-1772
▁그때	-1773
▁된다	-1774
▁선택	-1775
▁엉망	-1776
▁201	-1777
▁보는데	-1778
▁전개가	-1779
▁흥미진진	-1780
▁급	-1781
▁씨	-1782
촬영	-1783
▁유명	-1784
▁한마디로	-1785
//	-1786
리게	-1787
효과	-1788
▁불륜	-1789
▁도저히	-1790
▁안타까	-1791
▁평점은	-1792
했습니다	-1793
▁묻	-1794
하긴	-1795
▁망작	-1796
▁여전	-1797
▁무조건	-1798
▁재밌었다	-1799
▁검	-1800
▁깔	-1801
▁놈	-1802
▁찌	-1803
최악	-1804
▁가는	-1805
▁카메	-1806
▁케이	-1807
어지는	-1808
었으면	-1809
▁더럽게	-1810
▁어릴때	-1811
▁엄청난	-1812
많은	-1813
민국	-1814
▁편집	-1815
▁감독은	-1816
▁다시봐도	-1817
파이	-1818
▁과거	-1819
▁끝내	-1820
▁아쉬운	-1821
▁쓴	-1822
추천	-1823
▁얘기	-1824
▁지금까지	-1825
인물	-1826
지금	-1827
▁없네	-1828
지마라	-1829
▁-_-	-1830
▁사랑을	-1831
▁뮤	-1832
▁그게	-1833
▁모르고	-1834
▁이것도	-1835
이냐	-1836
▁멍청	-1837
▁범죄	-1838
▁안나	-1839
▁진지	-1840
▁겨	-1841
▁80	-1842
▁원래	-1843
하는거	-1844
▁돈주고	-1845
▁사람들은	-1846
겠네	-1847
만이	-1848
없네	-1849
▁미안	-1850
▁이리	-1851
영상	-1852
이면	-1853
보는데	-1854
▁봤네요	-1855
▁페	-1856
연출	-1857
▁물론	-1858
▁있음	-1859
▁희망	-1860
하다고	-1861
▁좋겠다	-1862
▁줄거리	-1863
그램	-1864
막장	-1865
애니	-1866
▁영화인	-1867
당시	-1868
대박	-1869
하여	-1870
▁만점	-1871
▁초등	-1872
▁해야	-1873
영화로	-1874
▁견	-1875
▁설명	-1876
▁자꾸	-1877
▁힘든	-1878
났다	-1879
어로	-1880
▁결혼	-1881
▁최근	-1882
▁평점에	-1883
▁후반부	-1884
▁뜬	-1885
방송	-1886
▁가능	-1887
▁전설	-1888
▁죽음	-1889
▁로맨틱	-1890
▁a	-1891
▁넣	-1892
▁북	-1893
▁미화	-1894
▁아빠	-1895
▁그래픽	-1896
▁유치한	-1897
▁있다는	-1898
였습니다	-1899
▁갔	-1900
스런	-1901
▁감상	-1902
▁분명	-1903
▁알려	-1904
▁저질	-1905
▁따뜻한	-1906
▁액션도	-1907
▁전형적인	-1908
시는	-1909
▁느꼈	-1910
▁사라	-1911
보세요	-1912
.......	-1913
▁법	-1914
내는	-1915
님의	-1916
▁가볍	-1917
▁괜히	-1918
▁내인생	-1919
▁d	-1920
시고	-1921
▁그럴	-1922
▁그림	-1923
▁배우가	-1924
▁없네요	-1925
따위	-1926
▁병맛	-1927
▁웃긴	-1928
▁느끼게	-1929
▁억지로	-1930
▁오히려	-1931
내고	-1932
▁아버지	-1933
▁예전에	-1934
.5	-1935
▁골	-1936
작가	-1937
▁독립	-1938
▁영웅	-1939
▁좋음	-1940
메이크	-1941
▁무서운	-1942
▁오글거	-1943
▁완벽한	-1944
▁이야기를	-1945
▁끼	-1946
공포	-1947
대의	-1948
명작	-1949
봐라	-1950
지다	-1951
▁나쁘	-1952
▁바보	-1953
▁인간의	-1954
▁깜	-1955
년에	-1956
프로	-1957
▁듯한	-1958
▁학교	-1959
였는데	-1960
하는게	-1961
▁입니다	-1962
▁덕	-1963
나면	-1964
이하	-1965
자의	-1966
▁SF	-1967
그래도	-1968
▁연출력	-1969
것은	-1970
은데	-1971
▁돈이	-1972
▁동화	-1973
▁별루	-1974
▁죽는	-1975
▁하면	-1976
▁완성도	-1977
▁우연히	-1978
▁기대하고	-1979
ST	-1980
▁친	-1981
오는	-1982
움이	-1983
▁바라	-1984
▁흘러	-1985
▁스타일	-1986
▁지루해	-1987
▁좋았어요	-1988
님이	-1989
▁대작	-1990
▁말고	-1991
▁인정	-1992
▁현재	-1993
▁것이다	-1994
▁모르는	-1995
▁대한민국	-1996
▁팔	-1997
랄까	-1998
평가	-1999
한듯	-2000
함과	-2001
▁!!	-2002
▁나쁜	-2003
▁되어	-2004
▁요소	-2005
▁알았다	-2006
▁영화보다	-2007
▁재미없어	-2008
스를	-2009
실망	-2010
심이	-2011
▁복수	-2012
▁신기	-2013
▁적당	-2014
▁진실	-2015
▁안된다	-2016
▁아무것도	-2017
▁아이들이	-2018
예산	-2019
▁전기	-2020
▁지금도	-2021
웠던	-2022
인간	-2023
▁관계	-2024
▁풀어	-2025
▁허술	-2026
우는	-2027
▁다행	-2028
▁메세	-2029
▁서로	-2030
▁영원	-2031
▁잊혀	-2032
▁어설프	-2033
▁재밌어	-2034
▁처음으로	-2035
--	-2036
네여	-2037
심을	-2038
▁중반	-2039
리아	-2040
▁낫다	-2041
▁노력	-2042
▁이러	-2043
같은데	-2044
안되는	-2045
▁ost	-2046
▁이런걸	-2047
▁특유의	-2048
▁화이팅	-2049
▁재미있고	-2050
▁유머	-2051
▁전문	-2052
▁전편	-2053
▁핵	-2054
기엔	-2055
리다	-2056
▁바람	-2057
▁성장	-2058
▁안보	-2059
▁즐겁	-2060
▁천재	-2061
더군요	-2062
▁다운받	-2063
▁앞으로	-2064
▁코메디	-2065
▁만들었다	-2066
▁ᄃᄃ	-2067
최고의	-2068
▁알았는데	-2069
▁촌	-2070
드가	-2071
상을	-2072
▁없을	-2073
▁웃겨	-2074
▁연출이	-2075
▁이런거	-2076
▁멀	-2077
있게	-2078
▁놀라	-2079
▁라는	-2080
▁저도	-2081
▁전작	-2082
▁청춘	-2083
안하고	-2084
▁탈	-2085
강추	-2086
세가	-2087
어울	-2088
▁나라	-2089
▁뭔지	-2090
▁부모	-2091
됩니다	-2092
▁영화에서	-2093
he	-2094
▁워	-2095
아먹	-2096
▁촬영	-2097
것이다	-2098
한다는	-2099
▁목소리	-2100
▁장면은	-2101
▁리메이크	-2102
▁유치하고	-2103
스로	-2104
한건	-2105
▁여성	-2106
▁왜이리	-2107
▁어렸을때	-2108
▁재미없고	-2109
점준	-2110
줄알	-2111
▁싫어	-2112
▁아프	-2113
▁우울	-2114
▁만들지	-2115
ᄏᄏᄏᄏᄏᄏᄏᄏᄏᄏᄏᄏᄏᄏᄏᄏ	-2116
자들	-2117
하겠	-2118
▁못보	-2119
▁않음	-2120
▁명작이다	-2121
화가	-2122
▁노출	-2123
▁또한	-2124
▁지난	-2125
▁말하고	-2126
▁류	-2127
그라	-2128
많이	-2129
▁그려	-2130
▁졸라	-2131
봅니다	-2132
소한	-2133
▁거지	-2134
▁뜬금	-2135
▁만큼	-2136
▁작품이	-2137
▁면	-2138
▁줘	-2139
리에	-2140
분이	-2141
식이	-2142
싶다	-2143
역시	-2144
ᅲᅲᅲ	-2145
▁게임	-2146
▁사건	-2147
▁중에	-2148
배우들	-2149
▁ᄒᄒᄒ	-2150
▁모습이	-2151
▁비슷한	-2152
▁아니지만	-2153
르고	-2154
장이	-2155
정을	-2156
치게	-2157
▁비추	-2158
▁아오	-2159
▁이래	-2160
▁이연	-2161
아니고	-2162
▁최악이다	-2163
▁D	-2164
려면	-2165
무슨	-2166
▁가득	-2167
▁정치	-2168
▁철학	-2169
영화에	-2170
▁귀여운	-2171
▁그렇고	-2172
▁않았다	-2173
▁하는데	-2174
▁시간낭비	-2175
▁짐	-2176
▁찬	-2177
▁플	-2178
▁합	-2179
개봉	-2180
이의	-2181
자는	-2182
▁그의	-2183
▁않을	-2184
▁이어	-2185
▁아닐까	-2186
▁스토리에	-2187
였던	-2188
▁누군	-2189
▁보여준	-2190
하면서도	-2191
▁드라마를	-2192
?)	-2193
분에	-2194
인거	-2195
▁12	-2196
▁돌려	-2197
▁이상한	-2198
▁진부한	-2199
▁재밌었어요	-2200
▁좋았습니다	-2201
▁접	-2202
▁학	-2203
놓은	-2204
▁안맞	-2205
▁어찌	-2206
▁왠지	-2207
▁해피	-2208
있는데	-2209
▁좋았고	-2210
▁생각한다	-2211
가요	-2212
걸까	-2213
던지	-2214
세계	-2215
인은	-2216
져서	-2217
지못	-2218
▁경찰	-2219
▁스케	-2220
▁행동	-2221
▁마음을	-2222
▁부족한	-2223
▁화려한	-2224
▁전체적으로	-2225
기억	-2226
▁15	-2227
▁남아	-2228
▁짱짱	-2229
▁그런데	-2230
▁못하고	-2231
▁얻	-2232
대사	-2233
▁귀신	-2234
▁눈이	-2235
면서도	-2236
▁감동적	-2237
▁반전이	-2238
▁안나오	-2239
▁너무나도	-2240
▁드라마가	-2241
▁잘봤습니다	-2242
▁영화였습니다	-2243
▁응	-2244
감을	-2245
수도	-2246
▁마치	-2247
▁먼저	-2248
▁미래	-2249
▁삶을	-2250
▁아는	-2251
▁아마	-2252
▁예전	-2253
▁전달	-2254
시간이	-2255
점짜리	-2256
▁같습니다	-2257
▁보고나서	-2258
심히	-2259
알바	-2260
자를	-2261
좋고	-2262
해주	-2263
..?	-2264
▁본다	-2265
▁손발	-2266
나온다	-2267
봤어요	-2268
재밌게	-2269
하는지	-2270
▁소재는	-2271
▁대단하다	-2272
▁무엇보다	-2273
▁샤	-2274
▁대충	-2275
▁성공	-2276
▁알겠	-2277
▁어렵	-2278
▁잘생	-2279
▁한계	-2280
수있는	-2281
었네요	-2282
점준다	-2283
해주는	-2284
▁여자가	-2285
▁이야기가	-2286
반전	-2287
▁나만	-2288
만하면	-2289
▁이런게	-2290
or	-2291
▁:	-2292
▁월	-2293
▁퍼	-2294
지네요	-2295
▁이영화가	-2296
▁논	-2297
기다	-2298
마저	-2299
모습	-2300
▁그랬	-2301
▁나머	-2302
▁다소	-2303
▁메시	-2304
▁환상	-2305
사람이	-2306
▁나에게	-2307
▁애들이	-2308
▁인상깊	-2309
▁지금봐도	-2310
▁늙	-2311
▁뒷	-2312
▁웬	-2313
▁짓	-2314
▁춤	-2315
다운	-2316
보이	-2317
▁깊은	-2318
▁이젠	-2319
▁예고편	-2320
▁자신의	-2321
▁영화중에	-2322
극장	-2323
리도	-2324
이해	-2325
인을	-2326
▁눈을	-2327
▁시도	-2328
▁확실히	-2329
순간	-2330
스는	-2331
스릴	-2332
좋다	-2333
▁러브	-2334
▁와닿	-2335
▁조연	-2336
▁피해	-2337
고싶다	-2338
▁나온다	-2339
▁있었던	-2340
▁어이없는	-2341
내요	-2342
새끼	-2343
▁밑에	-2344
▁자유	-2345
닝타임	-2346
▁모습을	-2347
▁케이블	-2348
▁했지만	-2349
▁허접한	-2350
ᄏᄏᄏᄏᄏ	-2351
▁매력적인	-2352
▁뜨	-2353
▁힐	-2354
가족	-2355
번째	-2356
~^^	-2357
▁군대	-2358
▁글쎄	-2359
▁낭비	-2360
▁미소	-2361
▁심심	-2362
사람들	-2363
했으면	-2364
▁같네요	-2365
▁잘만든	-2366
▁좋았는데	-2367
▁A	-2368
눈물	-2369
려다	-2370
마음	-2371
말로	-2372
▁알아	-2373
만으로	-2374
지도않	-2375
▁그런가	-2376
▁내용을	-2377
▁좋았음	-2378
아아	-2379
이제	-2380
지컬	-2381
특히	-2382
▁심리	-2383
도없고	-2384
스럽게	-2385
이에요	-2386
퀄리티	-2387
▁별로다	-2388
▁짜증나	-2389
▁영화이다	-2390
▁왜이렇게	-2391
▁프로그램	-2392
**	-2393
▁증	-2394
▁나를	-2395
▁연애	-2396
▁취향	-2397
이렇게	-2398
▁감사합니다	-2399
▁ᅮ	-2400
▁붙	-2401
겟다	-2402
과는	-2403
로서	-2404
일뿐	-2405
절한	-2406
▁고민	-2407
하기만	-2408
▁보이는	-2409
▁부분이	-2410
▁역시나	-2411
.2	-2412
▁딴	-2413
성애	-2414
어라	-2415
▁겁나	-2416
▁하루	-2417
였어요	-2418
▁감정이	-2419
▁제작비	-2420
▁스토리와	-2421
▁끊	-2422
더만	-2423
들만	-2424
로는	-2425
▁;;	-2426
▁ᄉᄇ	-2427
▁남주	-2428
▁다가	-2429
▁아놔	-2430
▁의외	-2431
지않는	-2432
▁해주는	-2433
▁느껴지는	-2434
▁영화보고	-2435
▁영화지만	-2436
무서	-2437
시켜	-2438
터리	-2439
할듯	-2440
▁그럼	-2441
▁실패	-2442
▁외국	-2443
▁젊은	-2444
▁찍은	-2445
없어서	-2446
▁사람을	-2447
▁세상에	-2448
▁어색한	-2449
▁연기에	-2450
▁저예산	-2451
▁카메라	-2452
▁+	-2453
▁G	-2454
소년	-2455
소재	-2456
었나	-2457
▁넘어	-2458
▁드는	-2459
▁해준	-2460
▁했던	-2461
▁화가	-2462
▁OST	-2463
▁나오고	-2464
▁사랑이	-2465
▁떨어지는	-2466
▁젤	-2467
저럭	-2468
쩐다	-2469
▁cg	-2470
▁감탄	-2471
▁느낀	-2472
▁순수한	-2473
▁아저씨	-2474
▁중간중간	-2475
▁처음이다	-2476
▁<	-2477
▁꾸	-2478
구려	-2479
는가	-2480
되지	-2481
▁오락	-2482
만드는	-2483
하세요	-2484
▁아닌데	-2485
▁여전히	-2486
▁씬	-2487
으론	-2488
이를	-2489
티비	-2490
▁가끔	-2491
▁역할	-2492
하려는	-2493
▁보는게	-2494
▁소재를	-2495
▁아니면	-2496
▁ᄏᄏᄏᄏᄏ	-2497
▁보지마세요	-2498
▁엑	-2499
다지	-2500
사는	-2501
와르	-2502
움을	-2503
▁기본	-2504
▁든다	-2505
▁특별	-2506
▁액션은	-2507
▁있다면	-2508
▁드라마는	-2509
▁w	-2510
▁곳	-2511
▁씁	-2512
명이	-2513
해보	-2514
▁나서	-2515
▁난다	-2516
▁맞는	-2517
▁섹시	-2518
▁이하	-2519
▁조폭	-2520
▁유쾌한	-2521
▁제작진	-2522
▁봤었는데	-2523
▁재미있음	-2524
▁꼴	-2525
▁밤	-2526
나올	-2527
▁마라	-2528
▁블랙	-2529
▁사극	-2530
▁슬픔	-2531
▁시선	-2532
▁유일	-2533
하다는	-2534
▁독특한	-2535
▁매력이	-2536
▁안하고	-2537
▁어이가	-2538
▁볼때마다	-2539
▁스토리를	-2540
니아	-2541
럽다	-2542
었어	-2543
위해	-2544
ᄒᄒᄒ	-2545
▁결론	-2546
▁까지	-2547
▁내생	-2548
▁리뷰	-2549
▁전에	-2550
▁호러	-2551
럭저럭	-2552
▁액션이	-2553
▁이유가	-2554
▁저렇게	-2555
▁연기력이	-2556
ou	-2557
▁폐	-2558
결말	-2559
트가	-2560
했을	-2561
▁가진	-2562
▁굿굿	-2563
▁다만	-2564
▁평생	-2565
▁귀엽고	-2566
▁그들의	-2567
▁끝나고	-2568
▁안되고	-2569
▁평범한	-2570
▁아름답고	-2571
▁쩔	-2572
먹고	-2573
하던	-2574
▁괴물	-2575
▁모자	-2576
▁미스	-2577
▁예쁜	-2578
▁이기	-2579
영화도	-2580
▁기대를	-2581
▁소름끼	-2582
▁흥미롭	-2583
래기	-2584
레스	-2585
씨가	-2586
었네	-2587
▁해주	-2588
▁감동적이고	-2589
▁돼	-2590
아라	-2591
었을	-2592
있네	-2593
펑펑	-2594
(?)	-2595
▁라이	-2596
▁살짝	-2597
▁악역	-2598
▁연예	-2599
▁일어	-2600
더라도	-2601
식으로	-2602
이라서	-2603
하지마	-2604
▁다큐멘	-2605
▁연기와	-2606
▁재밌었는데	-2607
▁밝	-2608
▁헛	-2609
끼리	-2610
시아	-2611
싶은	-2612
화를	-2613
▁굳이	-2614
▁깔끔	-2615
▁사이	-2616
▁시원	-2617
▁안됨	-2618
▁통해	-2619
▁희생	-2620
한다면	-2621
▁남는다	-2622
▁몰입이	-2623
▁보기엔	-2624
거냐	-2625
즈니	-2626
▁고전	-2627
▁봤다가	-2628
▁어린이	-2629
▁풋	-2630
들고	-2631
디어	-2632
▁과연	-2633
▁난해	-2634
▁분노	-2635
▁올라	-2636
▁용서	-2637
▁일상	-2638
버렸다	-2639
았어요	-2640
있어요	-2641
더라구요	-2642
▁사랑하는	-2643
▁아름답다	-2644
▁녹	-2645
원이	-2646
유치	-2647
편을	-2648
▁슈퍼	-2649
▁압권	-2650
▁종교	-2651
▁슬프다	-2652
▁어렸을	-2653
▁어릴적	-2654
았습니다	-2655
▁주인공의	-2656
99	-2657
▁겉	-2658
▁십	-2659
따라	-2660
어진	-2661
주얼	-2662
▁나타	-2663
▁스트	-2664
에서의	-2665
▁음악이	-2666
▁이건뭐	-2667
▁정말로	-2668
▁현실을	-2669
▁그럭저럭	-2670
▁짜증나는	-2671
▁하나하나	-2672
▁추천합니다	-2673
bb	-2674
▁짠	-2675
▁톰	-2676
같음	-2677
걸로	-2678
까진	-2679
나가	-2680
듯이	-2681
한것	-2682
▁같음	-2683
▁불쾌	-2684
▁좋을	-2685
▁되었다	-2686
▁사랑에	-2687
▁아닌듯	-2688
▁잼있게	-2689
▁나왔으면	-2690
▁전기세가	-2691
▁생각합니다	-2692
른다	-2693
서야	-2694
있음	-2695
▁부터	-2696
▁재난	-2697
▁표절	-2698
구하고	-2699
▁열심히	-2700
▁이연걸	-2701
▁작품성	-2702
▁재미를	-2703
▁처음엔	-2704
▁I	-2705
▁칼	-2706
대는	-2707
무비	-2708
무섭	-2709
안되	-2710
제목	-2711
한국	-2712
▁막판	-2713
▁무지	-2714
▁포장	-2715
▁후속	-2716
으로서	-2717
▁더이상	-2718
▁보시길	-2719
▁만들어진	-2720
▁재미없네	-2721
an	-2722
▁챙	-2723
이터	-2724
▁개판	-2725
▁뮤지컬	-2726
▁신선한	-2727
▁아까워	-2728
▁영화냐	-2729
▁티비에서	-2730
▁재밌습니다	-2731
▁덜	-2732
▁밥	-2733
▁썩	-2734
▁축	-2735
▁침	-2736
기의	-2737
류의	-2738
불가	-2739
줌마	-2740
▁동물	-2741
▁보시	-2742
▁포기	-2743
지않은	-2744
▁공감이	-2745
▁기분이	-2746
▁싸이코	-2747
▁오그라	-2748
▁재밋게	-2749
▁진심으로	-2750
▁늦	-2751
▁던	-2752
▁뭉	-2753
겹다	-2754
버렸	-2755
이니	-2756
▁무협	-2757
▁소녀	-2758
▁영환	-2759
좋아요	-2760
▁그렇다	-2761
▁배우의	-2762
▁상상력	-2763
기로	-2764
대가	-2765
돌아	-2766
들에	-2767
보여	-2768
사를	-2769
▁감명	-2770
▁몸매	-2771
▁상처	-2772
▁자막	-2773
▁채널	-2774
▁사랑과	-2775
이유	-2776
이크	-2777
진심	-2778
▁고생	-2779
▁놀랍	-2780
▁되게	-2781
▁크게	-2782
▁현대	-2783
▁형편	-2784
점주는	-2785
했다는	-2786
▁볼만함	-2787
▁소재가	-2788
▁이유는	-2789
!!!!!	-2790
re	-2791
▁격	-2792
▁쩌	-2793
겼다	-2794
수는	-2795
시킨	-2796
줘서	-2797
히는	-2798
▁떠나	-2799
▁레이	-2800
▁말로	-2801
▁보러	-2802
▁사는	-2803
▁아침	-2804
▁있나	-2805
▁혹시	-2806
▁흐름	-2807
년전에	-2808
지않고	-2809
▁감동과	-2810
▁추억의	-2811
▁퀄리티	-2812
▁말이필요	-2813
▁이정도면	-2814
▁퇴	-2815
와는	-2816
이며	-2817
쵝오	-2818
할까	-2819
▁같아	-2820
▁그지	-2821
▁수도	-2822
▁쓸데	-2823
▁전투	-2824
▁폭력	-2825
▁표정	-2826
연기가	-2827
▁그다지	-2828
▁봤으면	-2829
▁필요한	-2830
▁징	-2831
그렇	-2832
리기	-2833
봤음	-2834
표현	-2835
▁가서	-2836
▁동생	-2837
▁삶의	-2838
▁쉽게	-2839
평점이	-2840
▁없지만	-2841
▁하네요	-2842
▁등장인물	-2843
▁생각나는	-2844
20	-2845
▁쇼	-2846
▁엘	-2847
명의	-2848
상이	-2849
아주	-2850
안에	-2851
오빠	-2852
웠음	-2853
해준	-2854
▁두고	-2855
▁어제	-2856
▁오버	-2857
보는게	-2858
아까운	-2859
▁마무리	-2860
▁볼수록	-2861
▁소름돋	-2862
▁지루하지	-2863
▁지루해서	-2864
▁필요없다	-2865
▁꼽	-2866
▁맡	-2867
▁잤	-2868
수의	-2869
아님	-2870
었지	-2871
지말	-2872
▁강렬	-2873
▁남녀	-2874
▁드러	-2875
▁부끄	-2876
▁북한	-2877
▁설레	-2878
▁신경	-2879
▁정서	-2880
▁몇번을	-2881
▁우리가	-2882
▁좋았던	-2883
재밌어요	-2884
▁보고싶다	-2885
▁필요없는	-2886
▁해피엔딩	-2887
▁재미있네요	-2888
지의	-2889
▁그립	-2890
▁말할	-2891
▁무시	-2892
▁아련	-2893
▁태어	-2894
▁힐링	-2895
까지는	-2896
속에서	-2897
하다가	-2898
▁가볍게	-2899
▁나중에	-2900
▁비주얼	-2901
▁사람의	-2902
▁스케일	-2903
▁보고싶은	-2904
▁좋습니다	-2905
▁잇	-2906
▁컨	-2907
도가	-2908
언가	-2909
▁남을	-2910
▁반성	-2911
▁비극	-2912
▁사기	-2913
▁산만	-2914
▁속편	-2915
▁끝나는	-2916
▁디즈니	-2917
▁반전도	-2918
▁소재로	-2919
▁수준이	-2920
▁연출도	-2921
▁음악도	-2922
▁몽	-2923
▁움	-2924
▁활	-2925
독교	-2926
르노	-2927
엄마	-2928
오글	-2929
의미	-2930
이자	-2931
전쟁	-2932
▁70	-2933
▁ᄋᄋ	-2934
▁거짓	-2935
▁눈빛	-2936
▁미치	-2937
▁선생	-2938
▁의심	-2939
▁이루	-2940
▁있게	-2941
▁조잡	-2942
버리고	-2943
재미없	-2944
▁몰라도	-2945
▁제목이	-2946
▁하면서	-2947
.1	-2948
▁i	-2949
▁끄	-2950
관계	-2951
에만	-2952
정신	-2953
중의	-2954
친다	-2955
▁국민	-2956
▁보이	-2957
▁소장	-2958
▁없나	-2959
▁의문	-2960
▁있지	-2961
▁좋아서	-2962
▁뇌	-2963
▁김기	-2964
▁능력	-2965
▁말을	-2966
▁본방	-2967
▁심각	-2968
▁올해	-2969
▁일부	-2970
▁통쾌	-2971
하기도	-2972
▁봐야할	-2973
~~~~~~~~	-2974
?!	-2975
▁찡	-2976
거운	-2977
나이	-2978
밋밋	-2979
일본	-2980
자단	-2981
찝찝	-2982
▁건지	-2983
▁깊이	-2984
▁스크	-2985
▁역겨	-2986
거리는	-2987
봣는데	-2988
연기도	-2989
영화임	-2990
캐릭터	-2991
▁슬프고	-2992
▁시간을	-2993
▁싸구려	-2994
▁아이들	-2995
▁언제나	-2996
재미없다	-2997
,2	-2998
▁ᄌ	-2999
▁윌	-3000
가능	-3001
그인	-3002
두고	-3003
봐요	-3004
있어	-3005
▁광고	-3006
▁라고	-3007
했는지	-3008
▁마세요	-3009
▁엉성한	-3010
▁인생을	-3011
▁점수를	-3012
영화라고	-3013
▁다시한번	-3014
on	-3015
▁쉬	-3016
▁흡	-3017
라스	-3018
마스	-3019
봤던	-3020
트콤	-3021
▁40	-3022
▁가까	-3023
▁깨닫	-3024
▁받아	-3025
▁악당	-3026
▁않게	-3027
▁죽여	-3028
▁지구	-3029
사람은	-3030
▁만들고	-3031
▁쓰래기	-3032
▁이제야	-3033
▁있습니다	-3034
ad	-3035
▁농	-3036
구니	-3037
▁스티	-3038
▁싶어	-3039
▁아픔	-3040
▁오랫	-3041
▁이쁜	-3042
▁인터	-3043
▁존경	-3044
▁펑펑	-3045
▁불구하고	-3046
▁헐리우드	-3047
드의	-3048
만화	-3049
뻐서	-3050
우리	-3051
이후	-3052
하신	-3053
▁그린	-3054
▁방금	-3055
▁생애	-3056
▁싫다	-3057
▁이때	-3058
▁하이	-3059
▁홍보	-3060
감독이	-3061
장면이	-3062
▁뛰어난	-3063
▁봣는데	-3064
▁웃기고	-3065
▁이해할	-3066
▁재밌네	-3067
▁사랑스러운	-3068
▁뉴	-3069
▁쫌	-3070
느라	-3071
란다	-3072
해진	-3073
▁그걸	-3074
▁둘다	-3075
▁섬세	-3076
▁평이	-3077
▁풋풋	-3078
하시는	-3079
...?	-3080
▁낮아서	-3081
▁어려운	-3082
▁액션영화	-3083
▁영화라는	-3084
▁납	-3085
▁뜻	-3086
만점	-3087
하셨	-3088
▁그것	-3089
▁나가	-3090
▁딱히	-3091
▁씁쓸	-3092
▁잊을	-3093
▁눈물을	-3094
▁드럽게	-3095
▁마이너	-3096
▁산으로	-3097
▁시사회	-3098
▁지루할	-3099
▁^	-3100
▁줬	-3101
가락	-3102
나왔	-3103
로우	-3104
아가	-3105
▁니콜	-3106
▁되고	-3107
▁발전	-3108
▁살다	-3109
▁새벽	-3110
▁연결	-3111
▁죄다	-3112
영화라	-3113
▁결말도	-3114
▁결말은	-3115
▁무언가	-3116
▁아쉬움	-3117
▁재밌었음	-3118
▁끔	-3119
▁쌍	-3120
▁좌	-3121
괜찮	-3122
남는	-3123
식을	-3124
여운	-3125
을거	-3126
이션	-3127
자고	-3128
▁단연	-3129
▁밋밋	-3130
▁생생	-3131
▁할말	-3132
아니라	-3133
집니다	-3134
▁느낌을	-3135
▁느와르	-3136
▁베스트	-3137
▁이따위	-3138
▁정신병	-3139
▁재미있었다	-3140
▁꽃	-3141
▁닥	-3142
▁익	-3143
▁푹	-3144
감도	-3145
나와	-3146
버리	-3147
줘야	-3148
학년	-3149
한지	-3150
007	-3151
▁고통	-3152
▁대표	-3153
▁때문	-3154
▁바뀌	-3155
▁성인	-3156
▁스포	-3157
▁일반	-3158
▁좀더	-3159
▁쵝오	-3160
수없는	-3161
한다고	-3162
▁어머니	-3163
▁있어요	-3164
▁지금은	-3165
▁닮	-3166
성에	-3167
온다	-3168
작이	-3169
하라	-3170
▁고등	-3171
▁나옴	-3172
▁나은	-3173
▁남겨	-3174
▁묘사	-3175
▁아나	-3176
랍니다	-3177
였지만	-3178
▁남자가	-3179
▁못했다	-3180
▁몰입해서	-3181
▁배우들도	-3182
▁일본영화	-3183
▁싱	-3184
▁잭	-3185
나도	-3186
피소	-3187
하구	-3188
000	-3189
▁많다	-3190
▁분들	-3191
▁느끼는	-3192
▁보니까	-3193
▁여기서	-3194
▁연기자	-3195
▁출연진	-3196
▁폴	-3197
답답	-3198
사의	-3199
ver	-3200
▁과장	-3201
▁끝난	-3202
▁되지	-3203
▁시걸	-3204
▁시시	-3205
▁안돼	-3206
▁외계	-3207
▁우주	-3208
아까움	-3209
하려고	-3210
▁뻔하고	-3211
▁스스로	-3212
▁헐리웃	-3213
▁현실적인	-3214
▁재미없어요	-3215
at	-3216
ie	-3217
▁냉	-3218
▁체	-3219
소설	-3220
▁슬퍼	-3221
▁아들	-3222
▁아류	-3223
▁에이	-3224
▁인도	-3225
▁한데	-3226
급영화	-3227
스릴러	-3228
아니다	-3229
었는지	-3230
으로써	-3231
자체가	-3232
캐스팅	-3233
▁견자단	-3234
▁단순한	-3235
▁떠나서	-3236
▁로그인	-3237
▁멋지다	-3238
▁시대를	-3239
▁없다는	-3240
▁작가가	-3241
▁아직까지	-3242
▁쪽	-3243
셔서	-3244
영이	-3245
인들	-3246
함에	-3247
ing	-3248
▁단지	-3249
▁발로	-3250
▁상업	-3251
▁영국	-3252
▁전반	-3253
겠네요	-3254
▁같아서	-3255
▁모든게	-3256
▁무엇을	-3257
▁생각없이	-3258
▁이거보고	-3259
."	-3260
▁뽑	-3261
▁앤	-3262
도안	-3263
우고	-3264
점주	-3265
져요	-3266
▁높다	-3267
▁뒤로	-3268
▁레전	-3269
▁벌써	-3270
▁와우	-3271
▁찝찝	-3272
▁흔한	-3273
줍니다	-3274
▁"""	-3275
▁옛날에	-3276
▁전문가	-3277
▁집에서	-3278
▁할말이	-3279
▁러닝타임	-3280
▁영화보는	-3281
▁푸	-3282
과의	-3283
긴다	-3284
로도	-3285
만드	-3286
인트	-3287
쳤다	-3288
▁명품	-3289
▁시각	-3290
▁연속	-3291
▁외모	-3292
▁은근	-3293
▁지켜	-3294
내용도	-3295
▁누구나	-3296
▁만든다	-3297
▁싶네요	-3298
▁안보고	-3299
▁않지만	-3300
▁작품을	-3301
▁즐겁게	-3302
▁잔잔하고	-3303
▁이런영화가	-3304
BS	-3305
▁줌	-3306
▁흉	-3307
계의	-3308
나옴	-3309
노래	-3310
럽고	-3311
았고	-3312
▁50	-3313
▁다니	-3314
▁발견	-3315
▁주변	-3316
겠어요	-3317
인가요	-3318
▁위대한	-3319
▁청소년	-3320
▁영화에요	-3321
▁기대안하고	-3322
▁ᄋ	-3323
▁떡	-3324
러디	-3325
려요	-3326
부족	-3327
시작	-3328
씬은	-3329
양이	-3330
▁놀랐	-3331
▁망쳐	-3332
▁보길	-3333
▁안봤	-3334
▁않아	-3335
▁에휴	-3336
더라면	-3337
리스마	-3338
아버지	-3339
처구니	-3340
▁기독교	-3341
▁생각하고	-3342
▁유쾌하고	-3343
▁섞	-3344
♡♡	-3345
거임	-3346
냐고	-3347
젠장	-3348
편의	-3349
▁18	-3350
▁갈등	-3351
▁공부	-3352
▁맨날	-3353
▁못할	-3354
▁믿을	-3355
▁반복	-3356
▁빼고	-3357
▁특이	-3358
소리가	-3359
▁ᅲᅲᅲ	-3360
▁김기덕	-3361
▁대사가	-3362
▁생각나	-3363
▁시트콤	-3364
▁있네요	-3365
▁초반에	-3366
배우들의	-3367
▁E	-3368
따구	-3369
물을	-3370
시에	-3371
애들	-3372
언니	-3373
장난	-3374
호가	-3375
▁13	-3376
▁무비	-3377
▁속에	-3378
▁처럼	-3379
▁특수	-3380
▁한참	-3381
스러움	-3382
시간에	-3383
아까워	-3384
▁마이클	-3385
▁빠져들	-3386
▁아이돌	-3387
▁인생의	-3388
▁탄탄한	-3389
▁하는지	-3390
▁힘들다	-3391
봤습니다	-3392
▁시간가는	-3393
.4	-3394
▁쥐	-3395
▁쿠	-3396
불어	-3397
지어	-3398
쳐서	-3399
▁가져	-3400
▁결과	-3401
▁국내	-3402
▁다양	-3403
▁문화	-3404
▁볼게	-3405
▁움직	-3406
▁치밀	-3407
▁편견	-3408
재밌다	-3409
▁없는데	-3410
▁음악과	-3411
▁있어야	-3412
▁좋아할	-3413
▁모르겠고	-3414
▁빡	-3415
간의	-3416
겠음	-3417
되서	-3418
석이	-3419
정은	-3420
제작	-3421
키는	-3422
하려	-3423
했네	-3424
▁검색	-3425
▁관심	-3426
▁꿈을	-3427
▁떠오	-3428
▁미모	-3429
▁여행	-3430
▁제로	-3431
▁찌질	-3432
▁타임	-3433
비디오	-3434
시키는	-3435
▁울었다	-3436
▁이쁘고	-3437
겠습니다	-3438
▁그렇다고	-3439
▁보고나면	-3440
▁안타깝다	-3441
▁최고입니다	-3442
ll	-3443
▁f	-3444
계속	-3445
날때	-3446
라가	-3447
아프	-3448
와의	-3449
이로	-3450
편도	-3451
▁끌어	-3452
▁로봇	-3453
▁무척	-3454
▁코난	-3455
▁해리	-3456
차라리	-3457
하겠다	-3458
하다니	-3459
▁대부분	-3460
▁아줌마	-3461
▁있으면	-3462
▁즐거운	-3463
▁영화였어요	-3464
ov	-3465
▁[	-3466
당한	-3467
트맨	-3468
하진	-3469
▁고마	-3470
▁노답	-3471
▁달달	-3472
▁뭉클	-3473
▁불러	-3474
▁우와	-3475
야말로	-3476
▁덕분에	-3477
▁말하는	-3478
▁멍청한	-3479
▁사랑의	-3480
▁아깝지	-3481
▁에피소	-3482
▁의외로	-3483
▁잔인한	-3484
▁독립영화	-3485
▁영화인듯	-3486
▁따뜻해지는	-3487
▁낳	-3488
▁센	-3489
▁콜	-3490
씨의	-3491
▁기술	-3492
▁내려	-3493
▁높아	-3494
▁새롭	-3495
▁슬펐	-3496
▁아역	-3497
▁왜케	-3498
▁좋게	-3499
▁할까	-3500
으니까	-3501
▁007	-3502
▁본영화	-3503
▁재밋다	-3504
▁히어로	-3505
▁긴장감도	-3506
▁볼만하다	-3507
▁쓰레기다	-3508
▁아쉽네요	-3509
▁작품이다	-3510
▁재미있었어요	-3511
ᅲᅲᅲᅲᅲᅲᅲᅲ	-3512
bs	-3513
몰입	-3514
성은	-3515
테일	-3516
▁경험	-3517
▁눈에	-3518
▁늘어	-3519
▁동안	-3520
▁많아	-3521
▁복잡	-3522
▁섹스	-3523
▁울고	-3524
▁인내	-3525
▁자살	-3526
▁짝퉁	-3527
▁쩐다	-3528
가지고	-3529
내용이	-3530
▁나오면	-3531
▁보았다	-3532
▁봤더니	-3533
▁비현실	-3534
▁이후로	-3535
▁인간이	-3536
▁신선하고	-3537
▁초등학생	-3538
om	-3539
▁업	-3540
거라	-3541
기분	-3542
사수	-3543
이스	-3544
▁거슬	-3545
▁만나	-3546
▁세월	-3547
▁신파	-3548
▁암튼	-3549
▁조합	-3550
▁죽은	-3551
▁최강	-3552
았지만	-3553
용으로	-3554
장에서	-3555
▁the	-3556
▁감정을	-3557
▁무섭다	-3558
▁빼고는	-3559
▁사랑은	-3560
▁유명한	-3561
▁좋지만	-3562
▁어처구니	-3563
▁모르겠지만	-3564
▁ᄀ	-3565
▁썼	-3566
▁척	-3567
거면	-3568
것만	-3569
관이	-3570
미가	-3571
버트	-3572
살다	-3573
성치	-3574
엇다	-3575
저도	-3576
"""	-3577
▁거기	-3578
▁극치	-3579
▁민망	-3580
▁박진	-3581
▁어휴	-3582
▁오바	-3583
▁힘이	-3584
편보다	-3585
했네요	-3586
▁!!!	-3587
▁남자의	-3588
▁박수를	-3589
▁아이가	-3590
▁없었던	-3591
▁영화들	-3592
▁원작의	-3593
▁장면에서	-3594
▁흥미로운	-3595
▁쓰레기같은	-3596
대를	-3597
사이	-3598
영환	-3599
체가	-3600
함은	-3601
해지	-3602
▁방법	-3603
▁작은	-3604
▁조선	-3605
▁틀어	-3606
▁허세	-3607
갈수록	-3608
▁더러운	-3609
▁레전드	-3610
▁멋있다	-3611
▁보인다	-3612
▁손발이	-3613
드립니다	-3614
▁연기력도	-3615
▁좋았지만	-3616
만을	-3617
버림	-3618
어이	-3619
였고	-3620
원작	-3621
▁가면	-3622
▁겨울	-3623
▁달라	-3624
▁바꿔	-3625
▁살고	-3626
▁않나	-3627
▁웃김	-3628
▁일품	-3629
▁직접	-3630
거같다	-3631
버스터	-3632
점정도	-3633
▁더불어	-3634
▁웃음이	-3635
▁하나의	-3636
▁개연성이	-3637
▁지루하게	-3638
▁카리스마	-3639
▁학교에서	-3640
▁갠	-3641
▁됨	-3642
▁뱀	-3643
▁픽	-3644
상황	-3645
적은	-3646
▁게이	-3647
▁김민	-3648
▁삶에	-3649
▁설마	-3650
▁어우	-3651
▁우정	-3652
▁일이	-3653
▁죽을	-3654
▁챙겨	-3655
버리는	-3656
없네요	-3657
▁본다면	-3658
▁역대급	-3659
▁완전히	-3660
▁의미를	-3661
사람들이	-3662
▁유치하다	-3663
▁좋았으나	-3664
.........	-3665
VD	-3666
▁멘	-3667
▁컴	-3668
▁탐	-3669
것들	-3670
려나	-3671
로만	-3672
받은	-3673
제가	-3674
▁가벼	-3675
▁교육	-3676
▁다룬	-3677
▁못해	-3678
▁빌려	-3679
▁제이	-3680
그대로	-3681
었을까	-3682
에대한	-3683
▁게다가	-3684
▁누군가	-3685
▁스크린	-3686
▁유치함	-3687
▁이유를	-3688
▁한번쯤	-3689
▁생각하는	-3690
▁재밌다고	-3691
▁좋겠어요	-3692
▁지루했다	-3693
▁기대했는데	-3694
감은	-3695
동생	-3696
레딧	-3697
설정	-3698
성의	-3699
세상	-3700
우기	-3701
이래	-3702
인도	-3703
주가	-3704
했어	-3705
▁11	-3706
▁그거	-3707
▁기가	-3708
▁끝이	-3709
▁똑같	-3710
▁먹고	-3711
▁모를	-3712
▁못생	-3713
▁미드	-3714
▁비판	-3715
▁정의	-3716
▁학생	-3717
년만에	-3718
해진다	-3719
▁뛰어넘	-3720
▁뿐이다	-3721
▁포르노	-3722
▁지나치게	-3723
▁평점보고	-3724
zz	-3725
▁꽝	-3726
가슴	-3727
갔다	-3728
그리	-3729
머리	-3730
아직	-3731
억지	-3732
요일	-3733
편에	-3734
▁깜짝	-3735
▁많고	-3736
▁보긴	-3737
▁보며	-3738
▁여태	-3739
▁영혼	-3740
▁화끈	-3741
긴한데	-3742
끝까지	-3743
배우가	-3744
본영화	-3745
재밌음	-3746
하던데	-3747
▁재미잇	-3748
▁패러디	-3749
▁표현한	-3750
▁보여주고	-3751
▁잊혀지지	-3752
▁좋아해서	-3753
▁엠	-3754
▁옆	-3755
▁웨	-3756
▁탁	-3757
는건	-3758
니깐	-3759
리언	-3760
물이	-3761
받고	-3762
운드	-3763
▁당연	-3764
▁도전	-3765
▁봤을	-3766
▁이끌	-3767
▁이용	-3768
▁조용	-3769
▁지겨	-3770
▁투자	-3771
,.,.	-3772
▁모르게	-3773
▁못한다	-3774
▁싶은데	-3775
▁않을까	-3776
▁알바들	-3777
▁이쁘다	-3778
▁전설의	-3779
▁느껴진다	-3780
▁드립니다	-3781
▁진부하고	-3782
ar	-3783
▁l	-3784
▁p	-3785
▁런	-3786
▁콩	-3787
니당	-3788
루스	-3789
명을	-3790
부작	-3791
시즌	-3792
아쉽	-3793
요즘	-3794
임을	-3795
있나	-3796
제발	-3797
▁몇몇	-3798
▁커플	-3799
▁해결	-3800
들이랑	-3801
학교때	-3802
▁감동의	-3803
▁들었다	-3804
▁반개도	-3805
▁봤을때	-3806
▁아까울	-3807
▁우리의	-3808
▁전개도	-3809
▁좋았을	-3810
▁주성치	-3811
▁사람들의	-3812
▁이해하기	-3813
▁다큐멘터리	-3814
▁사랑이야기	-3815
▁e	-3816
▁엽	-3817
냄새	-3818
먹는	-3819
배경	-3820
솔직	-3821
슬프	-3822
신은	-3823
했나	-3824
▁관한	-3825
▁김수	-3826
▁따로	-3827
▁레알	-3828
▁아닙	-3829
▁영어	-3830
▁이정	-3831
▁잠깐	-3832
▁타이	-3833
보지마	-3834
인들이	-3835
▁가슴에	-3836
▁대해서	-3837
▁모두가	-3838
▁볼수있	-3839
▁재미와	-3840
▁감동적이다	-3841
▁좋아하는데	-3842
▁한국영화는	-3843
▁팀	-3844
놈들	-3845
로써	-3846
분은	-3847
비가	-3848
아나	-3849
아무	-3850
임스	-3851
자나	-3852
출연	-3853
토록	-3854
회가	-3855
▁못함	-3856
▁세련	-3857
▁아기	-3858
▁인기	-3859
▁젠장	-3860
감독의	-3861
보다도	-3862
점이다	-3863
▁개막장	-3864
▁그녀의	-3865
▁넘치는	-3866
▁보려고	-3867
▁보여줬	-3868
▁볼거리	-3869
♥♥♥♥	-3870
사람들은	-3871
▁괜찮은데	-3872
▁무섭지도	-3873
11	-3874
▁빅	-3875
▁쏟	-3876
▁탑	-3877
다음	-3878
뻔한	-3879
속의	-3880
식의	-3881
이걸	-3882
이기	-3883
이러	-3884
▁감흥	-3885
▁공짜	-3886
▁국가	-3887
▁담아	-3888
▁대중	-3889
▁변태	-3890
▁어지	-3891
▁응원	-3892
▁이럴	-3893
▁짜임	-3894
▁착한	-3895
▁필름	-3896
그래서	-3897
은영화	-3898
..^^	-3899
▁1,2	-3900
▁똑같은	-3901
▁스파이	-3902
▁점수가	-3903
▁참으로	-3904
좋아하는	-3905
▁부족하다	-3906
▁앞으로도	-3907
▁왠만하면	-3908
▁웃기지도	-3909
!!!!!!!!!!!!!!!!	-3910
▁h	-3911
▁쏘	-3912
▁옥	-3913
기지	-3914
씬이	-3915
포터	-3916
▁류승	-3917
▁뭐라	-3918
▁안본	-3919
▁없지	-3920
▁올려	-3921
▁이도	-3922
▁할리	-3923
되었다	-3924
▁말아먹	-3925
▁우리는	-3926
▁작품은	-3927
▁죽이고	-3928
▁아름다움	-3929
▁이제서야	-3930
▁재밌던데	-3931
▁봉	-3932
▁찰	-3933
느니	-3934
님들	-3935
받는	-3936
버그	-3937
삭제	-3938
시청	-3939
얼굴	-3940
요소	-3941
자연	-3942
주연	-3943
..1	-3944
.^^	-3945
▁간다	-3946
▁감히	-3947
▁개뿔	-3948
▁겨우	-3949
▁내면	-3950
▁대화	-3951
▁보자	-3952
▁아동	-3953
▁야동	-3954
▁잊지	-3955
▁주말	-3956
▁풍경	-3957
되네요	-3958
려다가	-3959
연기력	-3960
..;;	-3961
▁199	-3962
▁DVD	-3963
▁명작이	-3964
▁없어요	-3965
▁있는지	-3966
▁행복한	-3967
지도않고	-3968
▁긴장감이	-3969
▁보여준다	-3970
▁스토리의	-3971
▁있었지만	-3972
.,	-3973
▁k	-3974
▁y	-3975
▁됬	-3976
▁술	-3977
만은	-3978
문제	-3979
소녀	-3980
얘기	-3981
우가	-3982
점줌	-3983
▁받을	-3984
▁블록	-3985
▁빈약	-3986
▁신비	-3987
▁싶을	-3988
▁악마	-3989
▁욕망	-3990
▁이민	-3991
▁자주	-3992
▁제시	-3993
스타일	-3994
이영화	-3995
▁심하게	-3996
▁원작이	-3997
▁장르가	-3998
▁정도의	-3999
▁하는거	-4000
▁할머니	-4001
▁잼있어요	-4002
▁캐릭터가	-4003
▁말도안되는	-4004
▁영화보면서	-4005
▁맹	-4006
▁쩝	-4007
겨진	-4008
나다	-4009
더빙	-4010
드시	-4011
무지	-4012
역사	-4013
이들	-4014
초반	-4015
후반	-4016
▁강력	-4017
▁깨달	-4018
▁무술	-4019
▁어두	-4020
▁오로	-4021
▁인해	-4022
있어서	-4023
▁몰입감	-4024
▁생각함	-4025
▁왜이래	-4026
▁있구나	-4027
보고싶다	-4028
▁어린시절	-4029
ᄏᄏᄏᄏᄏᄏ	-4030
▁보았습니다	-4031
▁멈	-4032
▁육	-4033
게요	-4034
년의	-4035
도는	-4036
루즈	-4037
았을	-4038
애가	-4039
오늘	-4040
원의	-4041
▁다루	-4042
▁드림	-4043
▁보통	-4044
▁수고	-4045
▁최초	-4046
장면은	-4047
했다고	-4048
▁감명깊	-4049
▁그당시	-4050
▁깨닫게	-4051
▁배우를	-4052
▁세상을	-4053
▁한심한	-4054
▁재미없게	-4055
▁짜증난다	-4056
▁끈	-4057
관람	-4058
드로	-4059
라기	-4060
러워	-4061
리카	-4062
어여	-4063
음이	-4064
인것	-4065
인과	-4066
100	-4067
▁그건	-4068
▁기발	-4069
▁떠올	-4070
▁설득	-4071
▁아픈	-4072
▁안볼	-4073
▁짝이	-4074
▁찍어	-4075
어떻게	-4076
자들이	-4077
▁관객을	-4078
▁노래도	-4079
▁막판에	-4080
▁문제가	-4081
▁수준의	-4082
▁않네요	-4083
▁영원히	-4084
▁영화네	-4085
▁위해서	-4086
▁잼있다	-4087
보는내내	-4088
▁2014	-4089
▁개연성도	-4090
▁뿌	-4091
▁옷	-4092
개인	-4093
능력	-4094
▁둘이	-4095
▁방영	-4096
▁사진	-4097
▁이소	-4098
▁작위	-4099
▁전율	-4100
▁하네	-4101
년도에	-4102
▁내가본	-4103
▁분들은	-4104
▁자신을	-4105
▁자신이	-4106
▁죽는줄	-4107
▁훈훈한	-4108
것같아요	-4109
마지막에	-4110
▁생각하면	-4111
▁명작입니다	-4112
12	-4113
▁깎	-4114
▁엿	-4115
▁칭	-4116
냈다	-4117
는대	-4118
모든	-4119
지요	-4120
추기	-4121
티브	-4122
OOO	-4123
▁낚시	-4124
▁만한	-4125
▁무리	-4126
▁바꾸	-4127
▁범인	-4128
▁볼거	-4129
▁살려	-4130
▁우려	-4131
▁위로	-4132
▁해라	-4133
▁효과	-4134
♥♥♥	-4135
▁가치가	-4136
▁그렇지	-4137
▁답답한	-4138
▁동성애	-4139
▁미스터	-4140
▁보다는	-4141
▁분위기가	-4142
▁생각나서	-4143
▁있었는데	-4144
▁시간가는줄	-4145
????????	-4146
▁앉	-4147
건만	-4148
드를	-4149
리네	-4150
보자	-4151
분의	-4152
연이	-4153
왔다	-4154
이어	-4155
취향	-4156
통령	-4157
▁결정	-4158
▁등등	-4159
▁모험	-4160
▁오빠	-4161
▁유지	-4162
▁인디	-4163
▁잔뜩	-4164
▁테러	-4165
▁하늘	-4166
▁해석	-4167
겠다는	-4168
기에는	-4169
다는걸	-4170
듭니다	-4171
분들은	-4172
▁기다려	-4173
▁나오지	-4174
▁대놓고	-4175
▁디테일	-4176
▁오랜만	-4177
▁중요한	-4178
▁만들어도	-4179
▁보지마라	-4180
▁알겠는데	-4181
▁이런영화를	-4182
en	-4183
▁n	-4184
겨서	-4185
그만	-4186
다큐	-4187
데이	-4188
라인	-4189
바로	-4190
부를	-4191
세포	-4192
쓰고	-4193
어린	-4194
짱짱	-4195
피스	-4196
▁21	-4197
▁남은	-4198
▁대본	-4199
▁도망	-4200
▁아예	-4201
▁야구	-4202
▁여름	-4203
▁올리	-4204
▁장애	-4205
▁제외	-4206
▁조니	-4207
▁지났	-4208
만큼은	-4209
지말고	-4210
하고자	-4211
ᄒᄒᄒᄒ	-4212
▁느낄수	-4213
▁만들면	-4214
▁비하면	-4215
▁연기잘	-4216
▁의미가	-4217
▁재밌을	-4218
▁죽이는	-4219
▁추억이	-4220
▁현실성	-4221
배우들이	-4222
▁만들다니	-4223
▁비디오로	-4224
▁안타까운	-4225
▁없습니다	-4226
▁억지스러운	-4227
▁겪	-4228
낸다	-4229
대단	-4230
미네	-4231
번은	-4232
보네	-4233
복을	-4234
볼만	-4235
빨리	-4236
신을	-4237
씨는	-4238
장을	-4239
절대	-4240
함의	-4241
형래	-4242
▁높게	-4243
▁돈을	-4244
▁배역	-4245
▁비밀	-4246
▁사고	-4247
▁심오	-4248
▁알수	-4249
겁니다	-4250
만들어	-4251
~!!!	-4252
▁노래가	-4253
▁다시는	-4254
▁색다른	-4255
▁소중한	-4256
▁연출과	-4257
▁잘하고	-4258
▁지나도	-4259
▁짜임새	-4260
영화인데	-4261
▁모르겠음	-4262
▁여러가지	-4263
▁L	-4264
▁P	-4265
▁낙	-4266
▁묵	-4267
▁왤	-4268
긴장	-4269
때문	-4270
레멘	-4271
력을	-4272
만다	-4273
모두	-4274
뭐야	-4275
뭔가	-4276
빼고	-4277
세기	-4278
였어	-4279
이리	-4280
종일	-4281
▁sf	-4282
▁상관	-4283
▁새끼	-4284
▁양심	-4285
▁웃고	-4286
웠지만	-4287
하는건	-4288
▁가슴을	-4289
▁거기에	-4290
▁결말을	-4291
▁매력을	-4292
▁뭐하나	-4293
▁반전은	-4294
▁봅니다	-4295
▁소름이	-4296
▁속에서	-4297
▁애들은	-4298
▁어이없	-4299
▁여운을	-4300
▁이래서	-4301
생각없이	-4302
▁그저그런	-4303
▁극장가서	-4304
▁기대이상	-4305
▁답답하고	-4306
▁떨어진다	-4307
▁아닙니다	-4308
▁인상적이	-4309
▁정말이지	-4310
▁하나같이	-4311
▁재미없었다	-4312
▁ᄏᄏᄏᄏᄏᄏ	-4313
▁킬링타임용으로	-4314
▁/	-4315
▁씹	-4316
사건	-4317
생활	-4318
아쉬	-4319
좋음	-4320
허접	-4321
▁기준	-4322
▁데이	-4323
▁둘째	-4324
▁부실	-4325
▁선동	-4326
▁성격	-4327
▁스페	-4328
▁있던	-4329
▁잔혹	-4330
▁정확	-4331
▁집에	-4332
▁최민	-4333
▁치고	-4334
▁한명	-4335
다는거	-4336
레이션	-4337
솔직히	-4338
이였다	-4339
점만점	-4340
줄이야	-4341
파이어	-4342
▁나쁘지	-4343
▁느꼈다	-4344
▁또다른	-4345
▁소소한	-4346
▁아니야	-4347
▁어쩔수	-4348
▁영화화	-4349
▁예쁘고	-4350
▁최고임	-4351
▁최근에	-4352
▁흥미로	-4353
스토리도	-4354
해주세요	-4355
▁감정이입	-4356
▁엉성하고	-4357
▁이야기는	-4358
▁주인공은	-4359
영화입니다	-4360
▁남자주인공	-4361
▁블록버스터	-4362
▁재미있습니다	-4363
▁택	-4364
▁펼	-4365
과서	-4366
나니	-4367
누나	-4368
는듯	-4369
든지	-4370
뭥미	-4371
어디	-4372
음을	-4373
잡고	-4374
장한	-4375
정한	-4376
지면	-4377
▁결코	-4378
▁길게	-4379
▁낮네	-4380
▁빠진	-4381
▁어쩜	-4382
▁연극	-4383
▁울컥	-4384
▁일깨	-4385
▁충실	-4386
보니까	-4387
봤지만	-4388
부분이	-4389
연기는	-4390
웠어요	-4391
▁구성이	-4392
▁많은데	-4393
▁연예인	-4394
▁오래된	-4395
▁이해안	-4396
▁잘어울	-4397
▁제임스	-4398
▁최고로	-4399
▁무엇인지	-4400
▁스트레스	-4401
▁막장드라마	-4402
it	-4403
구성	-4404
님은	-4405
스크	-4406
오래	-4407
이쁘	-4408
제로	-4409
▁14	-4410
▁감각	-4411
▁갖고	-4412
▁만남	-4413
▁무한	-4414
▁아래	-4415
▁열정	-4416
▁정체	-4417
▁조작	-4418
들이나	-4419
레멘타	-4420
해주고	-4421
▁데리고	-4422
▁됩니다	-4423
▁별로임	-4424
▁잼나게	-4425
▁적당히	-4426
▁본방사수	-4427
▁잘봤어요	-4428
▁최고였다	-4429
vd	-4430
▁=	-4431
▁낭	-4432
▁떨	-4433
니퍼	-4434
되면	-4435
르게	-4436
매력	-4437
아는	-4438
어리	-4439
조금	-4440
후의	-4441
▁끝났	-4442
▁놓고	-4443
▁단편	-4444
▁달리	-4445
▁생활	-4446
▁의리	-4447
▁잼잇	-4448
▁탄생	-4449
▁할수	-4450
나오고	-4451
인줄알	-4452
점대는	-4453
▁그만큼	-4454
▁느낌의	-4455
▁명작을	-4456
▁식상한	-4457
▁주기도	-4458
▁참신한	-4459
▁한국의	-4460
했었는데	-4461
▁다운받아	-4462
▁집중해서	-4463
▁크리스마스	-4464
▁넌	-4465
▁샘	-4466
▁헬	-4467
▁홀	-4468
강호	-4469
개그	-4470
니가	-4471
싸움	-4472
아름	-4473
치가	-4474
커플	-4475
팩트	-4476
▁낮게	-4477
▁넘게	-4478
▁먼가	-4479
▁못봐	-4480
▁뭐니	-4481
▁본게	-4482
▁봐줄	-4483
▁빼면	-4484
▁손에	-4485
▁시키	-4486
▁아내	-4487
▁안된	-4488
▁안습	-4489
▁열받	-4490
▁으리	-4491
▁책을	-4492
는거야	-4493
전개가	-4494
점에서	-4495
▁그자체	-4496
▁낚였다	-4497
▁남네요	-4498
▁수많은	-4499
▁아무런	-4500
▁하는게	-4501
▁한국인	-4502
▁했으면	-4503
미네이터	-4504
없는영화	-4505
▁몰입도가	-4506
▁살다살다	-4507
▁살아가는	-4508
▁생각했는데	-4509
▁;	-4510
▁N	-4511
▁껐	-4512
▁났	-4513
▁를	-4514
▁몬	-4515
▁웰	-4516
▁첩	-4517
동차	-4518
로드	-4519
리면	-4520
묘한	-4521
부가	-4522
상은	-4523
서는	-4524
신의	-4525
아빠	-4526
티즌	-4527
퓨터	-4528
하군	-4529
▁담배	-4530
▁듣고	-4531
▁명화	-4532
▁뭘까	-4533
▁야한	-4534
▁조절	-4535
▁조카	-4536
▁주기	-4537
▁집착	-4538
것같은	-4539
기전에	-4540
인데도	-4541
▁다양한	-4542
▁돌아가	-4543
▁부분도	-4544
▁살면서	-4545
▁실제로	-4546
▁여주가	-4547
▁이것이	-4548
▁질리지	-4549
▁핵노잼	-4550
▁바랍니다	-4551
▁보기에는	-4552
▁볼수있는	-4553
▁봤는데도	-4554
▁시리즈중	-4555
▁연기력은	-4556
▁영화인가	-4557
▁이상하게	-4558
▁훌륭하다	-4559
▁낯	-4560
▁쥬	-4561
▁휘	-4562
국영	-4563
년작	-4564
라의	-4565
버려	-4566
분을	-4567
윤발	-4568
이에	-4569
▁~~	-4570
▁가지	-4571
▁거부	-4572
▁기자	-4573
▁꽤나	-4574
▁다를	-4575
▁다이	-4576
▁본거	-4577
▁볼때	-4578
▁새로	-4579
▁시끄	-4580
▁앞뒤	-4581
▁애기	-4582
▁영향	-4583
▁자식	-4584
▁플롯	-4585
▁헤어	-4586
도대체	-4587
엇는데	-4588
했으나	-4589
▁감동은	-4590
▁거짓말	-4591
▁교훈을	-4592
▁놀라운	-4593
▁로버트	-4594
▁소설을	-4595
▁소재도	-4596
▁아류작	-4597
▁약간의	-4598
▁여자의	-4599
▁자체는	-4600
▁주제를	-4601
▁짜증만	-4602
재미없음	-4603
하는영화	-4604
▁만든영화	-4605
▁시리즈는	-4606
▁특수효과	-4607
▁마지막까지	-4608
..........	-4609
30	-4610
▁캬	-4611
▁튀	-4612
공감	-4613
나네	-4614
문화	-4615
싫어	-4616
치곤	-4617
▁be	-4618
▁끔찍	-4619
▁들고	-4620
▁사투	-4621
▁살린	-4622
▁서부	-4623
▁쓰고	-4624
▁안쓰	-4625
▁안에	-4626
▁위험	-4627
▁유아	-4628
▁읽어	-4629
▁짧은	-4630
갑니다	-4631
는영화	-4632
봤네요	-4633
속으로	-4634
자들의	-4635
하는것	-4636
▁교과서	-4637
▁나머지	-4638
▁심지어	-4639
▁않아서	-4640
▁영상이	-4641
▁웃기다	-4642
▁장면도	-4643
▁친구가	-4644
▁생각으로	-4645
▁아쉽지만	-4646
▁여자친구	-4647
▁좋겠네요	-4648
▁포스터가	-4649
▁만들었는지	-4650
▁재미도없고	-4651
▁W	-4652
▁X	-4653
개는	-4654
관객	-4655
래곤	-4656
뢰매	-4657
리며	-4658
마이	-4659
바이	-4660
스포	-4661
시오	-4662
여행	-4663
으신	-4664
정의	-4665
치노	-4666
트의	-4667
하길	-4668
혼자	-4669
▁60	-4670
▁낮지	-4671
▁따분	-4672
▁매일	-4673
▁무료	-4674
▁묻어	-4675
▁짜집	-4676
▁타고	-4677
▁혹은	-4678
으로는	-4679
이었음	-4680
▁가벼운	-4681
▁반드시	-4682
▁별로고	-4683
▁봤을까	-4684
▁역사를	-4685
▁영화와	-4686
▁원작에	-4687
▁일깨워	-4688
▁있다니	-4689
▁첫사랑	-4690
▁하다가	-4691
▁한번도	-4692
▁한편의	-4693
▁궁금하다	-4694
▁떨어지고	-4695
▁배우들은	-4696
▁시청률이	-4697
▁어느정도	-4698
▁어울리는	-4699
▁에피소드	-4700
▁영화인지	-4701
▁처음에는	-4702
-^	-4703
▁K	-4704
▁객	-4705
▁벤	-4706
같고	-4707
거든	-4708
덕화	-4709
도를	-4710
상의	-4711
선을	-4712
스키	-4713
이도	-4714
이여	-4715
적임	-4716
했지	-4717
▁가르	-4718
▁낮다	-4719
▁때려	-4720
▁받은	-4721
▁비행	-4722
▁손색	-4723
▁쓰는	-4724
▁웃겼	-4725
▁정작	-4726
▁한숨	-4727
▁호구	-4728
감독님	-4729
나와서	-4730
심으로	-4731
였으면	-4732
적이지	-4733
해지고	-4734
▁감독을	-4735
▁괜찮다	-4736
▁귀여워	-4737
▁당신은	-4738
▁러시아	-4739
▁무서워	-4740
▁스티븐	-4741
▁작가님	-4742
▁주윤발	-4743
▁특별한	-4744
▁평점조	-4745
있습니다	-4746
▁그야말로	-4747
▁말하고자	-4748
▁아름답게	-4749
▁어설프고	-4750
▁재밌다는	-4751
▁짜증나서	-4752
▁태어나서	-4753
▁여자주인공	-4754
▁틈	-4755
▁혐	-4756
가네	-4757
겠죠	-4758
굿굿	-4759
대해	-4760
리나	-4761
박한	-4762
보지	-4763
상수	-4764
시면	-4765
악한	-4766
야할	-4767
여주	-4768
일을	-4769
장르	-4770
프닝	-4771
후회	-4772
▁끼워	-4773
▁내게	-4774
▁다크	-4775
▁담겨	-4776
▁당황	-4777
▁본지	-4778
▁있네	-4779
▁첨엔	-4780
▁팬이	-4781
▁형사	-4782
기까지	-4783
았으면	-4784
애들이	-4785
했을때	-4786
▁놀랍다	-4787
▁당연히	-4788
▁많은걸	-4789
▁배우도	-4790
▁보지말	-4791
▁브루스	-4792
▁여자들	-4793
▁이딴걸	-4794
▁이상의	-4795
▁일부러	-4796
▁처음에	-4797
▁출연한	-4798
▁희망을	-4799
▁나름대로	-4800
▁쓸데없이	-4801
▁아까웠다	-4802
▁주인공들	-4803
▁해리포터	-4804
.0	-4805
80	-4806
ut	-4807
▁깡	-4808
▁효	-4809
보영	-4810
신고	-4811
정우	-4812
햇다	-4813
형님	-4814
▁of	-4815
▁근래	-4816
▁나랑	-4817
▁로코	-4818
▁목숨	-4819
▁미쳤	-4820
▁베드	-4821
▁수입	-4822
▁안될	-4823
▁잠시	-4824
▁주지	-4825
▁추격	-4826
▁파워	-4827
메이드	-4828
스럽지	-4829
으려고	-4830
하자는	-4831
해야지	-4832
▁그립다	-4833
▁내용과	-4834
▁모든걸	-4835
▁배트맨	-4836
▁보다니	-4837
▁소재와	-4838
▁심형래	-4839
▁엔딩이	-4840
▁영상과	-4841
▁이따구	-4842
▁이해를	-4843
▁장면을	-4844
웠습니다	-4845
▁수작이다	-4846
▁유일하게	-4847
▁이상하고	-4848
▁재미없어서	-4849
ᄏᄏᄏᄏᄏᄏᄏ	-4850
ᅲᅮ	-4851
▁팝	-4852
게임	-4853
또한	-4854
로의	-4855
성과	-4856
슨이	-4857
어용	-4858
인건	-4859
정화	-4860
죽는	-4861
지현	-4862
함도	-4863
▁빵터	-4864
▁아버	-4865
▁애매	-4866
▁이야	-4867
▁이은	-4868
▁적절	-4869
▁확인	-4870
건가요	-4871
부터가	-4872
었다는	-4873
에게는	-4874
잖아요	-4875
점으로	-4876
하고싶	-4877
?...	-4878
▁dvd	-4879
▁you	-4880
▁강렬한	-4881
▁괜찮음	-4882
▁나에겐	-4883
▁내생에	-4884
▁많아서	-4885
▁배우는	-4886
▁사람도	-4887
▁시간만	-4888
▁싸우는	-4889
▁영화만	-4890
▁이런건	-4891
▁있다고	-4892
▁제니퍼	-4893
▁중에서	-4894
▁지금의	-4895
거같아요	-4896
긴하지만	-4897
스토리가	-4898
▁다시보니	-4899
▁따뜻하고	-4900
▁배경음악	-4901
▁아니라고	-4902
▁웃으면서	-4903
!!!!!!	-4904
is	-4905
▁F	-4906
▁ᄇ	-4907
▁곧	-4908
▁댄	-4909
드리	-4910
때매	-4911
레인	-4912
리와	-4913
이름	-4914
쟁이	-4915
줬다	-4916
직한	-4917
▁감안	-4918
▁극단	-4919
▁꼬마	-4920
▁무너	-4921
▁보던	-4922
▁봤네	-4923
▁부르	-4924
▁빵빵	-4925
▁실력	-4926
▁애국	-4927
▁언젠	-4928
▁자세	-4929
▁정우	-4930
▁착각	-4931
▁폐지	-4932
▁하아	-4933
같아요	-4934
면에서	-4935
뿐이다	-4936
아저씨	-4937
어야지	-4938
었구나	-4939
화이팅	-4940
▁너무도	-4941
▁머리가	-4942
▁새벽에	-4943
▁생각할	-4944
▁아깝고	-4945
▁엄마가	-4946
▁울리는	-4947
▁유일한	-4948
▁이소룡	-4949
▁잘하는	-4950
▁주제가	-4951
▁하길래	-4952
▁흐르는	-4953
영화보다	-4954
▁돋보이는	-4955
▁아쉬움이	-4956
▁재밋어요	-4957
▁재밌어서	-4958
▁케이블에서	-4959
le	-4960
느껴	-4961
미는	-4962
부로	-4963
선생	-4964
아치	-4965
있을	-4966
졸작	-4967
중이	-4968
추억	-4969
▁강한	-4970
▁고맙	-4971
▁김혜	-4972
▁난잡	-4973
▁동양	-4974
▁맞춰	-4975
▁별반	-4976
▁신의	-4977
▁싶지	-4978
▁아냐	-4979
▁어째	-4980
▁위대	-4981
▁하여	-4982
▁화장	-4983
관에서	-4984
만하다	-4985
있네요	-4986
좋았다	-4987
최악의	-4988
포스터	-4989
하나도	-4990
▁ᄍᄍᄍ	-4991
▁공포물	-4992
▁그것도	-4993
▁나네요	-4994
▁대통령	-4995
▁두번째	-4996
▁몰랐다	-4997
▁반전을	-4998
▁생각도	-4999
▁숨겨진	-5000
▁실화를	-5001
▁싶어요	-5002
▁없었음	-5003
▁영환데	-5004
▁예쁘다	-5005
▁잘못된	-5006
▁점수는	-5007
▁제목만	-5008
▁조니뎁	-5009
▁진짜로	-5010
▁초딩때	-5011
▁하나로	-5012
▁할리우드	-5013
▁아까운영화	-5014
▁최고의영화	-5015
▁늑	-5016
▁덤	-5017
나의	-5018
드만	-5019
민이	-5020
뻐요	-5021
언제	-5022
오브	-5023
전을	-5024
차별	-5025
하러	-5026
▁과학	-5027
▁남기	-5028
▁다섯	-5029
▁디워	-5030
▁마약	-5031
▁망친	-5032
▁바다	-5033
▁싸움	-5034
▁예능	-5035
▁재능	-5036
▁흑인	-5037
라이언	-5038
으로만	-5039
재미도	-5040
▁감동받	-5041
▁개노잼	-5042
▁단순히	-5043
▁못하다	-5044
▁보기에	-5045
▁부모님	-5046
▁불편한	-5047
▁여러번	-5048
▁여자는	-5049
▁연출은	-5050
▁일본의	-5051
▁잊혀지	-5052
▁줍니다	-5053
▁집중이	-5054
시나리오	-5055
하지않고	-5056
▁마음으로	-5057
▁매력적이	-5058
▁아이들과	-5059
▁어색하고	-5060
▁언제봐도	-5061
▁이드라마	-5062
▁클레멘타	-5063
▁한국에서	-5064
▁이런영화는	-5065
as	-5066
▁>	-5067
▁염	-5068
▁컬	-5069
랜드	-5070
버릴	-5071
분위	-5072
였네	-5073
웃김	-5074
으리	-5075
이프	-5076
일듯	-5077
일의	-5078
잡을	-5079
졌음	-5080
중반	-5081
테러	-5082
팔이	-5083
▁같고	-5084
▁두려	-5085
▁땜에	-5086
▁로빈	-5087
▁배급	-5088
▁빠른	-5089
▁사용	-5090
▁서양	-5091
▁실험	-5092
▁없게	-5093
▁오브	-5094
▁외로	-5095
▁이병	-5096
▁익숙	-5097
▁잤다	-5098
▁저급	-5099
▁중독	-5100
▁클래	-5101
▁편안	-5102
생각이	-5103
어가는	-5104
점주고	-5105
▁갑니다	-5106
▁다르게	-5107
▁떨어짐	-5108
▁멋있는	-5109
▁멋지고	-5110
▁봤다면	-5111
▁아니지	-5112
▁아들이	-5113
▁안봐도	-5114
▁없나요	-5115
▁인생에	-5116
▁재미로	-5117
▁재밋음	-5118
▁잼있음	-5119
▁짜증남	-5120
▁컴퓨터	-5121
▁혹시나	-5122
▁후속작	-5123
▁희대의	-5124
재미있게	-5125
...^^	-5126
▁마이너스	-5127
▁이해할수	-5128
▁모르겠네요	-5129
▁터미네이터	-5130
.3	-5131
▁곽	-5132
▁든	-5133
▁떼	-5134
▁링	-5135
가면	-5136
느끼	-5137
미국	-5138
보내	-5139
부는	-5140
어지	-5141
은거	-5142
자로	-5143
자와	-5144
전이	-5145
주면	-5146
줄은	-5147
판이	-5148
히고	-5149
▁개념	-5150
▁낮아	-5151
▁따위	-5152
▁망한	-5153
▁배신	-5154
▁선물	-5155
▁아놀	-5156
▁유발	-5157
▁정보	-5158
▁판단	-5159
는거지	-5160
는데도	-5161
라는게	-5162
었다고	-5163
하거나	-5164
하더라	-5165
▁그동안	-5166
▁나왔다	-5167
▁높아서	-5168
▁다르다	-5169
▁안간다	-5170
▁이보다	-5171
▁이뻐서	-5172
▁이토록	-5173
▁일본은	-5174
▁저평가	-5175
▁좋다고	-5176
▁최고봉	-5177
▁하하하	-5178
▁현실이	-5179
▁기억나는	-5180
▁봐도봐도	-5181
▁시간아깝다	-5182
▁ᄏᄏᄏᄏᄏᄏᄏ	-5183
▁R	-5184
▁숙	-5185
▁옹	-5186
▁쭉	-5187
간에	-5188
같아	-5189
개가	-5190
기법	-5191
놨네	-5192
드림	-5193
모로	-5194
미스	-5195
볼수	-5196
불허	-5197
살아	-5198
살인	-5199
스케	-5200
식은	-5201
안됨	-5202
어색	-5203
조연	-5204
쯧쯧	-5205
희가	-5206
▁가고	-5207
▁개성	-5208
▁두근	-5209
▁망치	-5210
▁생긴	-5211
▁소피	-5212
▁자랑	-5213
▁진리	-5214
내용은	-5215
모르고	-5216
보이는	-5217
분만에	-5218
있었다	-5219
ovie	-5220
▁네티즌	-5221
▁도무지	-5222
▁매니아	-5223
▁사운드	-5224
▁시간에	-5225
▁알겠다	-5226
▁전쟁의	-5227
도아니고	-5228
▁괜찮았다	-5229
▁궁금해서	-5230
▁마지막이	-5231
▁영상미가	-5232
▁영화라니	-5233
▁영화자체	-5234
▁짜증나고	-5235
▁여주인공이	-5236
▁작품입니다	-5237
▁갓	-5238
▁땡	-5239
▁뭣	-5240
▁헌	-5241
▁혁	-5242
더더	-5243
보긴	-5244
사와	-5245
성기	-5246
싫다	-5247
엄청	-5248
웠고	-5249
즈의	-5250
진이	-5251
티노	-5252
하균	-5253
▁거북	-5254
▁겉멋	-5255
▁그들	-5256
▁기타	-5257
▁대신	-5258
▁루즈	-5259
▁말자	-5260
▁망가	-5261
▁반담	-5262
▁본듯	-5263
▁스텝	-5264
▁왤케	-5265
▁인형	-5266
▁잊고	-5267
▁잠이	-5268
▁즐겨	-5269
▁탈출	-5270
▁폭발	-5271
▁폭풍	-5272
▁프레	-5273
▁하시	-5274
▁하품	-5275
▁한방	-5276
▁형님	-5277
▁흑백	-5278
납니다	-5279
배우의	-5280
왔는데	-5281
▁느낌은	-5282
▁만화책	-5283
▁뭐하는	-5284
▁사실을	-5285
▁어른이	-5286
▁어우러	-5287
▁재개봉	-5288
▁주고싶	-5289
▁지겹다	-5290
▁짜증이	-5291
하지마라	-5292
▁2000	-5293
▁뱀파이어	-5294
▁불쌍하다	-5295
▁괜찮았는데	-5296
▁재미없다고	-5297
▁한국영화의	-5298
▁걱	-5299
▁뽀	-5300
▁엔	-5301
귀여	-5302
까요	-5303
높은	-5304
딩때	-5305
마자	-5306
말도	-5307
빠진	-5308
사에	-5309
서도	-5310
성우	-5311
세여	-5312
시원	-5313
아내	-5314
엇음	-5315
점수	-5316
지나	-5317
하디	-5318
▁각색	-5319
▁관련	-5320
▁극복	-5321
▁꿈꾸	-5322
▁끌고	-5323
▁남편	-5324
▁달려	-5325
▁맛이	-5326
▁맞아	-5327
▁뭥미	-5328
▁밀려	-5329
▁빛을	-5330
▁사상	-5331
▁아우	-5332
▁압도	-5333
▁열연	-5334
▁이성	-5335
▁이수	-5336
▁좋네	-5337
▁컨셉	-5338
▁평소	-5339
▁했음	-5340
▁환경	-5341
거같음	-5342
게하는	-5343
스러워	-5344
어버린	-5345
정적인	-5346
햇는데	-5347
▁가족이	-5348
▁결론은	-5349
▁되네요	-5350
▁분들이	-5351
▁사이코	-5352
▁스릴도	-5353
▁액션을	-5354
▁얼굴이	-5355
▁인간은	-5356
▁적어도	-5357
▁케릭터	-5358
▁한다는	-5359
▁현실과	-5360
같은영화	-5361
극장에서	-5362
기도하고	-5363
▁Good	-5364
▁기대없이	-5365
▁나레이션	-5366
▁소중함을	-5367
▁영화였음	-5368
▁잔잔하게	-5369
▁시나리오가	-5370
19	-5371
▁굴	-5372
▁땅	-5373
▁벨	-5374
가리	-5375
가에	-5376
못해	-5377
물로	-5378
았네	-5379
어의	-5380
였나	-5381
웃기	-5382
장의	-5383
해선	-5384
형제	-5385
▁달콤	-5386
▁로드	-5387
▁만약	-5388
▁멋지	-5389
▁못미	-5390
▁무겁	-5391
▁무게	-5392
▁박수	-5393
▁받고	-5394
▁부담	-5395
▁유행	-5396
▁자본	-5397
▁집어	-5398
▁추리	-5399
▁파괴	-5400
▁평균	-5401
분들이	-5402
인지도	-5403
제대로	-5404
▁고양이	-5405
▁공짜로	-5406
▁다보고	-5407
▁명복을	-5408
▁명불허	-5409
▁명작은	-5410
▁본건데	-5411
▁봐야지	-5412
▁사랑해	-5413
▁없는게	-5414
▁영화이	-5415
▁오프닝	-5416
▁왜이러	-5417
▁우뢰매	-5418
▁정도면	-5419
▁좋을듯	-5420
▁내용인지	-5421
▁리얼리티	-5422
▁만들어서	-5423
▁목소리가	-5424
▁무엇인가	-5425
▁믿고보는	-5426
▁쓸데없는	-5427
▁않았지만	-5428
▁오랫만에	-5429
▁유쾌하게	-5430
▁자극적인	-5431
쓰레기영화	-5432
CG	-5433
▁꿀	-5434
▁붕	-5435
▁쫓	-5436
▁콘	-5437
갈때	-5438
라노	-5439
라에	-5440
무시	-5441
버스	-5442
부의	-5443
불쌍	-5444
시가	-5445
인게	-5446
졌던	-5447
▁거품	-5448
▁과대	-5449
▁김지	-5450
▁김치	-5451
▁늦게	-5452
▁담백	-5453
▁답이	-5454
▁삶이	-5455
▁서울	-5456
▁어떨	-5457
▁원조	-5458
▁유럽	-5459
▁이렇	-5460
▁이준	-5461
▁장동	-5462
▁죽고	-5463
▁지겹	-5464
▁호기	-5465
▁흡입	-5466
감독은	-5467
들끼리	-5468
란티노	-5469
빕니다	-5470
아무리	-5471
적으론	-5472
한마디	-5473
할만한	-5474
▁내생애	-5475
▁동시에	-5476
▁매력에	-5477
▁못봐주	-5478
▁살인마	-5479
▁안어울	-5480
▁없다고	-5481
▁이름이	-5482
▁인생이	-5483
▁인터넷	-5484
▁잊을수	-5485
▁자동차	-5486
▁장국영	-5487
▁제이슨	-5488
▁짜집기	-5489
▁보았는데	-5490
▁볼만했다	-5491
▁사랑해요	-5492
▁장난하냐	-5493
▁재미있는데	-5494
...........	-5495
90	-5496
ck	-5497
ow	-5498
▁곰	-5499
★★	-5500
대고	-5501
도의	-5502
들여	-5503
따뜻	-5504
라라	-5505
받을	-5506
범죄	-5507
비슷	-5508
상영	-5509
소름	-5510
위에	-5511
장애	-5512
저리	-5513
주기	-5514
준호	-5515
▁:)	-5516
▁마무	-5517
▁맞지	-5518
▁매미	-5519
▁뭐고	-5520
▁반대	-5521
▁보내	-5522
▁생에	-5523
▁아파	-5524
▁없냐	-5525
▁역량	-5526
▁왜곡	-5527
▁일베	-5528
▁줄리	-5529
▁짐캐	-5530
▁책임	-5531
▁최소	-5532
▁케빈	-5533
▁파격	-5534
▁흔들	-5535
▁힘내	-5536
까지도	-5537
나네요	-5538
분동안	-5539
여운이	-5540
연기를	-5541
인들의	-5542
임에도	-5543
있지만	-5544
점부터	-5545
중에서	-5546
▁가까운	-5547
▁가득한	-5548
▁귀엽다	-5549
▁그것을	-5550
▁내용의	-5551
▁다세포	-5552
▁당시에	-5553
▁돈내고	-5554
▁명장면	-5555
▁무섭고	-5556
▁미국의	-5557
▁불쌍한	-5558
▁소재의	-5559
▁액션과	-5560
▁어렵다	-5561
▁없으면	-5562
▁영화야	-5563
▁전개와	-5564
▁느낌이다	-5565
▁봐야하는	-5566
▁아깝네요	-5567
▁탄탄하고	-5568
▁포스터만	-5569
개인적으로	-5570
▁전반적으로	-5571
▁좋았을텐데	-5572
15	-5573
od	-5574
▁널	-5575
▁띄	-5576
▁품	-5577
간히	-5578
께요	-5579
낮은	-5580
데체	-5581
리엄	-5582
바람	-5583
스맨	-5584
스에	-5585
스와	-5586
없나	-5587
오오	-5588
위원	-5589
있던	-5590
있지	-5591
자면	-5592
존나	-5593
중훈	-5594
▁갖다	-5595
▁객관	-5596
▁기존	-5597
▁깡패	-5598
▁냄새	-5599
▁민폐	-5600
▁벗어	-5601
▁부탁	-5602
▁불안	-5603
▁브래	-5604
▁어둡	-5605
▁어리	-5606
▁죄송	-5607
▁찍고	-5608
▁프리	-5609
▁하며	-5610
그러나	-5611
봐야지	-5612
아닌가	-5613
았네요	-5614
을까요	-5615
졌어요	-5616
▁가능한	-5617
▁가족의	-5618
▁그것이	-5619
▁끝날때	-5620
▁나이가	-5621
▁듭니다	-5622
▁때마다	-5623
▁떨어지	-5624
▁배경이	-5625
▁볼려고	-5626
▁불가능	-5627
▁세상이	-5628
▁시대에	-5629
▁시대의	-5630
▁아진짜	-5631
▁양아치	-5632
▁어쩌면	-5633
▁은근히	-5634
▁자기가	-5635
▁제목을	-5636
▁친구랑	-5637
▁한개도	-5638
▁허술한	-5639
▁갠적으로	-5640
▁드라마의	-5641
▁영화예요	-5642
▁이런류의	-5643
▁초등학교	-5644
▁사람들에게	-5645
▁사람이라면	-5646
▁아무생각없이	-5647
▁V	-5648
▁맴	-5649
▁웅	-5650
▁쫄	-5651
▁킹	-5652
▁협	-5653
구가	-5654
그럼	-5655
나름	-5656
늦게	-5657
더맨	-5658
둥이	-5659
들러	-5660
들로	-5661
래도	-5662
로로	-5663
법한	-5664
웨이	-5665
위한	-5666
유리	-5667
이요	-5668
쥬얼	-5669
질않	-5670
질질	-5671
코믹	-5672
할지	-5673
▁강간	-5674
▁것에	-5675
▁공간	-5676
▁길이	-5677
▁김태	-5678
▁김희	-5679
▁꼭보	-5680
▁나무	-5681
▁다신	-5682
▁담은	-5683
▁동네	-5684
▁매끄	-5685
▁바탕	-5686
▁받는	-5687
▁빵점	-5688
▁승리	-5689
▁안들	-5690
▁암걸	-5691
▁이동	-5692
▁읽고	-5693
▁조화	-5694
▁즐길	-5695
▁천국	-5696
▁첩보	-5697
▁콜린	-5698
▁탁월	-5699
까지만	-5700
되는데	-5701
들한테	-5702
습니까	-5703
지루함	-5704
프리오	-5705
0000	-5706
~~^^	-5707
▁공감도	-5708
▁공감할	-5709
▁내용에	-5710
▁메세지	-5711
▁보시면	-5712
▁빕니다	-5713
▁설정이	-5714
▁스포츠	-5715
▁시청자	-5716
▁싶었다	-5717
▁안무서	-5718
▁역겨운	-5719
▁왠만한	-5720
▁점수준	-5721
▁정도가	-5722
▁최소한	-5723
▁피해자	-5724
▁헛웃음	-5725
드라마가	-5726
▁100%	-5727
▁나오는데	-5728
▁만들었나	-5729
▁생각난다	-5730
▁시작부터	-5731
▁이것보단	-5732
▁추천하고	-5733
▁블랙코미디	-5734
▁사랑합니다	-5735
▁하나하나가	-5736
nd	-5737
▁깍	-5738
▁는	-5739
▁옳	-5740
▁탓	-5741
광고	-5742
구의	-5743
남기	-5744
노답	-5745
먹은	-5746
뭐냐	-5747
번에	-5748
보구	-5749
슨의	-5750
앗다	-5751
우의	-5752
의를	-5753
좋게	-5754
주일	-5755
짬뽕	-5756
킬링	-5757
함께	-5758
▁가정	-5759
▁개나	-5760
▁개똥	-5761
▁고뇌	-5762
▁고독	-5763
▁내돈	-5764
▁단어	-5765
▁담긴	-5766
▁독일	-5767
▁만난	-5768
▁무난	-5769
▁버려	-5770
▁상징	-5771
▁세번	-5772
▁소화	-5773
▁여친	-5774
▁요새	-5775
▁우연	-5776
▁일으	-5777
▁정상	-5778
▁진한	-5779
▁참나	-5780
▁허허	-5781
▁혐오	-5782
레이드	-5783
리스트	-5784
했다면	-5785
~~!!	-5786
▁4.4	-5787
▁가슴아	-5788
▁감독도	-5789
▁교훈도	-5790
▁버리고	-5791
▁빠지는	-5792
▁알았음	-5793
▁어두운	-5794
▁영원한	-5795
▁영화나	-5796
▁울면서	-5797
▁인생은	-5798
▁작가의	-5799
▁적절한	-5800
▁찾아서	-5801
▁첨부터	-5802
공포영화	-5803
으면서도	-5804
지않는다	-5805
▁다시보고	-5806
▁뜬금없는	-5807
▁마지막회	-5808
▁명불허전	-5809
▁아니었다	-5810
▁안보는게	-5811
▁억지감동	-5812
▁유치해서	-5813
▁이해불가	-5814
▁포스터에	-5815
▁할아버지	-5816
재미있어요	-5817
▁볼만합니다	-5818
;;;;;;;;	-5819
es	-5820
▁뗄	-5821
▁액	-5822
▁쿵	-5823
★☆	-5824
가를	-5825
가운	-5826
감과	-5827
그랬	-5828
기와	-5829
되나	-5830
뚱맞	-5831
모를	-5832
므로	-5833
민의	-5834
빠져	-5835
사실	-5836
살이	-5837
승전	-5838
시나	-5839
쓰는	-5840
안타	-5841
없지	-5842
자리	-5843
초에	-5844
타고	-5845
탈출	-5846
할뿐	-5847
▁건가	-5848
▁기회	-5849
▁데뷔	-5850
▁몇년	-5851
▁몽환	-5852
▁사무	-5853
▁언니	-5854
▁예수	-5855
▁오우	-5856
▁인종	-5857
▁절망	-5858
▁즐기	-5859
▁키스	-5860
▁할때	-5861
거리가	-5862
겠다고	-5863
그렇게	-5864
다니는	-5865
아니면	-5866
주기도	-5867
하니까	-5868
▁ᄒᄃᄃ	-5869
▁감독과	-5870
▁드네요	-5871
▁라스트	-5872
▁류승범	-5873
▁반전에	-5874
▁빛나는	-5875
▁시간때	-5876
▁싶었던	-5877
▁아깝네	-5878
▁아무도	-5879
▁않은데	-5880
▁의도가	-5881
▁제시카	-5882
▁조금은	-5883
▁한국판	-5884
▁홍상수	-5885
너무너무	-5886
카프리오	-5887
▁괜찮았음	-5888
▁드라마에	-5889
▁마지막엔	-5890
▁만들어낸	-5891
▁못보겠다	-5892
▁사랑하고	-5893
▁웰메이드	-5894
▁이도저도	-5895
▁전체적인	-5896
▁다시보고싶	-5897
ot	-5898
~♥	-5899
▁ᄡ	-5900
▁곱	-5901
▁님	-5902
▁린	-5903
▁삽	-5904
가장	-5905
고생	-5906
꺼면	-5907
나쁜	-5908
났음	-5909
롭고	-5910
림이	-5911
만도	-5912
무엇	-5913
번을	-5914
워즈	-5915
원은	-5916
잇는	-5917
잖은	-5918
전의	-5919
진않	-5920
치의	-5921
패스	-5922
프레	-5923
후에	-5924
▁th	-5925
▁깨알	-5926
▁녹아	-5927
▁담담	-5928
▁메이	-5929
▁밤에	-5930
▁보단	-5931
▁빨갱	-5932
▁수면	-5933
▁쓸쓸	-5934
▁아담	-5935
▁앞에	-5936
▁엑소	-5937
▁잠들	-5938
▁장진	-5939
▁짜릿	-5940
▁트랜	-5941
간만에	-5942
기억이	-5943
답니다	-5944
라이즈	-5945
리네요	-5946
못하는	-5947
발연기	-5948
생각을	-5949
신분들	-5950
애들은	-5951
점이상	-5952
파치노	-5953
할수가	-5954
▁개봉한	-5955
▁공포를	-5956
▁괜찮게	-5957
▁괜찮고	-5958
▁기대했	-5959
▁나오네	-5960
▁나을듯	-5961
▁되는데	-5962
▁드디어	-5963
▁선생님	-5964
▁아프다	-5965
▁영화같	-5966
▁외계인	-5967
▁요즘은	-5968
▁이름을	-5969
▁포인트	-5970
▁황당한	-5971
▁그렇지만	-5972
▁다행이다	-5973
▁모르지만	-5974
▁배경으로	-5975
▁인상적인	-5976
▁있었으면	-5977
▁장면들이	-5978
▁재미있었음	-5979
▁재미있었습니다	-5980
TV	-5981
▁&	-5982
▁밖	-5983
▁빙	-5984
▁죠	-5985
▁쪼	-5986
귀엽	-5987
꺼야	-5988
되게	-5989
뭐지	-5990
박죽	-5991
분한	-5992
선택	-5993
아노	-5994
오랜	-5995
왕국	-5996
웃겨	-5997
이딴	-5998
전혀	-5999
조현	-6000
찬란	-6001
체적	-6002
치를	-6003
트를	-6004
편집	-6005
희의	-6006
..!	-6007
▁,,	-6008
▁깊게	-6009
▁끝도	-6010
▁다녀	-6011
▁먹는	-6012
▁뭐임	-6013
▁반영	-6014
▁배꼽	-6015
▁보려	-6016
▁빼곤	-6017
▁선사	-6018
▁쏟아	-6019
▁음식	-6020
▁자고	-6021
▁점이	-6022
▁정당	-6023
▁창피	-6024
▁피터	-6025
라고요	-6026
아직도	-6027
야한다	-6028
죽박죽	-6029
코메디	-6030
평론가	-6031
하고는	-6032
ᅮᅮᅮᅮ	-6033
▁끝나서	-6034
▁놀랐다	-6035
▁드래곤	-6036
▁박중훈	-6037
▁보게된	-6038
▁보라고	-6039
▁보았던	-6040
▁빠져서	-6041
▁설득력	-6042
▁영상도	-6043
▁요소가	-6044
▁이병헌	-6045
▁이제는	-6046
▁정도는	-6047
▁풋풋한	-6048
▁화장실	-6049
시간동안	-6050
▁ᅲᅲᅲᅲ	-6051
▁사람들을	-6052
▁아이디어	-6053
▁재밌었던	-6054
▁진지하게	-6055
▁캐릭터들이	-6056
▁드라마입니다	-6057
,3	-6058
dd	-6059
▁땀	-6060
▁뚝	-6061
▁앵	-6062
▁엮	-6063
▁칠	-6064
가가	-6065
감사	-6066
것에	-6067
곳에	-6068
든가	-6069
로맨	-6070
만족	-6071
맘에	-6072
못한	-6073
비해	-6074
선이	-6075
여진	-6076
울뿐	-6077
으러	-6078
이든	-6079
점에	-6080
지부	-6081
?..	-6082
▁개콘	-6083
▁고어	-6084
▁공중	-6085
▁끝에	-6086
▁드라	-6087
▁리즈	-6088
▁변화	-6089
▁보라	-6090
▁분량	-6091
▁삭제	-6092
▁암울	-6093
▁어쨌	-6094
▁요리	-6095
▁절제	-6096
▁하하	-6097
겠는데	-6098
맙시다	-6099
없어요	-6100
재밌어	-6101
적이라	-6102
좋네요	-6103
줬으면	-6104
크레딧	-6105
▁;;;	-6106
▁EBS	-6107
▁것들이	-6108
▁귀여움	-6109
▁그들이	-6110
▁기대가	-6111
▁나올때	-6112
▁동영상	-6113
▁무거운	-6114
▁아이언	-6115
▁알았네	-6116
▁어거지	-6117
▁여러분	-6118
▁영화속	-6119
▁웃기는	-6120
▁하이틴	-6121
▁하정우	-6122
거같은데	-6123
리의리의	-6124
있는영화	-6125
좋은영화	-6126
▁뜬금없이	-6127
▁소장하고	-6128
▁최고네요	-6129
▁캐릭터를	-6130
▁.....	-6131
▁생각해보게	-6132
▁감동적이네요	-6133
▁H	-6134
▁x	-6135
▁및	-6136
▁쌩	-6137
경이	-6138
끝나	-6139
다르	-6140
다만	-6141
도로	-6142
마나	-6143
물론	-6144
물의	-6145
수선	-6146
아누	-6147
아오	-6148
없게	-6149
없을	-6150
에다	-6151
역할	-6152
위가	-6153
질이	-6154
치도	-6155
하루	-6156
호감	-6157
^-^	-6158
^^*	-6159
▁가히	-6160
▁강동	-6161
▁던져	-6162
▁도둑	-6163
▁뒤에	-6164
▁망할	-6165
▁머릿	-6166
▁무간	-6167
▁버린	-6168
▁베리	-6169
▁생겼	-6170
▁숨은	-6171
▁안가	-6172
▁예측	-6173
▁오는	-6174
▁이쁨	-6175
▁전화	-6176
▁절로	-6177
▁질리	-6178
▁치유	-6179
▁평화	-6180
▁하도	-6181
▁형제	-6182
▁후에	-6183
덩어리	-6184
시대에	-6185
을수가	-6186
하시고	-6187
한테는	-6188
했을까	-6189
▁ᄃᄃᄃ	-6190
▁들어가	-6191
▁라이언	-6192
▁만점에	-6193
▁말고는	-6194
▁메시지	-6195
▁모른다	-6196
▁모습은	-6197
▁보기가	-6198
▁송강호	-6199
▁신하균	-6200
▁않았던	-6201
▁임팩트	-6202
▁잊지못	-6203
▁찾아볼	-6204
▁첨이다	-6205
▁했더니	-6206
▁허무한	-6207
점만점에	-6208
지루하고	-6209
지마세요	-6210
▁2012	-6211
▁거지같은	-6212
▁둘째치고	-6213
▁말그대로	-6214
▁순수하고	-6215
▁시작해서	-6216
▁언제까지	-6217
▁연기하는	-6218
▁오글오글	-6219
▁짜증나게	-6220
▁만들었을까	-6221
.-	-6222
al	-6223
ed	-6224
ic	-6225
▁J	-6226
▁r	-6227
▁u	-6228
▁년	-6229
▁찢	-6230
겠어	-6231
내지	-6232
데미	-6233
루토	-6234
르소	-6235
말을	-6236
살때	-6237
상에	-6238
석규	-6239
셔야	-6240
스톤	-6241
시의	-6242
였지	-6243
우스	-6244
원을	-6245
증이	-6246
참고	-6247
트로	-6248
행복	-6249
힘들	-6250
▁걱정	-6251
▁것만	-6252
▁글을	-6253
▁기괴	-6254
▁놀란	-6255
▁따름	-6256
▁맡은	-6257
▁못본	-6258
▁뭐여	-6259
▁뮤직	-6260
▁밑도	-6261
▁부활	-6262
▁소개	-6263
▁어떠	-6264
▁에효	-6265
▁워낙	-6266
▁이종	-6267
▁잃은	-6268
▁임창	-6269
▁잠을	-6270
▁줘야	-6271
▁칭찬	-6272
▁풍자	-6273
▁혼란	-6274
▁황정	-6275
▁힘을	-6276
년대에	-6277
시간을	-6278
점이나	-6279
졌으면	-6280
종일관	-6281
최고다	-6282
하기는	-6283
****	-6284
▁2.2	-6285
▁같았다	-6286
▁개그맨	-6287
▁것인가	-6288
▁낫겠다	-6289
▁마시길	-6290
▁멋지게	-6291
▁명대사	-6292
▁뭐라고	-6293
▁부자연	-6294
▁시도는	-6295
▁싶어서	-6296
▁안본다	-6297
▁어디로	-6298
▁있었고	-6299
▁진지한	-6300
▁표현할	-6301
▁하다니	-6302
▁한번더	-6303
▁한순간	-6304
★☆★☆	-6305
내용인지	-6306
▁감명깊게	-6307
▁개봉당시	-6308
▁꼭보세요	-6309
▁드라마다	-6310
▁시리즈의	-6311
▁아버지의	-6312
▁어설프다	-6313
▁엄청나게	-6314
▁연출력이	-6315
▁이영화의	-6316
▁홍콩영화	-6317
▁좋겠습니다	-6318
▁최악의영화	-6319
▁재미있었는데	-6320
BC	-6321
▁땐	-6322
▁습	-6323
▁핑	-6324
▁햇	-6325
감정	-6326
결국	-6327
드워	-6328
럽지	-6329
먹을	-6330
발이	-6331
분도	-6332
성한	-6333
시기	-6334
신도	-6335
씨도	-6336
예진	-6337
인에	-6338
잔인	-6339
주지	-6340
중국	-6341
케이	-6342
!!♥	-6343
▁--	-6344
▁격투	-6345
▁괜찬	-6346
▁끝을	-6347
▁넘넘	-6348
▁리암	-6349
▁말투	-6350
▁몰라	-6351
▁박신	-6352
▁부산	-6353
▁불과	-6354
▁소통	-6355
▁신고	-6356
▁심장	-6357
▁우디	-6358
▁이다	-6359
▁이별	-6360
▁이승	-6361
▁줄수	-6362
▁찾는	-6363
▁축구	-6364
▁향연	-6365
같아서	-6366
매이션	-6367
재밋게	-6368
지않다	-6369
크루즈	-6370
▁공포가	-6371
▁그리워	-6372
▁깔끔한	-6373
▁당신이	-6374
▁더빙이	-6375
▁말아야	-6376
▁보게되	-6377
▁수준을	-6378
▁스타뎀	-6379
▁아만다	-6380
▁역사에	-6381
▁영화일	-6382
▁왕조현	-6383
▁있으나	-6384
▁전개는	-6385
▁중학생	-6386
것같네요	-6387
주인공이	-6388
▁ᄒᄒᄒᄒ	-6389
▁귀여워요	-6390
▁긴장감을	-6391
▁독특하고	-6392
▁배우들을	-6393
▁아이들의	-6394
▁어이없음	-6395
▁에로영화	-6396
▁연기력에	-6397
▁영화인줄	-6398
▁재미있을	-6399
▁전쟁영화	-6400
▁최고라고	-6401
▁최고최고	-6402
▁캐릭터도	-6403
▁다운받아서	-6404
▁디카프리오	-6405
▁마지막장면	-6406
▁소름끼치는	-6407
▁코미디영화	-6408
▁재밌게봤어요	-6409
,,,,,,,,	-6410
.!	-6411
am	-6412
ay	-6413
ig	-6414
▁닿	-6415
▁듬	-6416
▁섭	-6417
▁앨	-6418
▁을	-6419
▁폰	-6420
가의	-6421
경찰	-6422
구라	-6423
나간	-6424
녀석	-6425
답게	-6426
덕에	-6427
렸음	-6428
마리	-6429
발견	-6430
상태	-6431
스텔	-6432
에로	-6433
여기	-6434
으셨	-6435
이죠	-6436
이큰	-6437
잔잔	-6438
제를	-6439
지르	-6440
트릭	-6441
▁to	-6442
▁가수	-6443
▁가짜	-6444
▁건질	-6445
▁기획	-6446
▁나중	-6447
▁능가	-6448
▁모욕	-6449
▁묘한	-6450
▁밝혀	-6451
▁삶과	-6452
▁실감	-6453
▁억울	-6454
▁엘리	-6455
▁왔다	-6456
▁왠만	-6457
▁원숭	-6458
▁일을	-6459
▁있긴	-6460
▁재수	-6461
▁졸업	-6462
▁킬러	-6463
▁하기	-6464
▁한가	-6465
▁한지	-6466
▁한효	-6467
▁호불	-6468
나이트	-6469
류영화	-6470
편에서	-6471
포인트	-6472
하기에	-6473
▁그려낸	-6474
▁다시금	-6475
▁말인가	-6476
▁미국식	-6477
▁보는거	-6478
▁비쥬얼	-6479
▁안맞는	-6480
▁영화지	-6481
▁오로지	-6482
▁잘한다	-6483
▁조금만	-6484
하나하나	-6485
▁기대하지	-6486
▁뒤죽박죽	-6487
▁만들어라	-6488
▁보고나니	-6489
▁시종일관	-6490
▁아기자기	-6491
▁알파치노	-6492
▁여러모로	-6493
▁영화라서	-6494
▁왔습니다	-6495
▁잼있네요	-6496
▁지루하기	-6497
▁타란티노	-6498
▁흘러가는	-6499
▁미스캐스팅	-6500
▁사랑스럽다	-6501
▁아이들에게	-6502
▁재미없네요	-6503
▁감동적이에요	-6504
▁걷	-6505
▁덴	-6506
▁족	-6507
▁핸	-6508
▁획	-6509
관을	-6510
더군	-6511
랐다	-6512
로그	-6513
롭게	-6514
맞는	-6515
미의	-6516
비에	-6517
사고	-6518
새록	-6519
스틱	-6520
었냐	-6521
영의	-6522
예술	-6523
유발	-6524
정쩡	-6525
주행	-6526
차피	-6527
추어	-6528
켓몬	-6529
트는	-6530
티가	-6531
해져	-6532
허무	-6533
..2	-6534
▁갔다	-6535
▁긴박	-6536
▁나음	-6537
▁늑대	-6538
▁당장	-6539
▁말씀	-6540
▁미녀	-6541
▁베이	-6542
▁블루	-6543
▁수록	-6544
▁숨막	-6545
▁어딘	-6546
▁없었	-6547
▁연상	-6548
▁엽기	-6549
▁올레	-6550
▁우선	-6551
▁의상	-6552
▁자아	-6553
▁직업	-6554
▁차이	-6555
▁펼쳐	-6556
나보다	-6557
목소리	-6558
못하고	-6559
였다면	-6560
있으면	-6561
정도의	-6562
하기엔	-6563
...(	-6564
▁구성도	-6565
▁김수현	-6566
▁누군지	-6567
▁닥치고	-6568
▁도데체	-6569
▁되돌아	-6570
▁보아도	-6571
▁보여줄	-6572
▁보이지	-6573
▁브래드	-6574
▁상황을	-6575
▁생각만	-6576
▁어디에	-6577
▁역사상	-6578
▁이미지	-6579
▁줄이야	-6580
▁질질끌	-6581
▁키아누	-6582
▁페이크	-6583
▁표현이	-6584
▁하세요	-6585
▁현실은	-6586
▁흥미를	-6587
프로그램	-6588
▁고등학교	-6589
▁뭐하자는	-6590
▁바탕으로	-6591
▁보지마셈	-6592
▁산만하고	-6593
▁살아있는	-6594
▁삼류영화	-6595
▁세상에서	-6596
▁스타워즈	-6597
▁어이없다	-6598
▁오래전에	-6599
▁이야기의	-6600
▁장난하나	-6601
▁재미있어	-6602
▁충격적인	-6603
▁했습니다	-6604
▁형편없는	-6605
▁movie	-6606
▁사랑스럽고	-6607
▁억지스럽고	-6608
▁영화보다가	-6609
50	-6610
tt	-6611
▁ᄆ	-6612
▁벅	-6613
▁숀	-6614
▁쿨	-6615
가위	-6616
동근	-6617
됐다	-6618
드먼	-6619
때도	-6620
본색	-6621
비추	-6622
빼곤	-6623
안돼	-6624
원에	-6625
일러	-6626
일은	-6627
집어	-6628
테리	-6629
ᅮᅮᅮ	-6630
▁is	-6631
▁공유	-6632
▁국어	-6633
▁그가	-6634
▁극혐	-6635
▁나열	-6636
▁난리	-6637
▁났다	-6638
▁단체	-6639
▁대학	-6640
▁데스	-6641
▁드니	-6642
▁로망	-6643
▁마찬	-6644
▁말았	-6645
▁모른	-6646
▁모아	-6647
▁방해	-6648
▁볼까	-6649
▁부정	-6650
▁섬뜩	-6651
▁시켜	-6652
▁신인	-6653
▁애잔	-6654
▁원주	-6655
▁절정	-6656
▁조낸	-6657
그나마	-6658
기위해	-6659
돈주고	-6660
드네요	-6661
리는데	-6662
사람의	-6663
없는데	-6664
▁그럴싸	-6665
▁극장에	-6666
▁남는게	-6667
▁당신의	-6668
▁들어간	-6669
▁똑같이	-6670
▁미소가	-6671
▁박보영	-6672
▁박진감	-6673
▁별점이	-6674
▁부분은	-6675
▁섬세한	-6676
▁성룡의	-6677
▁아무튼	-6678
▁액션씬	-6679
▁에라이	-6680
▁역겹다	-6681
▁유덕화	-6682
▁좋으나	-6683
▁필요가	-6684
▁한다고	-6685
▁했으나	-6686
▁했을까	-6687
▁후하게	-6688
것같은데	-6689
드라마는	-6690
▁가족영화	-6691
▁기대이하	-6692
▁나머지는	-6693
▁뛰어넘는	-6694
▁모르겠네	-6695
▁별로였다	-6696
▁아까워서	-6697
▁울었어요	-6698
▁충격적이	-6699
▁캐릭터들	-6700
▁보고있는데	-6701
▁오글거리는	-6702
▁잘만들었다	-6703
▁좋아하지만	-6704
ᄏᄏᄏᄏᄏᄏᄏᄏᄏ	-6705
70	-6706
tv	-6707
▁둔	-6708
▁락	-6709
▁람	-6710
▁뻥	-6711
▁삐	-6712
▁얄	-6713
▁옴	-6714
▁컸	-6715
▁큐	-6716
▁털	-6717
각본	-6718
거의	-6719
기종	-6720
느냐	-6721
대에	-6722
때는	-6723
바라	-6724
보러	-6725
스카	-6726
시지	-6727
실히	-6728
심에	-6729
어떤	-6730
어스	-6731
의식	-6732
있냐	-6733
잡는	-6734
집에	-6735
할뻔	-6736
흥미	-6737
▁16	-6738
▁??	-6739
▁ᄌᄂ	-6740
▁고문	-6741
▁그로	-6742
▁극중	-6743
▁납득	-6744
▁떡밥	-6745
▁레옹	-6746
▁마냥	-6747
▁매번	-6748
▁민족	-6749
▁민주	-6750
▁바닥	-6751
▁방향	-6752
▁별거	-6753
▁비록	-6754
▁소유	-6755
▁쉬운	-6756
▁시험	-6757
▁앞서	-6758
▁에서	-6759
▁여신	-6760
▁우린	-6761
▁의사	-6762
▁전도	-6763
▁죽이	-6764
▁캐릭	-6765
▁평을	-6766
가면서	-6767
기영화	-6768
듯하다	-6769
아이가	-6770
안에서	-6771
옵니다	-6772
재밌고	-6773
죽이고	-6774
하자면	-6775
▁공포는	-6776
▁난해한	-6777
▁남자는	-6778
▁낮은지	-6779
▁넘어서	-6780
▁무섭게	-6781
▁비호감	-6782
▁생각은	-6783
▁손가락	-6784
▁안좋아	-6785
▁여자를	-6786
▁영화랑	-6787
▁의도는	-6788
▁이만한	-6789
▁이상은	-6790
▁인간들	-6791
▁장난치	-6792
▁재밌었	-6793
▁하기엔	-6794
▁하나는	-6795
▁했는지	-6796
▁다시보기	-6797
▁답답하다	-6798
▁두고두고	-6799
▁드라마로	-6800
▁몰입도도	-6801
▁유치찬란	-6802
▁정신병자	-6803
▁지루함을	-6804
▁캐스팅이	-6805
▁평점조절	-6806
▁행복하게	-6807
▁현실적이	-6808
아까운영화	-6809
▁뻔한스토리	-6810
▁엔딩크레딧	-6811
▁영화라지만	-6812
.8	-6813
im	-6814
▁덮	-6815
▁썰	-6816
▁옮	-6817
▁짤	-6818
▁팍	-6819
개를	-6820
구역	-6821
그저	-6822
께서	-6823
미친	-6824
미화	-6825
믿고	-6826
바타	-6827
스레	-6828
시네	-6829
신기	-6830
아지	-6831
장에	-6832
저것	-6833
찬욱	-6834
채널	-6835
천원	-6836
추는	-6837
태현	-6838
판을	-6839
ost	-6840
▁걸까	-6841
▁끝날	-6842
▁니가	-6843
▁들이	-6844
▁미션	-6845
▁부부	-6846
▁브라	-6847
▁상태	-6848
▁스펙	-6849
▁스피	-6850
▁싸우	-6851
▁아카	-6852
▁연관	-6853
▁온갖	-6854
▁우왕	-6855
▁재방	-6856
▁재앙	-6857
▁좋지	-6858
▁지옥	-6859
▁판타	-6860
나오네	-6861
부터는	-6862
시청률	-6863
치고는	-6864
하시길	-6865
very	-6866
ᄃᄃᄃᄃ	-6867
▁가족애	-6868
▁가족을	-6869
▁개꿀잼	-6870
▁관객이	-6871
▁대사도	-6872
▁들어서	-6873
▁만든거	-6874
▁만들수	-6875
▁못만들	-6876
▁무의미	-6877
▁살아야	-6878
▁속았다	-6879
▁아이유	-6880
▁안무섭	-6881
▁웃었다	-6882
▁웃음을	-6883
▁음악은	-6884
▁이끌어	-6885
▁잘생겼	-6886
▁잼있는	-6887
▁정신이	-6888
▁짱이다	-6889
▁티비로	-6890
▁해야지	-6891
만큼이나	-6892
우리나라	-6893
있었는데	-6894
졌습니다	-6895
▁!!!!	-6896
▁4.44	-6897
▁괜찮네요	-6898
▁괜찮았던	-6899
▁돌아보게	-6900
▁드라마도	-6901
▁못하겠다	-6902
▁별로네요	-6903
▁실망이다	-6904
▁싶습니다	-6905
▁쓰레기는	-6906
▁아니라면	-6907
▁아쉬워요	-6908
▁안나온다	-6909
▁어울리지	-6910
▁이거보단	-6911
▁제작비가	-6912
▁스파이더맨	-6913
▁자연스럽게	-6914
쓰레기쓰레기	-6915
>>	-6916
bc	-6917
▁록	-6918
▁멜	-6919
▁쏠	-6920
▁앙	-6921
극을	-6922
놈이	-6923
달라	-6924
더욱	-6925
도한	-6926
돈이	-6927
렸던	-6928
베이	-6929
시스	-6930
아리	-6931
어쩌	-6932
움과	-6933
위를	-6934
저냥	-6935
저런	-6936
지네	-6937
타쿠	-6938
표정	-6939
하늘	-6940
하실	-6941
▁과정	-6942
▁글고	-6943
▁나고	-6944
▁난무	-6945
▁넘치	-6946
▁담고	-6947
▁도와	-6948
▁방황	-6949
▁보석	-6950
▁비참	-6951
▁상큼	-6952
▁선정	-6953
▁수는	-6954
▁오지	-6955
▁오해	-6956
▁이지	-6957
▁인류	-6958
▁작화	-6959
▁좋앗	-6960
▁진수	-6961
▁쩔어	-6962
▁태국	-6963
▁흉내	-6964
그런데	-6965
리면서	-6966
보네요	-6967
부분은	-6968
얼마나	-6969
여자가	-6970
원에서	-6971
장면도	-6972
평점은	-6973
필버그	-6974
하길래	-6975
하지말	-6976
..!!	-6977
...!	-6978
9999	-6979
ᄋᄋᄋᄋ	-6980
▁가장한	-6981
▁관심이	-6982
▁느껴질	-6983
▁느끼고	-6984
▁만드네	-6985
▁명성에	-6986
▁명연기	-6987
▁보겠다	-6988
▁살리지	-6989
▁애초에	-6990
▁영상은	-6991
▁웃겼다	-6992
▁원하는	-6993
▁유치해	-6994
▁의미도	-6995
▁있었음	-6996
▁절대로	-6997
▁제목에	-6998
▁조잡한	-6999
▁충분한	-7000
▁피아노	-7001
▁하나가	-7002
▁한동안	-7003
▁한시간	-7004
더라고요	-7005
보지마라	-7006
스러웠다	-7007
~~~~~	-7008
▁스토리나	-7009
▁알려주는	-7010
▁이상하다	-7011
▁크리스찬	-7012
▁한심하다	-7013
▁점수준것들	-7014
▁감동적입니다	-7015
▁로맨틱코미디	-7016
cg	-7017
vs	-7018
ᅩᅩ	-7019
▁ᄂ	-7020
▁ᄅ	-7021
▁갱	-7022
▁폼	-7023
▁힙	-7024
결혼	-7025
궁금	-7026
니스	-7027
동이	-7028
력에	-7029
망작	-7030
면이	-7031
모양	-7032
물에	-7033
미를	-7034
병맛	-7035
사도	-7036
승우	-7037
아들	-7038
약한	-7039
으려	-7040
자꾸	-7041
자도	-7042
장은	-7043
지섭	-7044
진행	-7045
질을	-7046
찾아	-7047
~10	-7048
▁17	-7049
▁길을	-7050
▁놀래	-7051
▁놓치	-7052
▁마법	-7053
▁막상	-7054
▁만났	-7055
▁말은	-7056
▁말해	-7057
▁맞나	-7058
▁멋짐	-7059
▁바이	-7060
▁별한	-7061
▁본격	-7062
▁불가	-7063
▁설경	-7064
▁안감	-7065
▁애틋	-7066
▁영구	-7067
▁조지	-7068
▁처절	-7069
▁하드	-7070
갔는데	-7071
결말이	-7072
고싶은	-7073
나라는	-7074
다는건	-7075
덕분에	-7076
라에몽	-7077
시키고	-7078
웠는데	-7079
점준것	-7080
학년때	-7081
▁괜찮았	-7082
▁그럴듯	-7083
▁기발한	-7084
▁나왔던	-7085
▁내취향	-7086
▁데이빗	-7087
▁뒤늦게	-7088
▁떨어뜨	-7089
▁멋있고	-7090
▁문제를	-7091
▁바라는	-7092
▁사회적	-7093
▁설정은	-7094
▁성인이	-7095
▁실망이	-7096
▁아무나	-7097
▁아이디	-7098
▁안나옴	-7099
▁안보면	-7100
▁얘기를	-7101
▁어정쩡	-7102
▁여기에	-7103
▁연기의	-7104
▁영화적	-7105
▁오리지	-7106
▁우려먹	-7107
▁이상해	-7108
▁주세요	-7109
▁풀어낸	-7110
▁해준다	-7111
이런영화	-7112
...;;	-7113
▁느껴졌다	-7114
▁대박이다	-7115
▁미안하다	-7116
▁보게되는	-7117
▁부족하고	-7118
▁스토리로	-7119
▁시리즈를	-7120
▁쓰레기를	-7121
▁오랫동안	-7122
▁완벽하게	-7123
▁완벽하다	-7124
▁이거보다	-7125
▁좀비영화	-7126
▁처음본다	-7127
▁파워레인	-7128
▁보고싶은데	-7129
▁스토리전개	-7130
▁자연스러운	-7131
▁재밌었습니다	-7132
............	-7133
!?	-7134
44	-7135
▁♥	-7136
▁잉	-7137
▁찜	-7138
▁쾌	-7139
♡♥	-7140
가며	-7141
개념	-7142
광구	-7143
급도	-7144
기술	-7145
녀의	-7146
다리	-7147
돌려	-7148
러스	-7149
론의	-7150
르네	-7151
리한	-7152
만듬	-7153
명은	-7154
바닥	-7155
보던	-7156
브리	-7157
스코	-7158
았나	-7159
외로	-7160
을지	-7161
이었	-7162
인걸	-7163
진실	-7164
진창	-7165
충격	-7166
평을	-7167
호러	-7168
ᄃᄃᄃ	-7169
▁25	-7170
▁감이	-7171
▁꿈과	-7172
▁남성	-7173
▁니네	-7174
▁듣기	-7175
▁때가	-7176
▁때는	-7177
▁마블	-7178
▁먹칠	-7179
▁멋져	-7180
▁모니	-7181
▁모방	-7182
▁본능	-7183
▁봤고	-7184
▁부러	-7185
▁불법	-7186
▁빠순	-7187
▁빠질	-7188
▁상대	-7189
▁쉽지	-7190
▁실사	-7191
▁실수	-7192
▁열라	-7193
▁완젼	-7194
▁욕을	-7195
▁욕이	-7196
▁우는	-7197
▁음모	-7198
▁의한	-7199
▁의해	-7200
▁주온	-7201
▁지가	-7202
▁지극	-7203
▁지독	-7204
▁짬뽕	-7205
▁찬양	-7206
▁코스	-7207
▁클로	-7208
것보다	-7209
그런지	-7210
끝나고	-7211
나가는	-7212
느낌이	-7213
라는걸	-7214
없었다	-7215
엇어요	-7216
에다가	-7217
인지는	-7218
점대가	-7219
좋은데	-7220
판타지	-7221
하기가	-7222
▁bad	-7223
▁그런거	-7224
▁그림체	-7225
▁그이상	-7226
▁낮네요	-7227
▁눈으로	-7228
▁니들이	-7229
▁버렸다	-7230
▁살렸다	-7231
▁세련된	-7232
▁세월이	-7233
▁시간도	-7234
▁심하다	-7235
▁아이를	-7236
▁애니는	-7237
▁어수선	-7238
▁웃겨서	-7239
▁음악을	-7240
▁잘보고	-7241
▁크레딧	-7242
▁편하게	-7243
▁한석규	-7244
▁했어요	-7245
이라는게	-7246
▁감독에게	-7247
▁고등학생	-7248
▁런닝타임	-7249
▁만들어주	-7250
▁분위기는	-7251
▁아니잖아	-7252
▁않습니다	-7253
▁억지스런	-7254
▁이영화에	-7255
▁있겠지만	-7256
▁재난영화	-7257
▁제대로된	-7258
▁최고에요	-7259
애니메이션	-7260
▁주인공들이	-7261
▁현실적이고	-7262
▁벽	-7263
▁젖	-7264
가야	-7265
경을	-7266
계를	-7267
기나	-7268
내서	-7269
누라	-7270
랬다	-7271
리즘	-7272
못함	-7273
버츠	-7274
부에	-7275
속을	-7276
수작	-7277
승헌	-7278
시킬	-7279
알고	-7280
에휴	-7281
예쁘	-7282
은듯	-7283
이미	-7284
줘요	-7285
지에	-7286
크로	-7287
플린	-7288
형이	-7289
홧팅	-7290
▁강요	-7291
▁걸로	-7292
▁구조	-7293
▁굳굳	-7294
▁귀찮	-7295
▁극본	-7296
▁넘쳐	-7297
▁니들	-7298
▁되면	-7299
▁들게	-7300
▁미학	-7301
▁본것	-7302
▁비정	-7303
▁사과	-7304
▁생존	-7305
▁소소	-7306
▁시골	-7307
▁신세	-7308
▁신이	-7309
▁쓰러	-7310
▁역작	-7311
▁웃을	-7312
▁입장	-7313
▁있냐	-7314
▁잡아	-7315
▁정사	-7316
▁조차	-7317
▁주관	-7318
▁준비	-7319
▁짜리	-7320
▁쩌는	-7321
▁채워	-7322
▁틀림	-7323
▁팝콘	-7324
▁한거	-7325
▁호흡	-7326
는것도	-7327
분짜리	-7328
였네요	-7329
영화제	-7330
이었던	-7331
이후로	-7332
있다면	-7333
탈리아	-7334
하나요	-7335
▁가족과	-7336
▁감성을	-7337
▁과정이	-7338
▁나루토	-7339
▁멋져요	-7340
▁모습에	-7341
▁밋밋한	-7342
▁벗어나	-7343
▁상처를	-7344
▁상황이	-7345
▁심장이	-7346
▁안가는	-7347
▁않아요	-7348
▁알바가	-7349
▁에드워	-7350
▁연기로	-7351
▁이하도	-7352
▁인상적	-7353
▁죽음을	-7354
▁처음이	-7355
▁첨으로	-7356
▁초반엔	-7357
▁포켓몬	-7358
생각으로	-7359
스토리는	-7360
▁가슴아프	-7361
▁개인적인	-7362
▁그냥저냥	-7363
▁기대했던	-7364
▁긴장감과	-7365
▁나오네요	-7366
▁너무하네	-7367
▁니콜라스	-7368
▁드라마중	-7369
▁마찬가지	-7370
▁모든것이	-7371
▁아버지가	-7372
▁완성도가	-7373
▁입장에서	-7374
▁평론가들	-7375
▁호불호가	-7376
▁되었습니다	-7377
▁애니매이션	-7378
▁오그라드는	-7379
▁이렇게까지	-7380
▁말이필요없다	-7381
!~	-7382
et	-7383
ᅮᅲ	-7384
▁곤	-7385
▁똘	-7386
▁롤	-7387
▁뺏	-7388
▁쌓	-7389
▁짙	-7390
▁찔	-7391
감한	-7392
고한	-7393
데렐	-7394
되요	-7395
드립	-7396
릴때	-7397
맞고	-7398
받아	-7399
방식	-7400
보소	-7401
스틴	-7402
아의	-7403
어른	-7404
어를	-7405
옛날	-7406
을것	-7407
임이	-7408
철학	-7409
치다	-7410
프리	-7411
혜선	-7412
▁가만	-7413
▁가야	-7414
▁간단	-7415
▁감수	-7416
▁갖게	-7417
▁거다	-7418
▁경악	-7419
▁공룡	-7420
▁껐다	-7421
▁남의	-7422
▁누나	-7423
▁늙은	-7424
▁다름	-7425
▁대결	-7426
▁대역	-7427
▁도시	-7428
▁러셀	-7429
▁머야	-7430
▁면이	-7431
▁무식	-7432
▁반갑	-7433
▁부드	-7434
▁새록	-7435
▁새삼	-7436
▁신은	-7437
▁안좋	-7438
▁없던	-7439
▁연습	-7440
▁와서	-7441
▁으로	-7442
▁이나	-7443
▁적은	-7444
▁졸잼	-7445
▁차승	-7446
▁참여	-7447
▁초월	-7448
▁커버	-7449
▁커서	-7450
▁포함	-7451
▁피식	-7452
▁한글	-7453
▁허나	-7454
것같음	-7455
것인가	-7456
다는것	-7457
달라고	-7458
모르게	-7459
보인다	-7460
분정도	-7461
뻔했다	-7462
사람도	-7463
셨으면	-7464
아깝고	-7465
있을까	-7466
재밋음	-7467
주는데	-7468
지않아	-7469
하하하	-7470
해가는	-7471
회부터	-7472
▁감성이	-7473
▁거기다	-7474
▁게스트	-7475
▁군더더	-7476
▁나와야	-7477
▁느껴지	-7478
▁못했던	-7479
▁박찬욱	-7480
▁받아야	-7481
▁보이고	-7482
▁빨갱이	-7483
▁슈퍼맨	-7484
▁싶다면	-7485
▁안되네	-7486
▁안보는	-7487
▁안봐서	-7488
▁엔딩은	-7489
▁연기만	-7490
▁영화란	-7491
▁영화볼	-7492
▁왔는데	-7493
▁이딴게	-7494
▁이해도	-7495
▁적당한	-7496
▁정주행	-7497
▁책으로	-7498
▁테이큰	-7499
▁화끈한	-7500
▁흉내내	-7501
드라마를	-7502
재미있다	-7503
점주기도	-7504
▁2.22	-7505
▁걸작이다	-7506
▁귀여워서	-7507
▁기대된다	-7508
▁긴장감은	-7509
▁동화같은	-7510
▁마지막은	-7511
▁만들었냐	-7512
▁말하려는	-7513
▁몰입하게	-7514
▁시리즈가	-7515
▁심각하게	-7516
▁아이언맨	-7517
▁영상미도	-7518
▁영웅본색	-7519
▁우리에게	-7520
▁의미있는	-7521
▁이어지는	-7522
▁전편보다	-7523
▁주고싶다	-7524
▁캐릭터는	-7525
▁필요한가	-7526
▁후반부에	-7527
▁흥미롭게	-7528
▁강추합니다	-7529
▁다시봤는데	-7530
.?	-7531
ff	-7532
id	-7533
il	-7534
▁ᄊ	-7535
▁곡	-7536
개의	-7537
거에	-7538
구를	-7539
답다	-7540
동화	-7541
들린	-7542
땜시	-7543
뜨고	-7544
래요	-7545
렸네	-7546
명한	-7547
미안	-7548
배는	-7549
버튼	-7550
복수	-7551
상한	-7552
소가	-7553
스란	-7554
심한	-7555
암튼	-7556
일에	-7557
자인	-7558
좀비	-7559
팬이	-7560
한편	-7561
혀서	-7562
혜교	-7563
▁1~	-7564
▁거듭	-7565
▁구경	-7566
▁권상	-7567
▁기적	-7568
▁김명	-7569
▁낭만	-7570
▁높지	-7571
▁당할	-7572
▁되서	-7573
▁레오	-7574
▁마니	-7575
▁많네	-7576
▁매주	-7577
▁머냐	-7578
▁물어	-7579
▁미쳐	-7580
▁반응	-7581
▁받았	-7582
▁보구	-7583
▁삶은	-7584
▁색채	-7585
▁성의	-7586
▁소년	-7587
▁소품	-7588
▁스토	-7589
▁싶음	-7590
▁아팠	-7591
▁안봄	-7592
▁앉아	-7593
▁여유	-7594
▁역겹	-7595
▁오페	-7596
▁용기	-7597
▁우승	-7598
▁유승	-7599
▁재탕	-7600
▁적이	-7601
▁죽어	-7602
▁최대	-7603
갑자기	-7604
것처럼	-7605
게다가	-7606
고싶어	-7607
긴장감	-7608
넘치는	-7609
던데요	-7610
라지만	-7611
소리는	-7612
시네요	-7613
시키지	-7614
아닌데	-7615
안된다	-7616
없지만	-7617
으세요	-7618
이들의	-7619
인영화	-7620
재미가	-7621
창시절	-7622
▁거기서	-7623
▁결국엔	-7624
▁결국은	-7625
▁기대한	-7626
▁노래는	-7627
▁느낀다	-7628
▁대사와	-7629
▁말밖에	-7630
▁말았다	-7631
▁무서움	-7632
▁믿기지	-7633
▁바란다	-7634
▁비해서	-7635
▁송승헌	-7636
▁시간과	-7637
▁시간은	-7638
▁심리묘	-7639
▁알바생	-7640
▁알수있	-7641
▁앞에서	-7642
▁액션의	-7643
▁어중간	-7644
▁어차피	-7645
▁없어도	-7646
▁웃다가	-7647
▁웃으며	-7648
▁이라는	-7649
▁일어나	-7650
▁작품에	-7651
▁장르를	-7652
▁재밋고	-7653
▁전개에	-7654
▁전라도	-7655
▁점에서	-7656
▁좋더라	-7657
▁진실을	-7658
▁총체적	-7659
▁추억을	-7660
없습니다	-7661
여주인공	-7662
하고싶은	-7663
▁느껴지지	-7664
▁빠져들게	-7665
▁어설프게	-7666
▁지금보면	-7667
▁진행되는	-7668
▁최고인듯	-7669
▁충분하다	-7670
▁캐스팅은	-7671
▁허접하고	-7672
보지마세요	-7673
하겠습니다	-7674
하셨습니다	-7675
▁만들었으면	-7676
▁아깝습니다	-7677
▁여주인공의	-7678
▁영화였는데	-7679
▁주인공들의	-7680
40	-7681
:)	-7682
▁석	-7683
▁찐	-7684
▁퀴	-7685
같네	-7686
귀신	-7687
년을	-7688
누가	-7689
돌이	-7690
두번	-7691
많고	-7692
멤버	-7693
스턴	-7694
영은	-7695
작은	-7696
저나	-7697
져야	-7698
판에	-7699
한텐	-7700
희는	-7701
▁고증	-7702
▁기법	-7703
▁됐다	-7704
▁로마	-7705
▁마녀	-7706
▁마다	-7707
▁말아	-7708
▁멘탈	-7709
▁모순	-7710
▁반도	-7711
▁백인	-7712
▁버무	-7713
▁번역	-7714
▁성형	-7715
▁센스	-7716
▁속이	-7717
▁손꼽	-7718
▁수사	-7719
▁시체	-7720
▁심한	-7721
▁아메	-7722
▁어땠	-7723
▁엉뚱	-7724
▁오직	-7725
▁올드	-7726
▁위트	-7727
▁유익	-7728
▁음향	-7729
▁일찍	-7730
▁재치	-7731
▁죽인	-7732
▁지저	-7733
▁찍는	-7734
▁추구	-7735
▁치료	-7736
▁커녕	-7737
▁텐데	-7738
▁파고	-7739
▁편의	-7740
▁픽션	-7741
▁하니	-7742
▁해외	-7743
▁했나	-7744
▁화질	-7745
나올때	-7746
너무잘	-7747
리지만	-7748
마르소	-7749
마저도	-7750
보려고	-7751
스포머	-7752
었다면	-7753
여배우	-7754
였구나	-7755
이거나	-7756
자들은	-7757
재밋다	-7758
줘야지	-7759
지루해	-7760
판으로	-7761
편까지	-7762
할수도	-7763
...1	-7764
▁과장된	-7765
▁기억을	-7766
▁나머진	-7767
▁다니엘	-7768
▁매력적	-7769
▁명배우	-7770
▁모르겟	-7771
▁못따라	-7772
▁반지의	-7773
▁받았다	-7774
▁보고난	-7775
▁보낸다	-7776
▁본듯한	-7777
▁뻔하다	-7778
▁소리가	-7779
▁아놀드	-7780
▁아바타	-7781
▁아이고	-7782
▁애니를	-7783
▁액션만	-7784
▁여운도	-7785
▁예뻐서	-7786
▁원작은	-7787
▁이것은	-7788
▁일주일	-7789
▁잼없다	-7790
▁적나라	-7791
▁전율이	-7792
▁지극히	-7793
▁최악임	-7794
▁편인데	-7795
오랜만에	-7796
하지말고	-7797
할수있는	-7798
▁2015	-7799
▁감동이다	-7800
▁나오는거	-7801
▁내용전개	-7802
▁메세지를	-7803
▁불쌍해서	-7804
▁사랑한다	-7805
▁스릴러물	-7806
▁싶었는데	-7807
▁여자들이	-7808
▁영화같다	-7809
▁영화인것	-7810
▁이것보다	-7811
▁인물들의	-7812
▁잘하네요	-7813
▁초반에는	-7814
▁후반부로	-7815
줄알았는데	-7816
▁러닝타임이	-7817
▁아직까지도	-7818
▁킬링타임용으로도	-7819
_^	-7820
▁껏	-7821
▁맑	-7822
▁헉	-7823
간이	-7824
고도	-7825
공주	-7826
깊은	-7827
놀이	-7828
롭다	-7829
봤네	-7830
사라	-7831
센스	-7832
시켰	-7833
실패	-7834
알아	-7835
여러	-7836
율이	-7837
장센	-7838
제일	-7839
카메	-7840
코드	-7841
쾌한	-7842
편과	-7843
평생	-7844
폭력	-7845
하의	-7846
한가	-7847
할것	-7848
▁ᅲᅮ	-7849
▁고양	-7850
▁공연	-7851
▁공허	-7852
▁국산	-7853
▁끝남	-7854
▁끝판	-7855
▁나면	-7856
▁넣어	-7857
▁노무	-7858
▁대부	-7859
▁돼지	-7860
▁따스	-7861
▁딸이	-7862
▁마리	-7863
▁맞추	-7864
▁모양	-7865
▁본건	-7866
▁생명	-7867
▁안다	-7868
▁열광	-7869
▁옆에	-7870
▁오유	-7871
▁외면	-7872
▁욕심	-7873
▁웃는	-7874
▁위안	-7875
▁의견	-7876
▁이뻤	-7877
▁인권	-7878
▁자리	-7879
▁정석	-7880
▁졸리	-7881
▁지경	-7882
▁지키	-7883
▁커피	-7884
▁평론	-7885
▁한줄	-7886
▁한쿡	-7887
▁회상	-7888
것같아	-7889
것들이	-7890
더럽게	-7891
방에서	-7892
보기엔	-7893
샌들러	-7894
시대의	-7895
으면좋	-7896
잘만들	-7897
정도는	-7898
중간에	-7899
지부지	-7900
▁간간히	-7901
▁꼭봐야	-7902
▁나올까	-7903
▁느낌도	-7904
▁다이하	-7905
▁무간도	-7906
▁보지도	-7907
▁비행기	-7908
▁설명이	-7909
▁소재만	-7910
▁손색이	-7911
▁시대가	-7912
▁아픔을	-7913
▁여자애	-7914
▁영향을	-7915
▁왕가위	-7916
▁유치원	-7917
▁의도를	-7918
▁제목은	-7919
▁한효주	-7920
었을텐데	-7921
재미없어	-7922
줄알았다	-7923
킬링타임	-7924
▁OOOO	-7925
▁감동적임	-7926
▁겨울왕국	-7927
▁기억난다	-7928
▁남아있는	-7929
▁다큐멘터	-7930
▁도라에몽	-7931
▁또보고싶	-7932
▁바라보는	-7933
▁스필버그	-7934
▁슬픈영화	-7935
▁야하지도	-7936
▁어디까지	-7937
▁엉망진창	-7938
▁여배우의	-7939
▁연기자들	-7940
▁영화들이	-7941
▁욕나온다	-7942
▁이따위로	-7943
▁이런것도	-7944
▁정말정말	-7945
▁좋아했던	-7946
▁처음이네	-7947
▁학창시절	-7948
▁훈훈하고	-7949
▁힘들었다	-7950
...-_-	-7951
▁감동입니다	-7952
▁소피마르소	-7953
▁이런식으로	-7954
▁인간적으로	-7955
▁있었습니다	-7956
▁감동적이었다	-7957
.(	-7958
▁닭	-7959
▁밴	-7960
▁셋	-7961
▁웹	-7962
▁혈	-7963
거워	-7964
겨운	-7965
구먼	-7966
듣고	-7967
등장	-7968
라곤	-7969
란한	-7970
랄한	-7971
러니	-7972
려도	-7973
멋진	-7974
비는	-7975
수정	-7976
숙한	-7977
순수	-7978
스펜	-7979
오고	-7980
올라	-7981
운데	-7982
원도	-7983
일때	-7984
잘못	-7985
잘생	-7986
전은	-7987
즈가	-7988
진의	-7989
천재	-7990
펙트	-7991
평이	-7992
할거	-7993
할줄	-7994
.""	-7995
▁각각	-7996
▁거야	-7997
▁것과	-7998
▁고작	-7999
▁공주	-8000
▁날아	-8001
▁남고	-8002
▁내고	-8003
▁눈요	-8004
▁눈치	-8005
▁될듯	-8006
▁들지	-8007
▁로멘	-8008
▁명확	-8009
▁목적	-8010
▁몰아	-8011
▁문득	-8012
▁미술	-8013
▁미야	-8014
▁박시	-8015
▁배드	-8016
▁배울	-8017
▁보신	-8018
▁봤나	-8019
▁브로	-8020
▁수십	-8021
▁순진	-8022
▁숨어	-8023
▁승부	-8024
▁심사	-8025
▁안녕	-8026
▁애가	-8027
▁없애	-8028
▁오인	-8029
▁의지	-8030
▁이중	-8031
▁일일	-8032
▁자위	-8033
▁잘안	-8034
▁적극	-8035
▁중의	-8036
▁지워	-8037
▁패션	-8038
▁한정	-8039
그래픽	-8040
러티브	-8041
마음이	-8042
사람을	-8043
씩이나	-8044
에대해	-8045
지말자	-8046
지않게	-8047
지않음	-8048
▁고인의	-8049
▁관람객	-8050
▁국어책	-8051
▁귀신이	-8052
▁김희선	-8053
▁내시간	-8054
▁달리는	-8055
▁답답해	-8056
▁당시엔	-8057
▁대학생	-8058
▁더러워	-8059
▁되어야	-8060
▁만화가	-8061
▁명작임	-8062
▁뭐랄까	-8063
▁믿을게	-8064
▁보고도	-8065
▁보는것	-8066
▁세상의	-8067
▁시대적	-8068
▁아련한	-8069
▁어쨌든	-8070
▁어쩌다	-8071
▁엄정화	-8072
▁영화찍	-8073
▁이딴거	-8074
▁있는가	-8075
▁자체도	-8076
▁장르의	-8077
▁재방송	-8078
▁주연의	-8079
▁줄리아	-8080
▁중학교	-8081
▁통해서	-8082
▁표정이	-8083
▁하지말	-8084
▁하지원	-8085
▁한계를	-8086
▁흠잡을	-8087
떨어지는	-8088
지루하다	-8089
..-_-	-8090
▁돈아까워	-8091
▁마무리가	-8092
▁미친듯이	-8093
▁보는동안	-8094
▁에드워드	-8095
▁연기력과	-8096
▁영상미와	-8097
▁영화제목	-8098
▁오글거림	-8099
▁오락영화	-8100
▁웬만하면	-8101
▁이기적인	-8102
▁일본에서	-8103
▁재미없을	-8104
▁재밋네요	-8105
▁줄거리가	-8106
▁지금이나	-8107
▁지루했음	-8108
▁드라마라고	-8109
▁우리나라의	-8110
▁재미없었음	-8111
▁좋아하시는	-8112
▁클레멘타인	-8113
▁ᄏᄏᄏᄏᄏᄏᄏᄏᄏ	-8114
.6	-8115
cn	-8116
▁숲	-8117
거죠	-8118
겠고	-8119
격이	-8120
구는	-8121
구리	-8122
기면	-8123
넘게	-8124
놈은	-8125
놈의	-8126
님을	-8127
다들	-8128
대기	-8129
두사	-8130
뒤에	-8131
려야	-8132
맞추	-8133
미도	-8134
시도	-8135
않고	-8136
였을	-8137
원래	-8138
자막	-8139
재현	-8140
저기	-8141
저는	-8142
정보	-8143
조아	-8144
죽여	-8145
줘도	-8146
지환	-8147
히히	-8148
▁갖춘	-8149
▁것들	-8150
▁그에	-8151
▁꺼져	-8152
▁남긴	-8153
▁내세	-8154
▁농담	-8155
▁된장	-8156
▁따듯	-8157
▁마구	-8158
▁망설	-8159
▁모독	-8160
▁모호	-8161
▁못하	-8162
▁박정	-8163
▁박평	-8164
▁발음	-8165
▁봤지	-8166
▁부각	-8167
▁연인	-8168
▁였다	-8169
▁예뻤	-8170
▁욕만	-8171
▁월드	-8172
▁이란	-8173
▁이순	-8174
▁잘해	-8175
▁정통	-8176
▁제왕	-8177
▁지상	-8178
▁찾기	-8179
▁출발	-8180
▁클리	-8181
▁피곤	-8182
▁핸드	-8183
▁향한	-8184
▁허탈	-8185
▁흥분	-8186
▁힙합	-8187
내용을	-8188
너무나	-8189
부분도	-8190
손가락	-8191
이들이	-8192
지라도	-8193
하고도	-8194
함으로	-8195
▁가치도	-8196
▁그들을	-8197
▁기가막	-8198
▁김민종	-8199
▁더욱더	-8200
▁돈으로	-8201
▁만화를	-8202
▁못해서	-8203
▁본적이	-8204
▁사투리	-8205
▁소리만	-8206
▁스페인	-8207
▁신세계	-8208
▁애들도	-8209
▁약하다	-8210
▁어디가	-8211
▁언젠가	-8212
▁엑스맨	-8213
▁우울한	-8214
▁이루어	-8215
▁일본인	-8216
▁전지현	-8217
▁중후반	-8218
▁첫번째	-8219
▁초중반	-8220
모르겠다	-8221
볼때마다	-8222
아름다운	-8223
영화에서	-8224
프라이즈	-8225
하는것도	-8226
▁다시보게	-8227
▁만든건지	-8228
▁만으로도	-8229
▁발연기에	-8230
▁분위기를	-8231
▁사람에게	-8232
▁식상하다	-8233
▁쓰레기가	-8234
▁쓰레기네	-8235
▁어이없고	-8236
▁여태까지	-8237
▁영화같은	-8238
▁이것저것	-8239
▁이따구로	-8240
▁잊지못할	-8241
▁진부하다	-8242
▁하지마라	-8243
▁환상적인	-8244
▁명작이라고	-8245
▁보고싶네요	-8246
▁트랜스포머	-8247
▁흥미진진한	-8248
!!!!!!!	-8249
22	-8250
ᄉᄇ	-8251
▁ᄃ	-8252
▁뚜	-8253
▁붉	-8254
▁뼈	-8255
▁쌈	-8256
▁쏴	-8257
▁측	-8258
▁컷	-8259
▁훔	-8260
가라	-8261
감에	-8262
곳이	-8263
급의	-8264
남아	-8265
남을	-8266
년간	-8267
더러	-8268
더스	-8269
말까	-8270
면을	-8271
문을	-8272
부모	-8273
뽕짝	-8274
성룡	-8275
실화	-8276
아냐	-8277
어어	-8278
왔던	-8279
인해	-8280
자식	-8281
주네	-8282
지원	-8283
지효	-8284
트라	-8285
특집	-8286
힘든	-8287
ttp	-8288
▁99	-8289
▁가라	-8290
▁개잼	-8291
▁고질	-8292
▁길다	-8293
▁깨끗	-8294
▁나을	-8295
▁낚인	-8296
▁남친	-8297
▁내일	-8298
▁덴젤	-8299
▁동감	-8300
▁되야	-8301
▁많음	-8302
▁몰락	-8303
▁반감	-8304
▁배가	-8305
▁법정	-8306
▁보일	-8307
▁본인	-8308
▁빠르	-8309
▁빨간	-8310
▁색깔	-8311
▁샤론	-8312
▁스킵	-8313
▁신화	-8314
▁애로	-8315
▁애절	-8316
▁어마	-8317
▁에릭	-8318
▁엠마	-8319
▁연주	-8320
▁인지	-8321
▁잘하	-8322
▁잼나	-8323
▁조아	-8324
▁줘도	-8325
▁지는	-8326
▁컬트	-8327
▁퇴보	-8328
같네요	-8329
깁니다	-8330
나저나	-8331
눈물이	-8332
니버스	-8333
말고는	-8334
볼수록	-8335
스러울	-8336
이란게	-8337
이해가	-8338
조차도	-8339
평점을	-8340
▁MBC	-8341
▁게임을	-8342
▁결과는	-8343
▁굿굿굿	-8344
▁그시절	-8345
▁기대안	-8346
▁남기는	-8347
▁더더욱	-8348
▁만드냐	-8349
▁만들다	-8350
▁못하네	-8351
▁미래를	-8352
▁미치는	-8353
▁빈약한	-8354
▁빠지게	-8355
▁사회의	-8356
▁손예진	-8357
▁슬펐다	-8358
▁신데렐	-8359
▁없으니	-8360
▁엑소시	-8361
▁연기한	-8362
▁오우삼	-8363
▁웃긴다	-8364
▁원작과	-8365
▁원주율	-8366
▁의문이	-8367
▁작가는	-8368
▁장동건	-8369
▁잼나요	-8370
▁최고인	-8371
▁카메론	-8372
▁터지는	-8373
▁평점왜	-8374
왔습니다	-8375
재밋어요	-8376
티비에서	-8377
하고싶다	-8378
▁드래곤볼	-8379
▁떠오르는	-8380
▁메세지가	-8381
▁새록새록	-8382
▁생각나게	-8383
▁싫어하는	-8384
▁아마추어	-8385
▁안나오고	-8386
▁안나오는	-8387
▁의미없는	-8388
▁이야기에	-8389
▁이탈리아	-8390
▁인생에서	-8391
▁잔인하고	-8392
▁지루함이	-8393
▁초반부터	-8394
▁추천한다	-8395
▁코미디는	-8396
▁톰크루즈	-8397
▁하고싶은	-8398
▁흐지부지	-8399
최고의영화	-8400
▁명작이네요	-8401
▁아쉬웠지만	-8402
▁이영화보고	-8403
▁재밌게봤는데	-8404
.9	-8405
ce	-8406
na	-8407
▁U	-8408
▁j	-8409
▁쉴	-8410
▁좆	-8411
▁콧	-8412
▁탕	-8413
개연	-8414
급이	-8415
꼬마	-8416
끄는	-8417
끝내	-8418
노출	-8419
니의	-8420
데요	-8421
동을	-8422
될듯	-8423
랑은	-8424
려진	-8425
문의	-8426
물은	-8427
번도	-8428
사한	-8429
삼류	-8430
서트	-8431
소장	-8432
신선	-8433
실력	-8434
써요	-8435
아침	-8436
양의	-8437
어마	-8438
어보	-8439
에이	-8440
오로	-8441
일단	-8442
잇다	-8443
전문	-8444
전체	-8445
중요	-8446
지우	-8447
진은	-8448
질때	-8449
차이	-8450
치만	-8451
통수	-8452
하이	-8453
해본	-8454
현준	-8455
://	-8456
com	-8457
▁in	-8458
▁ᄇᄉ	-8459
▁거장	-8460
▁괴수	-8461
▁구지	-8462
▁극찬	-8463
▁김선	-8464
▁깜놀	-8465
▁끝은	-8466
▁내리	-8467
▁노튼	-8468
▁단역	-8469
▁돈과	-8470
▁돈벌	-8471
▁돈은	-8472
▁드문	-8473
▁때의	-8474
▁람보	-8475
▁마틴	-8476
▁만날	-8477
▁만듬	-8478
▁만세	-8479
▁맞다	-8480
▁믿기	-8481
▁버릴	-8482
▁분장	-8483
▁사로	-8484
▁성적	-8485
▁쓰나	-8486
▁안겨	-8487
▁않네	-8488
▁에바	-8489
▁영광	-8490
▁완죤	-8491
▁유령	-8492
▁이를	-8493
▁인가	-8494
▁정준	-8495
▁존잼	-8496
▁쥐어	-8497
▁집단	-8498
▁카피	-8499
▁크다	-8500
▁환장	-8501
기보단	-8502
기종영	-8503
네이버	-8504
돈으로	-8505
드려요	-8506
만하고	-8507
보시길	-8508
봣어요	-8509
빼고는	-8510
새끼들	-8511
세상에	-8512
스트라	-8513
습니당	-8514
십니다	-8515
안되고	-8516
에서만	-8517
원주고	-8518
이니까	-8519
입니까	-8520
재밌는	-8521
집에서	-8522
특유의	-8523
하구만	-8524
하는듯	-8525
할게요	-8526
▁8.5	-8527
▁강하게	-8528
▁개봉을	-8529
▁굉장한	-8530
▁낚여서	-8531
▁남기고	-8532
▁남자를	-8533
▁높은지	-8534
▁다른건	-8535
▁대사는	-8536
▁도움이	-8537
▁떨어져	-8538
▁또봐도	-8539
▁뛰어나	-8540
▁만들기	-8541
▁문제는	-8542
▁미장센	-8543
▁배우와	-8544
▁보여줌	-8545
▁봤는지	-8546
▁봤다는	-8547
▁불륜을	-8548
▁사람과	-8549
▁설정과	-8550
▁아니네	-8551
▁아빠가	-8552
▁알아야	-8553
▁어설퍼	-8554
▁연출을	-8555
▁영화계	-8556
▁윌리스	-8557
▁의외의	-8558
▁이정재	-8559
▁재미만	-8560
▁정우성	-8561
▁짱짱맨	-8562
▁클래식	-8563
▁탁월한	-8564
▁특이한	-8565
▁편견을	-8566
▁평가를	-8567
▁한가지	-8568
▁한번씩	-8569
▁할말을	-8570
▁함부로	-8571
재미있음	-8572
하더라도	-8573
한마디로	-8574
할수없는	-8575
▁2003	-8576
▁best	-8577
▁군더더기	-8578
▁만들어야	-8579
▁많은것을	-8580
▁무슨말이	-8581
▁사람마다	-8582
▁생각했던	-8583
▁아깝다는	-8584
▁아니네요	-8585
▁아이들은	-8586
▁여배우가	-8587
▁영화내내	-8588
▁이상으로	-8589
▁인상깊게	-8590
▁재밋는데	-8591
▁지루함의	-8592
▁캐릭터의	-8593
점도아깝다	-8594
▁-_-;;	-8595
▁공포영화가	-8596
▁시간때우기	-8597
▁시나리오도	-8598
▁오글거려서	-8599
▁잔잔하지만	-8600
.............	-8601
ch	-8602
ct	-8603
el	-8604
op	-8605
▁넓	-8606
▁닌	-8607
▁밉	-8608
▁뿜	-8609
▁얽	-8610
▁왓	-8611
▁탱	-8612
▁톱	-8613
▁핀	-8614
가게	-8615
그림	-8616
극의	-8617
금보	-8618
깝다	-8619
누구	-8620
닝맨	-8621
다코	-8622
대화	-8623
던거	-8624
두근	-8625
디가	-8626
래셔	-8627
려니	-8628
밑에	-8629
살에	-8630
상욱	-8631
서방	-8632
설마	-8633
스피	-8634
슬리	-8635
시라	-8636
심의	-8637
앞에	-8638
연의	-8639
유머	-8640
이형	-8641
자에	-8642
짓을	-8643
치기	-8644
케팅	-8645
타는	-8646
토퍼	-8647
파서	-8648
펭귄	-8649
필름	-8650
하죠	-8651
헷갈	-8652
화면	-8653
,..	-8654
~~!	-8655
▁가난	-8656
▁가을	-8657
▁간지	-8658
▁고소	-8659
▁그를	-8660
▁그와	-8661
▁그외	-8662
▁기록	-8663
▁김윤	-8664
▁끊임	-8665
▁노골	-8666
▁대가	-8667
▁돈만	-8668
▁드물	-8669
▁듣는	-8670
▁등록	-8671
▁멀쩡	-8672
▁무대	-8673
▁무색	-8674
▁번을	-8675
▁베트	-8676
▁사망	-8677
▁살리	-8678
▁상어	-8679
▁솔까	-8680
▁어케	-8681
▁에러	-8682
▁완성	-8683
▁우롱	-8684
▁이전	-8685
▁일관	-8686
▁장소	-8687
▁장혁	-8688
▁재현	-8689
▁종합	-8690
▁지하	-8691
▁징징	-8692
▁쯧쯧	-8693
▁참을	-8694
▁추가	-8695
▁코드	-8696
▁태권	-8697
▁하긴	-8698
▁학살	-8699
▁한대	-8700
▁한예	-8701
▁황금	-8702
감동도	-8703
거같아	-8704
년동안	-8705
는거냐	-8706
들어서	-8707
들이다	-8708
떨어진	-8709
러워서	-8710
렸는데	-8711
받아서	-8712
버리지	-8713
사에서	-8714
성으로	-8715
필요한	-8716
하지는	-8717
▁가까이	-8718
▁같지만	-8719
▁겉멋만	-8720
▁경의를	-8721
▁공포도	-8722
▁관심을	-8723
▁나오기	-8724
▁나와도	-8725
▁대사를	-8726
▁돈낭비	-8727
▁두시간	-8728
▁들어도	-8729
▁또라이	-8730
▁매력은	-8731
▁머리를	-8732
▁면에서	-8733
▁무섭지	-8734
▁별하나	-8735
▁보기싫	-8736
▁불쾌한	-8737
▁수면제	-8738
▁슬퍼요	-8739
▁심오한	-8740
▁싶으면	-8741
▁아쉬울	-8742
▁안좋은	-8743
▁알게된	-8744
▁엉터리	-8745
▁역사적	-8746
▁영화제	-8747
▁웃음과	-8748
▁윌리엄	-8749
▁일어날	-8750
▁있어도	-8751
▁작품의	-8752
▁잼없음	-8753
▁정확히	-8754
▁주제는	-8755
▁쥬라기	-8756
▁차태현	-8757
▁찬사를	-8758
▁최악이	-8759
▁최초의	-8760
▁충격이	-8761
▁평점도	-8762
▁표현해	-8763
▁하던가	-8764
▁하지마	-8765
▁현실감	-8766
▁현실에	-8767
▁힘들게	-8768
거같네요	-8769
노잼노잼	-8770
영화네요	-8771
하기까지	-8772
▁2005	-8773
▁very	-8774
▁가슴아픈	-8775
▁감성팔이	-8776
▁결말까지	-8777
▁과대평가	-8778
▁나오다니	-8779
▁답답해서	-8780
▁몰랐는데	-8781
▁볼만한데	-8782
▁슬프네요	-8783
▁쓰레기임	-8784
▁아니라서	-8785
▁어린아이	-8786
▁없었는데	-8787
▁영화감독	-8788
▁오글거리	-8789
▁인생영화	-8790
▁재미나게	-8791
▁재밌었고	-8792
▁졸작이다	-8793
▁주인공을	-8794
▁캐스팅도	-8795
▁퀄리티가	-8796
▁필요없음	-8797
▁필요하다	-8798
▁해주세요	-8799
잘봤습니다	-8800
!!♥!!♥	-8801
▁드라마네요	-8802
▁스토리지만	-8803
▁안타깝네요	-8804
▁영화중에서	-8805
▁울었습니다	-8806
▁재미있어서	-8807
▁좋아하네요	-8808
▁지루하지않	-8809
▁개인적으로는	-8810
▁킬링타임용도	-8811
.7	-8812
14	-8813
34	-8814
▁ᄍ	-8815
▁멕	-8816
▁싹	-8817
▁싼	-8818
▁썸	-8819
▁즉	-8820
▁쫒	-8821
▁콤	-8822
▁툭	-8823
▁혜	-8824
감상	-8825
강에	-8826
공부	-8827
권택	-8828
그녀	-8829
그때	-8830
낫다	-8831
덜덜	-8832
리로	-8833
리칸	-8834
봣다	-8835
부한	-8836
비아	-8837
요미	-8838
웃긴	-8839
일으	-8840
잇고	-8841
자키	-8842
전달	-8843
절로	-8844
주제	-8845
중한	-8846
진희	-8847
초딩	-8848
크의	-8849
하리	-8850
함만	-8851
ion	-8852
▁it	-8853
▁가해	-8854
▁간직	-8855
▁경계	-8856
▁관대	-8857
▁괴로	-8858
▁그는	-8859
▁날려	-8860
▁너희	-8861
▁놓은	-8862
▁머가	-8863
▁밀어	-8864
▁바꾼	-8865
▁보아	-8866
▁볼것	-8867
▁불행	-8868
▁상실	-8869
▁성경	-8870
▁성찰	-8871
▁아끼	-8872
▁어딜	-8873
▁얻어	-8874
▁엽문	-8875
▁유혹	-8876
▁이뻐	-8877
▁이자	-8878
▁임청	-8879
▁잠수	-8880
▁잡는	-8881
▁저게	-8882
▁저지	-8883
▁중년	-8884
▁지배	-8885
▁찍을	-8886
▁친일	-8887
▁퀴어	-8888
▁해요	-8889
▁홧팅	-8890
곳에서	-8891
뭡니까	-8892
앞에서	-8893
이유가	-8894
있다는	-8895
작가님	-8896
주의를	-8897
줄거리	-8898
짜증나	-8899
창있네	-8900
티비로	-8901
하더니	-8902
히어로	-8903
----	-8904
▁고마운	-8905
▁공감을	-8906
▁과거를	-8907
▁관객들	-8908
▁구혜선	-8909
▁글쎄요	-8910
▁기승전	-8911
▁끝판왕	-8912
▁남는건	-8913
▁당연한	-8914
▁데뷔작	-8915
▁되어서	-8916
▁따라가	-8917
▁떨어진	-8918
▁레이첼	-8919
▁마스터	-8920
▁모성애	-8921
▁무서울	-8922
▁뭔가가	-8923
▁분명히	-8924
▁사기꾼	-8925
▁사람만	-8926
▁상당한	-8927
▁소재에	-8928
▁스릴이	-8929
▁시원한	-8930
▁싶지만	-8931
▁않아도	-8932
▁어떠한	-8933
▁인물들	-8934
▁일본이	-8935
▁임창정	-8936
▁있나요	-8937
▁장면과	-8938
▁재밋는	-8939
▁재밌당	-8940
▁정당화	-8941
▁짐캐리	-8942
▁집중도	-8943
▁참고로	-8944
▁추천해	-8945
▁타이틀	-8946
▁통쾌한	-8947
▁2004	-8948
▁~~~~	-8949
▁당시에는	-8950
▁대표적인	-8951
▁등장하는	-8952
▁만들었네	-8953
▁만화영화	-8954
▁말아먹은	-8955
▁메시지가	-8956
▁몇번이나	-8957
▁부끄러운	-8958
▁비교하면	-8959
▁사랑으로	-8960
▁상상력이	-8961
▁아니라는	-8962
▁아프리카	-8963
▁알겠지만	-8964
▁어렸을적	-8965
▁여기저기	-8966
▁원작소설	-8967
▁좋아하고	-8968
▁죽기전에	-8969
▁중반부터	-8970
▁코믹영화	-8971
▁한번쯤은	-8972
것같습니다	-8973
▁다세포소녀	-8974
▁다크나이트	-8975
▁볼만했는데	-8976
▁아름다웠다	-8977
▁영화라는게	-8978
▁일본영화는	-8979
▁처음이네요	-8980
▁애니메이션이	-8981
ᄏᄏᄏᄏᄏᄏᄏᄏᄏᄏ	-8982
.^	-8983
ht	-8984
▁겹	-8985
▁꽉	-8986
▁떄	-8987
▁숭	-8988
▁엇	-8989
거는	-8990
걸작	-8991
군이	-8992
급을	-8993
기준	-8994
나무	-8995
나쁘	-8996
나타	-8997
났던	-8998
대전	-8999
리트	-9000
맹랑	-9001
뭔지	-9002
바리	-9003
보며	-9004
보셈	-9005
봤을	-9006
블루	-9007
상도	-9008
스도	-9009
어느	-9010
었죠	-9011
연애	-9012
영웅	-9013
예고	-9014
워라	-9015
저질	-9016
좋았	-9017
줘라	-9018
증을	-9019
쨋든	-9020
쳐도	-9021
치않	-9022
틀러	-9023
향이	-9024
허허	-9025
형사	-9026
호의	-9027
.10	-9028
est	-9029
ove	-9030
▁감옥	-9031
▁강조	-9032
▁골때	-9033
▁교회	-9034
▁구분	-9035
▁까는	-9036
▁나참	-9037
▁난생	-9038
▁남발	-9039
▁납치	-9040
▁넘는	-9041
▁되나	-9042
▁똥을	-9043
▁몸을	-9044
▁못살	-9045
▁못주	-9046
▁발레	-9047
▁보셈	-9048
▁부디	-9049
▁서서	-9050
▁예산	-9051
▁요약	-9052
▁우아	-9053
▁일탈	-9054
▁잘살	-9055
▁잡고	-9056
▁저러	-9057
▁전락	-9058
▁절반	-9059
▁점은	-9060
▁접근	-9061
▁짐승	-9062
▁차마	-9063
▁창의	-9064
▁총격	-9065
▁총알	-9066
▁최하	-9067
▁출현	-9068
▁토끼	-9069
▁피라	-9070
▁하자	-9071
▁허구	-9072
▁홍진	-9073
▁휴먼	-9074
거라고	-9075
당하는	-9076
도없는	-9077
때부터	-9078
리다가	-9079
볼만한	-9080
빠지는	-9081
스란히	-9082
스에서	-9083
시대를	-9084
앞으로	-9085
에서나	-9086
에서야	-9087
였으나	-9088
을수도	-9089
장면을	-9090
저예산	-9091
편으로	-9092
하나로	-9093
할정도	-9094
했다가	-9095
OOOO	-9096
oooo	-9097
▁7.5	-9098
▁가져다	-9099
▁개같은	-9100
▁공중파	-9101
▁끝난다	-9102
▁다큐를	-9103
▁대단히	-9104
▁대실망	-9105
▁더럽고	-9106
▁도중에	-9107
▁된다는	-9108
▁드림웍	-9109
▁똑바로	-9110
▁만나는	-9111
▁말이다	-9112
▁명성을	-9113
▁모르나	-9114
▁모자라	-9115
▁모티브	-9116
▁배경과	-9117
▁배경도	-9118
▁베드신	-9119
▁별기대	-9120
▁복수극	-9121
▁설정에	-9122
▁소지섭	-9123
▁송혜교	-9124
▁실패작	-9125
▁아닌지	-9126
▁안되나	-9127
▁않으면	-9128
▁엄마의	-9129
▁없구나	-9130
▁역할을	-9131
▁영화본	-9132
▁예쁘게	-9133
▁오인혜	-9134
▁외국인	-9135
▁울었던	-9136
▁원피스	-9137
▁있겠지	-9138
▁있으니	-9139
▁작품중	-9140
▁절제된	-9141
▁정도다	-9142
▁주제도	-9143
▁지나친	-9144
▁최대의	-9145
▁평점올	-9146
▁하던데	-9147
▁혼자서	-9148
▁훌륭함	-9149
▁흡입력	-9150
감동적이	-9151
기대하고	-9152
스럽네요	-9153
▁2013	-9154
▁남자라면	-9155
▁돋보인다	-9156
▁마음속에	-9157
▁먹먹하다	-9158
▁미스테리	-9159
▁보고싶어	-9160
▁분위기도	-9161
▁분위기에	-9162
▁슬프지만	-9163
▁아까워요	-9164
▁안타까움	-9165
▁안했는데	-9166
▁영상미는	-9167
▁예술영화	-9168
▁인종차별	-9169
▁정신나간	-9170
▁주연배우	-9171
▁철학적인	-9172
▁캐릭터와	-9173
▁고맙습니다	-9174
▁매력적이다	-9175
▁오글거리고	-9176
▁존경합니다	-9177
▁초등학교때	-9178
><	-9179
@@	-9180
ve	-9181
▁값	-9182
▁맷	-9183
▁밍	-9184
가자	-9185
겨울	-9186
괴담	-9187
구구	-9188
그게	-9189
글자	-9190
남주	-9191
달아	-9192
라지	-9193
마냥	-9194
매우	-9195
명화	-9196
못보	-9197
미니	-9198
민아	-9199
버전	-9200
별루	-9201
보라	-9202
볼까	-9203
상실	-9204
생이	-9205
슬퍼	-9206
신분	-9207
싱턴	-9208
어설	-9209
언이	-9210
여야	-9211
역을	-9212
완벽	-9213
왜곡	-9214
이번	-9215
입고	-9216
저링	-9217
졌네	-9218
책임	-9219
크가	-9220
터짐	-9221
통에	-9222
플렉	-9223
..;	-9224
▁같네	-9225
▁거냐	-9226
▁고딩	-9227
▁그대	-9228
▁극한	-9229
▁김영	-9230
▁나니	-9231
▁나비	-9232
▁내놓	-9233
▁높네	-9234
▁뉴욕	-9235
▁느슨	-9236
▁때도	-9237
▁뚝뚝	-9238
▁맘이	-9239
▁매혹	-9240
▁몸이	-9241
▁믿는	-9242
▁믿지	-9243
▁백배	-9244
▁불면	-9245
▁비롯	-9246
▁비싼	-9247
▁비중	-9248
▁비하	-9249
▁빠지	-9250
▁색감	-9251
▁시사	-9252
▁쓰지	-9253
▁어벤	-9254
▁없군	-9255
▁엉덩	-9256
▁예쁨	-9257
▁우스	-9258
▁웃게	-9259
▁이범	-9260
▁이영	-9261
▁이외	-9262
▁이태	-9263
▁일생	-9264
▁읽은	-9265
▁잘함	-9266
▁정리	-9267
▁정이	-9268
▁주먹	-9269
▁죽일	-9270
▁짧게	-9271
▁짱임	-9272
▁찍지	-9273
▁찾을	-9274
▁최후	-9275
▁쿵푸	-9276
▁크로	-9277
▁클린	-9278
▁틈이	-9279
▁파이	-9280
▁팍팍	-9281
▁할배	-9282
▁혁명	-9283
▁흐뭇	-9284
가는게	-9285
모습이	-9286
번이나	-9287
볼려고	-9288
부분에	-9289
슬프다	-9290
앗는데	-9291
으라고	-9292
음악도	-9293
이기에	-9294
이유는	-9295
이정도	-9296
인간의	-9297
일리언	-9298
재미는	-9299
졌지만	-9300
좋아서	-9301
하군요	-9302
하였다	-9303
한건가	-9304
▁300	-9305
▁???	-9306
▁The	-9307
▁갔는데	-9308
▁것들을	-9309
▁구성과	-9310
▁기대에	-9311
▁나은듯	-9312
▁넘어선	-9313
▁노래를	-9314
▁노력이	-9315
▁뜨거운	-9316
▁마음의	-9317
▁망쳐놓	-9318
▁머리에	-9319
▁못하겠	-9320
▁반전의	-9321
▁복잡한	-9322
▁부족함	-9323
▁사라진	-9324
▁사랑도	-9325
▁사실이	-9326
▁송지효	-9327
▁신경쓰	-9328
▁아닌것	-9329
▁아쉽고	-9330
▁아이와	-9331
▁아침에	-9332
▁않았음	-9333
▁알려준	-9334
▁애니가	-9335
▁액션에	-9336
▁어둡고	-9337
▁용두사	-9338
▁원숭이	-9339
▁이번에	-9340
▁이쁘게	-9341
▁이상함	-9342
▁이해못	-9343
▁이후에	-9344
▁자유를	-9345
▁전부다	-9346
▁전쟁을	-9347
▁전편의	-9348
▁즐겁고	-9349
▁취향이	-9350
▁코드가	-9351
▁팀버튼	-9352
▁행복을	-9353
▁흐름이	-9354
되는영화	-9355
렸습니다	-9356
보고나서	-9357
영화지만	-9358
을정도로	-9359
하하하하	-9360
▁다음으로	-9361
▁다이하드	-9362
▁되었는데	-9363
▁멋진영화	-9364
▁메시지를	-9365
▁멜로영화	-9366
▁미야자키	-9367
▁받아들이	-9368
▁볼만해요	-9369
▁부분에서	-9370
▁아이러니	-9371
▁예고편만	-9372
▁인간적인	-9373
▁작품이라	-9374
▁재밌게본	-9375
▁중학교때	-9376
▁지루하네	-9377
▁힘내세요	-9378
▁뮤직비디오	-9379
▁보고싶어요	-9380
▁사실적으로	-9381
▁영화에서는	-9382
▁지루하기만	-9383
▁현실적으로	-9384
▁너무재밌어요	-9385
▁잔잔하면서도	-9386
▁최고였습니다	-9387
ᅲᅲᅲᅲᅲᅲᅲᅲᅲᅲᅲᅲᅲᅲᅲᅲ	-9388
▁♡	-9389
▁갇	-9390
▁곁	-9391
▁덧	-9392
▁롱	-9393
▁묶	-9394
▁빚	-9395
▁켄	-9396
▁훌	-9397
가진	-9398
거림	-9399
겠냐	-9400
국의	-9401
국이	-9402
군의	-9403
남길	-9404
내려	-9405
누군	-9406
눈이	-9407
도와	-9408
들리	-9409
등등	-9410
때가	-9411
라나	-9412
라를	-9413
라마	-9414
러움	-9415
리타	-9416
마는	-9417
맛이	-9418
박이	-9419
보길	-9420
봤지	-9421
부턴	-9422
불륜	-9423
서린	-9424
세이	-9425
수고	-9426
시죠	-9427
씨를	-9428
아버	-9429
았어	-9430
역의	-9431
열자	-9432
음에	-9433
점짜	-9434
중독	-9435
챙겨	-9436
추고	-9437
틈이	-9438
피아	-9439
해석	-9440
효진	-9441
▁28	-9442
▁98	-9443
▁가상	-9444
▁강호	-9445
▁같지	-9446
▁곱씹	-9447
▁구멍	-9448
▁구역	-9449
▁군인	-9450
▁글로	-9451
▁기념	-9452
▁김강	-9453
▁냉정	-9454
▁단언	-9455
▁도입	-9456
▁돈도	-9457
▁또는	-9458
▁무관	-9459
▁미니	-9460
▁미키	-9461
▁발상	-9462
▁버전	-9463
▁변호	-9464
▁분이	-9465
▁빠짐	-9466
▁뻔뻔	-9467
▁뻔히	-9468
▁섞어	-9469
▁속은	-9470
▁신념	-9471
▁심히	-9472
▁십점	-9473
▁싶었	-9474
▁어떻	-9475
▁여왕	-9476
▁열자	-9477
▁예뻐	-9478
▁운명	-9479
▁은은	-9480
▁은퇴	-9481
▁의학	-9482
▁이겨	-9483
▁이혼	-9484
▁임신	-9485
▁장미	-9486
▁저거	-9487
▁조심	-9488
▁조정	-9489
▁조조	-9490
▁죽기	-9491
▁증명	-9492
▁지적	-9493
▁짱이	-9494
▁쪽팔	-9495
▁찜찜	-9496
▁차별	-9497
▁찰리	-9498
▁추락	-9499
▁타락	-9500
▁티가	-9501
▁하셨	-9502
▁헷갈	-9503
▁활용	-9504
▁히로	-9505
거에요	-9506
겠는가	-9507
그런가	-9508
그렇고	-9509
기억에	-9510
냅니다	-9511
됐는데	-9512
라노말	-9513
멋대로	-9514
발이고	-9515
봤으면	-9516
아깝네	-9517
어머니	-9518
없다고	-9519
지루한	-9520
편인데	-9521
한건지	-9522
해졌다	-9523
..."	-9524
▁,,,	-9525
▁198	-9526
▁강동원	-9527
▁검색해	-9528
▁결말에	-9529
▁구성은	-9530
▁그들은	-9531
▁기대도	-9532
▁나왔음	-9533
▁낚였네	-9534
▁넘어가	-9535
▁무엇이	-9536
▁뭔가요	-9537
▁범인이	-9538
▁별루다	-9539
▁별점을	-9540
▁부럽다	-9541
▁부분을	-9542
▁불후의	-9543
▁산만한	-9544
▁성우가	-9545
▁솔직한	-9546
▁신세경	-9547
▁심리를	-9548
▁안되서	-9549
▁액션물	-9550
▁양동근	-9551
▁엄마랑	-9552
▁없는듯	-9553
▁없었고	-9554
▁에로물	-9555
▁웃음만	-9556
▁유지태	-9557
▁이스트	-9558
▁이유로	-9559
▁인물의	-9560
▁인터뷰	-9561
▁일베충	-9562
▁임권택	-9563
▁장면만	-9564
▁제목과	-9565
▁주상욱	-9566
▁주제에	-9567
▁채널돌	-9568
▁충격을	-9569
▁클리셰	-9570
▁태어난	-9571
▁한숨만	-9572
▁흑역사	-9573
기만하고	-9574
다시봐도	-9575
배속으로	-9576
이영화는	-9577
장면에서	-9578
점대라니	-9579
점정도가	-9580
할정도로	-9581
▁감독님의	-9582
▁강력추천	-9583
▁고스란히	-9584
▁그럼에도	-9585
▁그지같은	-9586
▁나온다고	-9587
▁너무좋아	-9588
▁막장으로	-9589
▁만들려고	-9590
▁모르겟다	-9591
▁보이지만	-9592
▁봐야한다	-9593
▁아카데미	-9594
▁알게해준	-9595
▁어린이용	-9596
▁없었으면	-9597
▁연기까지	-9598
▁영화계의	-9599
▁영화들은	-9600
▁영화라면	-9601
▁예고편이	-9602
▁움직이는	-9603
▁이야기도	-9604
▁이정도로	-9605
▁잃어버린	-9606
▁자본주의	-9607
▁잘생기고	-9608
▁재미있네	-9609
▁좋아하지	-9610
▁좋아해요	-9611
▁중간부터	-9612
▁허무하게	-9613
▁흥미롭고	-9614
▁것만으로도	-9615
▁공포영화는	-9616
▁서프라이즈	-9617
▁어이없어서	-9618
▁재미있다고	-9619
▁재미있었고	-9620
▁좋아한다면	-9621
▁......	-9622
▁ᄏᄏᄏᄏᄏᄏᄏᄏᄏᄏᄏ	-9623
60	-9624
ᄀᄀ	-9625
▁낸	-9626
▁넋	-9627
▁놔	-9628
▁델	-9629
▁뚫	-9630
▁뚱	-9631
▁며	-9632
▁멸	-9633
▁빗	-9634
▁셀	-9635
▁칸	-9636
▁캠	-9637
▁캡	-9638
▁홈	-9639
가니	-9640
간지	-9641
그의	-9642
내기	-9643
능한	-9644
달까	-9645
대도	-9646
데로	-9647
맞은	-9648
맹이	-9649
먼저	-9650
미래	-9651
부러	-9652
비홍	-9653
빨고	-9654
수로	-9655
스티	-9656
스페	-9657
시를	-9658
어는	-9659
유쾌	-9660
이긴	-9661
이젠	-9662
일세	-9663
재가	-9664
치면	-9665
카이	-9666
홍보	-9667
흐름	-9668
!^^	-9669
hat	-9670
ore	-9671
▁1,	-9672
▁가관	-9673
▁경우	-9674
▁경제	-9675
▁고찰	-9676
▁국제	-9677
▁권력	-9678
▁기차	-9679
▁김재	-9680
▁김현	-9681
▁나누	-9682
▁나뿐	-9683
▁나아	-9684
▁넘은	-9685
▁노동	-9686
▁논리	-9687
▁닥터	-9688
▁달고	-9689
▁덕에	-9690
▁도통	-9691
▁되도	-9692
▁두말	-9693
▁들여	-9694
▁똑똑	-9695
▁말라	-9696
▁멀리	-9697
▁모야	-9698
▁물건	-9699
▁물고	-9700
▁물씬	-9701
▁박해	-9702
▁보소	-9703
▁복선	-9704
▁싸울	-9705
▁쏘우	-9706
▁쓰렉	-9707
▁안남	-9708
▁알렉	-9709
▁알지	-9710
▁어떡	-9711
▁에너	-9712
▁여튼	-9713
▁우익	-9714
▁운동	-9715
▁웹툰	-9716
▁위에	-9717
▁이경	-9718
▁이완	-9719
▁읽는	-9720
▁저주	-9721
▁정화	-9722
▁존내	-9723
▁주목	-9724
▁증말	-9725
▁천만	-9726
▁캐리	-9727
▁큐브	-9728
▁특징	-9729
▁퍼즐	-9730
▁펭귄	-9731
▁푸른	-9732
▁하던	-9733
▁한개	-9734
는거다	-9735
당하고	-9736
들보다	-9737
로서의	-9738
모습을	-9739
봤다가	-9740
성탈출	-9741
아쉽다	-9742
아이돌	-9743
안타까	-9744
에게도	-9745
연기잘	-9746
영화냐	-9747
왔으면	-9748
웃기고	-9749
음악이	-9750
파서블	-9751
편부터	-9752
한것도	-9753
할려고	-9754
합시다	-9755
해야할	-9756
했더니	-9757
zzzz	-9758
▁ebs	-9759
▁~~~	-9760
▁가끔씩	-9761
▁가치를	-9762
▁감흥이	-9763
▁강지환	-9764
▁개소리	-9765
▁개인의	-9766
▁그만좀	-9767
▁기억도	-9768
▁꿈꾸는	-9769
▁나가는	-9770
▁나름의	-9771
▁낚이지	-9772
▁누구도	-9773
▁더럽다	-9774
▁돌아오	-9775
▁많지만	-9776
▁말하면	-9777
▁말할수	-9778
▁먹먹한	-9779
▁받아서	-9780
▁베트남	-9781
▁비교가	-9782
▁뻔해서	-9783
▁상상을	-9784
▁상영관	-9785
▁서스펜	-9786
▁선택한	-9787
▁수준은	-9788
▁아니냐	-9789
▁얘기가	-9790
▁이상을	-9791
▁일요일	-9792
▁있는듯	-9793
▁장난감	-9794
▁전작의	-9795
▁정신을	-9796
▁정신차	-9797
▁조용히	-9798
▁죽는다	-9799
▁차이가	-9800
▁초능력	-9801
▁초반부	-9802
▁취향은	-9803
▁클라이	-9804
▁태어나	-9805
▁풀어나	-9806
▁하려는	-9807
▁할수있	-9808
▁현실의	-9809
▁후회함	-9810
남기는데	-9811
부분에서	-9812
스러워서	-9813
시간낭비	-9814
영화였다	-9815
재미없는	-9816
적이지만	-9817
좋았어요	-9818
하겠지만	-9819
▁관객에게	-9820
▁그런영화	-9821
▁깔끔하고	-9822
▁너무한다	-9823
▁다른영화	-9824
▁때문이다	-9825
▁말았어야	-9826
▁말해주는	-9827
▁무서워서	-9828
▁배우분들	-9829
▁보고있는	-9830
▁사람들도	-9831
▁스릴러가	-9832
▁스릴러를	-9833
▁신데렐라	-9834
▁않았으면	-9835
▁알았더니	-9836
▁어마어마	-9837
▁어우러진	-9838
▁여배우들	-9839
▁이연걸의	-9840
▁이해가안	-9841
▁지났지만	-9842
▁지들끼리	-9843
▁짜증나네	-9844
▁최고라는	-9845
▁코미디가	-9846
▁허무맹랑	-9847
▁허술하고	-9848
▁허접하다	-9849
▁훌륭하고	-9850
▁히어로물	-9851
▁감동도없고	-9852
▁감동적으로	-9853
▁보고있어요	-9854
▁생각나네요	-9855
▁시간아까워	-9856
▁시나리오를	-9857
▁영화자체는	-9858
▁일깨워주는	-9859
▁재미있었던	-9860
▁지금까지도	-9861
▁지루했어요	-9862
▁최고였어요	-9863
!!!!!!!!!	-9864
▁규	-9865
▁긍	-9866
▁깝	-9867
▁몫	-9868
▁쏙	-9869
겟네	-9870
겠나	-9871
과정	-9872
구석	-9873
국민	-9874
까봐	-9875
꺼다	-9876
날이	-9877
남은	-9878
녀가	-9879
높아	-9880
대중	-9881
도다	-9882
디션	-9883
러브	-9884
마트	-9885
많다	-9886
맞춘	-9887
바다	-9888
바른	-9889
볼일	-9890
블랙	-9891
비스	-9892
사나	-9893
쓴다	-9894
아닐	-9895
안의	-9896
엿다	-9897
예능	-9898
우니	-9899
위로	-9900
일라	-9901
작에	-9902
점만	-9903
점점	-9904
질수	-9905
체를	-9906
쳤던	-9907
트리	-9908
판은	-9909
하단	-9910
희씨	-9911
.."	-9912
..,	-9913
▁ᄅᄋ	-9914
▁간첩	-9915
▁건데	-9916
▁기쁨	-9917
▁길고	-9918
▁다케	-9919
▁더럽	-9920
▁데려	-9921
▁딱딱	-9922
▁마을	-9923
▁멈추	-9924
▁멘붕	-9925
▁모여	-9926
▁밀라	-9927
▁배려	-9928
▁보진	-9929
▁부를	-9930
▁삼가	-9931
▁삽입	-9932
▁생략	-9933
▁속도	-9934
▁수백	-9935
▁식스	-9936
▁씨네	-9937
▁안봐	-9938
▁역쉬	-9939
▁열린	-9940
▁옛다	-9941
▁온몸	-9942
▁우습	-9943
▁원표	-9944
▁인데	-9945
▁재료	-9946
▁잼씀	-9947
▁저희	-9948
▁주옥	-9949
▁쩌네	-9950
▁찾고	-9951
▁철저	-9952
▁초기	-9953
▁치는	-9954
감동이	-9955
거든요	-9956
거리고	-9957
그것도	-9958
그자체	-9959
급으로	-9960
기보다	-9961
는거임	-9962
로맨스	-9963
마음에	-9964
만든다	-9965
맞추기	-9966
머니즘	-9967
버린다	-9968
볼수있	-9969
수준의	-9970
아아아	-9971
아줌마	-9972
액션이	-9973
었어도	-9974
으려는	-9975
이나오	-9976
있었던	-9977
진정한	-9978
하는가	-9979
하라는	-9980
하잖아	-9981
bbbb	-9982
▁ocn	-9983
▁과정을	-9984
▁괜찮네	-9985
▁권상우	-9986
▁그때의	-9987
▁그레이	-9988
▁기대는	-9989
▁기억될	-9990
▁기회가	-9991
▁김혜수	-9992
▁나온거	-9993
▁돈아까	-9994
▁드니로	-9995
▁따뜻해	-9996
▁만화는	-9997
▁매트릭	-9998
▁모자란	-9999
▁방법이	-10000
▁배우만	-10001
▁보느니	-10002
▁보는듯	-10003
▁복수를	-10004
▁봐줄만	-10005
▁부르는	-10006
▁새롭게	-10007
▁설경구	-10008
▁세계관	-10009
▁스티브	-10010
▁아동용	-10011
▁않았고	-10012
▁오늘도	-10013
▁오로라	-10014
▁요소를	-10015
▁웃겼음	-10016
▁잘표현	-10017
▁재밌지	-10018
▁재발견	-10019
▁저절로	-10020
▁전세계	-10021
▁조금씩	-10022
▁죽을때	-10023
▁죽인다	-10024
▁징그러	-10025
▁청춘의	-10026
▁치고는	-10027
▁컨저링	-10028
▁클린트	-10029
▁하고싶	-10030
▁하는건	-10031
▁하이킥	-10032
▁한건지	-10033
▁희망이	-10034
♡♥♡♥	-10035
긴했지만	-10036
들에게는	-10037
하는건지	-10038
...!!	-10039
▁http	-10040
▁공감가는	-10041
▁기대되는	-10042
▁내러티브	-10043
▁대사들이	-10044
▁돈아깝다	-10045
▁만들어졌	-10046
▁무언가를	-10047
▁미스터리	-10048
▁별로였음	-10049
▁별한개도	-10050
▁보기에도	-10051
▁보냅니다	-10052
▁불러일으	-10053
▁빠져드는	-10054
▁생각해서	-10055
▁스케일이	-10056
▁시선으로	-10057
▁아닌가요	-10058
▁안되는데	-10059
▁어른들이	-10060
▁어쩌라고	-10061
▁없는영화	-10062
▁오리지널	-10063
▁우리들의	-10064
▁인디아나	-10065
▁장난아니	-10066
▁조기종영	-10067
▁진짜진짜	-10068
▁해도해도	-10069
▁현실성이	-10070
▁화려하고	-10071
보았습니다	-10072
영화관에서	-10073
...;;;	-10074
▁기대됩니다	-10075
▁모르겠는데	-10076
▁비현실적인	-10077
▁시나리오에	-10078
▁파워레인저	-10079
▁만들어주세요	-10080
13	-10081
ne	-10082
og	-10083
ᄅᄅ	-10084
▁Y	-10085
▁]	-10086
▁`	-10087
▁ᅵ	-10088
▁꾹	-10089
▁끓	-10090
▁훼	-10091
개로	-10092
거니	-10093
것다	-10094
고은	-10095
관련	-10096
교육	-10097
근석	-10098
금을	-10099
나만	-10100
나왓	-10101
놨다	-10102
드네	-10103
드러	-10104
드문	-10105
론이	-10106
롯데	-10107
리쉬	-10108
만세	-10109
몰랐	-10110
무니	-10111
미녀	-10112
바가	-10113
보임	-10114
본거	-10115
본게	-10116
부림	-10117
부탁	-10118
뿐만	-10119
사극	-10120
선수	-10121
성공	-10122
소를	-10123
아마	-10124
엉성	-10125
영씨	-10126
우면	-10127
월드	-10128
을뿐	-10129
이한	-10130
잼있	-10131
전히	-10132
정서	-10133
조위	-10134
타령	-10135
틱한	-10136
해줄	-10137
화는	-10138
회의	-10139
훨씬	-10140
히게	-10141
OST	-10142
ᄍᄍᄍ	-10143
▁sh	-10144
▁거울	-10145
▁거창	-10146
▁검은	-10147
▁계획	-10148
▁고발	-10149
▁공존	-10150
▁구라	-10151
▁김소	-10152
▁김정	-10153
▁꺼내	-10154
▁날라	-10155
▁낮음	-10156
▁노예	-10157
▁놈들	-10158
▁높이	-10159
▁눈과	-10160
▁다리	-10161
▁당최	-10162
▁동료	-10163
▁될수	-10164
▁두명	-10165
▁로보	-10166
▁마초	-10167
▁말만	-10168
▁말에	-10169
▁맛깔	-10170
▁맞춘	-10171
▁몇개	-10172
▁무얼	-10173
▁묻혀	-10174
▁믿어	-10175
▁변신	-10176
▁부조	-10177
▁불친	-10178
▁빅뱅	-10179
▁빛이	-10180
▁빼앗	-10181
▁뿐만	-10182
▁사토	-10183
▁생기	-10184
▁섭외	-10185
▁스무	-10186
▁스콧	-10187
▁아아	-10188
▁악플	-10189
▁약한	-10190
▁엉엉	-10191
▁예매	-10192
▁예의	-10193
▁울게	-10194
▁울어	-10195
▁웃길	-10196
▁이라	-10197
▁이재	-10198
▁잃고	-10199
▁저기	-10200
▁저렴	-10201
▁저리	-10202
▁정재	-10203
▁종영	-10204
▁증거	-10205
▁차분	-10206
▁창조	-10207
▁총을	-10208
▁충무	-10209
▁토니	-10210
▁패턴	-10211
▁하냐	-10212
▁한테	-10213
▁향해	-10214
▁호소	-10215
가는데	-10216
가슴이	-10217
같은거	-10218
기라도	-10219
놈들은	-10220
놈들이	-10221
느와르	-10222
랬는데	-10223
로서는	-10224
만큼의	-10225
모르는	-10226
별로다	-10227
봤더니	-10228
분위기	-10229
수준이	-10230
영화네	-10231
오르는	-10232
위원회	-10233
이쁘고	-10234
인으로	-10235
하구나	-10236
하느라	-10237
하려면	-10238
해놓고	-10239
했어도	-10240
▁KBS	-10241
▁각자의	-10242
▁강아지	-10243
▁겁니다	-10244
▁괜찮아	-10245
▁구역질	-10246
▁깜짝놀	-10247
▁남긴다	-10248
▁남았다	-10249
▁남주가	-10250
▁느리고	-10251
▁더빙은	-10252
▁던지는	-10253
▁됐는데	-10254
▁리뷰를	-10255
▁만점을	-10256
▁많네요	-10257
▁많았던	-10258
▁묘하게	-10259
▁무서웠	-10260
▁별로인	-10261
▁봤었다	-10262
▁비정상	-10263
▁사라져	-10264
▁생각한	-10265
▁성룡이	-10266
▁세상은	-10267
▁속아서	-10268
▁수작이	-10269
▁슬래셔	-10270
▁시절의	-10271
▁신나게	-10272
▁아니죠	-10273
▁아프고	-10274
▁않는데	-10275
▁어찌나	-10276
▁열정이	-10277
▁영화판	-10278
▁오타쿠	-10279
▁와닿는	-10280
▁왜이런	-10281
▁웃어야	-10282
▁유머가	-10283
▁이거는	-10284
▁이건좀	-10285
▁이번엔	-10286
▁이상도	-10287
▁인물이	-10288
▁있는게	-10289
▁자세히	-10290
▁잘하네	-10291
▁잘해서	-10292
▁장나라	-10293
▁장면의	-10294
▁재평가	-10295
▁저급한	-10296
▁적절히	-10297
▁전성기	-10298
▁전작에	-10299
▁졸면서	-10300
▁지금껏	-10301
▁지나서	-10302
▁채플린	-10303
▁처음임	-10304
▁철학적	-10305
▁케이트	-10306
▁클라라	-10307
▁하려고	-10308
▁한국어	-10309
감동적인	-10310
말이필요	-10311
봤었는데	-10312
수가없다	-10313
이라고는	-10314
하시네요	-10315
▁2010	-10316
▁관람불가	-10317
▁그들만의	-10318
▁극장판은	-10319
▁기분좋게	-10320
▁나왔는데	-10321
▁내용으로	-10322
▁두근두근	-10323
▁만드네요	-10324
▁매력있는	-10325
▁멋있어요	-10326
▁메세지는	-10327
▁모든것을	-10328
▁몽환적인	-10329
▁묻어나는	-10330
▁미치도록	-10331
▁보다보다	-10332
▁볼만했음	-10333
▁뻔하지만	-10334
▁상영관이	-10335
▁생각하며	-10336
▁수준이하	-10337
▁심심해서	-10338
▁아까웠던	-10339
▁안타깝고	-10340
▁않았을까	-10341
▁알수없는	-10342
▁억지설정	-10343
▁없다는게	-10344
▁엉성하다	-10345
▁에일리언	-10346
▁영상으로	-10347
▁영화관에	-10348
▁이건진짜	-10349
▁인터스텔	-10350
▁있었다니	-10351
▁작위적인	-10352
▁재밌기만	-10353
▁표현했다	-10354
▁현실이다	-10355
▁혹성탈출	-10356
감사합니다	-10357
▁감정이입이	-10358
▁네이버평점	-10359
▁느낌이랄까	-10360
▁아침드라마	-10361
▁우리나라는	-10362
▁잘만들어진	-10363
▁재밌게봤다	-10364
▁ᄏᄏᄏᄏᄏᄏᄏᄏᄏᄏ	-10365
ᄏᄏᄏᄏᄏᄏᄏᄏᄏᄏᄏᄏ	-10366
ap	-10367
if	-10368
▁뜯	-10369
▁맺	-10370
▁쉐	-10371
▁혀	-10372
가치	-10373
게이	-10374
괜히	-10375
기업	-10376
꺼라	-10377
넣은	-10378
높다	-10379
님과	-10380
데터	-10381
독립	-10382
동네	-10383
되네	-10384
디젤	-10385
따름	-10386
란이	-10387
맞음	-10388
모가	-10389
모니	-10390
반복	-10391
방법	-10392
방의	-10393
보비	-10394
보잡	-10395
봣음	-10396
분만	-10397
분명	-10398
브라	-10399
선의	-10400
센트	-10401
소나	-10402
슈퍼	-10403
심은	-10404
씨와	-10405
야야	-10406
어난	-10407
연한	-10408
엿음	-10409
올때	-10410
용도	-10411
유혼	-10412
은혜	-10413
음의	-10414
이쁨	-10415
인권	-10416
인상	-10417
인척	-10418
점줄	-10419
존재	-10420
주를	-10421
지식	-10422
짜는	-10423
치네	-10424
칼렛	-10425
키스	-10426
타클	-10427
피는	-10428
피를	-10429
해짐	-10430
해피	-10431
ill	-10432
▁//	-10433
▁23	-10434
▁24	-10435
▁me	-10436
▁so	-10437
▁가시	-10438
▁가자	-10439
▁개독	-10440
▁개발	-10441
▁결합	-10442
▁과잉	-10443
▁끝냈	-10444
▁난국	-10445
▁남매	-10446
▁내겐	-10447
▁느린	-10448
▁대비	-10449
▁대책	-10450
▁데미	-10451
▁둘의	-10452
▁로렌	-10453
▁마마	-10454
▁맛에	-10455
▁멤버	-10456
▁무기	-10457
▁뭔데	-10458
▁미개	-10459
▁버금	-10460
▁버리	-10461
▁보나	-10462
▁봐주	-10463
▁사전	-10464
▁샤를	-10465
▁쏠쏠	-10466
▁아가	-10467
▁안젤	-10468
▁연장	-10469
▁오오	-10470
▁오토	-10471
▁유부	-10472
▁이선	-10473
▁저녁	-10474
▁조여	-10475
▁지니	-10476
▁지어	-10477
▁직장	-10478
▁진솔	-10479
▁찢어	-10480
▁차지	-10481
▁천사	-10482
▁첨에	-10483
▁최저	-10484
▁치열	-10485
▁한수	-10486
▁했을	-10487
▁환불	-10488
▁후한	-10489
▁훈남	-10490
▁흑흑	-10491
가능한	-10492
곱니다	-10493
낮아서	-10494
렸어요	-10495
만드네	-10496
만들고	-10497
묘하게	-10498
보느니	-10499
보다니	-10500
액션은	-10501
었을때	-10502
연기에	-10503
였다고	-10504
왔어요	-10505
이건뭐	-10506
이라곤	-10507
점준거	-10508
졌네요	-10509
주는게	-10510
하겠지	-10511
..,,	-10512
..??	-10513
▁500	-10514
▁가르쳐	-10515
▁가볍고	-10516
▁것인지	-10517
▁계기가	-10518
▁과도한	-10519
▁기분만	-10520
▁나오게	-10521
▁남자와	-10522
▁놈들은	-10523
▁눈물흘	-10524
▁다른거	-10525
▁담아낸	-10526
▁대박이	-10527
▁대표작	-10528
▁또보고	-10529
▁러브라	-10530
▁런닝맨	-10531
▁마누라	-10532
▁마케팅	-10533
▁만나고	-10534
▁만나서	-10535
▁만드나	-10536
▁말아라	-10537
▁말이지	-10538
▁맙시다	-10539
▁모습과	-10540
▁못보고	-10541
▁못생긴	-10542
▁미국이	-10543
▁미소를	-10544
▁미안해	-10545
▁배급사	-10546
▁보기전	-10547
▁보는줄	-10548
▁봤었던	-10549
▁분노가	-10550
▁불쌍해	-10551
▁비교해	-10552
▁사다코	-10553
▁사회에	-10554
▁생각에	-10555
▁서로를	-10556
▁소리지	-10557
▁스칼렛	-10558
▁스텝업	-10559
▁슬퍼서	-10560
▁시작은	-10561
▁식으로	-10562
▁쌩뚱맞	-10563
▁아이의	-10564
▁않았나	-10565
▁어딘가	-10566
▁어설픔	-10567
▁어울리	-10568
▁없을까	-10569
▁여주의	-10570
▁연출의	-10571
▁영화평	-10572
▁예상치	-10573
▁와닿지	-10574
▁웃기네	-10575
▁웃기지	-10576
▁웬만한	-10577
▁위하여	-10578
▁위험한	-10579
▁음악에	-10580
▁이름값	-10581
▁이연희	-10582
▁잔혹한	-10583
▁잘나가	-10584
▁장르는	-10585
▁저것도	-10586
▁제작된	-10587
▁지겨워	-10588
▁찝찝한	-10589
▁첨이네	-10590
▁최초로	-10591
▁친구들	-10592
▁편집이	-10593
▁한계가	-10594
▁한없이	-10595
▁해놓고	-10596
▁화면이	-10597
▁환타지	-10598
라는건지	-10599
볼수있는	-10600
스럽지만	-10601
우면서도	-10602
재미없고	-10603
적이지도	-10604
점입니다	-10605
최고최고	-10606
▁2001	-10607
▁거부감이	-10608
▁군대에서	-10609
▁그래픽이	-10610
▁깔끔하게	-10611
▁나발이고	-10612
▁나오는지	-10613
▁남자들이	-10614
▁너무재밌	-10615
▁따뜻하게	-10616
▁러브라인	-10617
▁만들어준	-10618
▁메세지도	-10619
▁무서웠다	-10620
▁무척이나	-10621
▁별반개도	-10622
▁보면서도	-10623
▁봐야겠다	-10624
▁분위기와	-10625
▁사람으로	-10626
▁사무라이	-10627
▁사이에서	-10628
▁스릴있고	-10629
▁실화라니	-10630
▁아니겠지	-10631
▁여자들의	-10632
▁역사왜곡	-10633
▁영화로서	-10634
▁옛날영화	-10635
▁울었네요	-10636
▁이해하고	-10637
▁인간들이	-10638
▁있다는게	-10639
▁작품성은	-10640
▁재밌지도	-10641
▁적당하다	-10642
▁존재하는	-10643
▁좋아지는	-10644
▁팬이라면	-10645
▁포스터는	-10646
▁하는건지	-10647
▁헛웃음만	-10648
▁공포영화를	-10649
▁러브스토리	-10650
▁실망스럽다	-10651
▁엑소시스트	-10652
▁응원합니다	-10653
▁지루하지만	-10654
▁크리스토퍼	-10655
▁한국영화가	-10656
▁재미없습니다	-10657
▁지루하지않고	-10658
▁감동적이었습니다	-10659
..............	-10660
0-	-10661
?'	-10662
hh	-10663
ld	-10664
~8	-10665
▁꽁	-10666
▁솜	-10667
▁쯤	-10668
▁퓨	-10669
▁횡	-10670
가수	-10671
걸이	-10672
교훈	-10673
구조	-10674
그린	-10675
근한	-10676
끌고	-10677
나를	-10678
낮지	-10679
너스	-10680
네용	-10681
네유	-10682
는뎅	-10683
도에	-10684
되길	-10685
등록	-10686
디로	-10687
때메	-10688
려라	-10689
로봇	-10690
마른	-10691
마치	-10692
명도	-10693
문이	-10694
바탕	-10695
베리	-10696
보일	-10697
부르	-10698
비교	-10699
비를	-10700
빼면	-10701
뻔함	-10702
셉션	-10703
속이	-10704
수님	-10705
스라	-10706
스토	-10707
슬픈	-10708
시티	-10709
연은	-10710
운이	-10711
으으	-10712
인드	-10713
작을	-10714
장님	-10715
죽고	-10716
준이	-10717
차원	-10718
코가	-10719
태웅	-10720
하곤	-10721
하듯	-10722
한심	-10723
홀로	-10724
힌다	-10725
all	-10726
ery	-10727
▁+1	-10728
▁3,	-10729
▁st	-10730
▁강제	-10731
▁강혜	-10732
▁건강	-10733
▁걸린	-10734
▁김동	-10735
▁김성	-10736
▁꿈이	-10737
▁나왓	-10738
▁날로	-10739
▁내는	-10740
▁너네	-10741
▁너는	-10742
▁넘기	-10743
▁넣은	-10744
▁뇌가	-10745
▁도덕	-10746
▁돌고	-10747
▁드리	-10748
▁라스	-10749
▁레즈	-10750
▁록키	-10751
▁맞게	-10752
▁머지	-10753
▁메가	-10754
▁못했	-10755
▁박지	-10756
▁벌어	-10757
▁볼줄	-10758
▁붉은	-10759
▁비유	-10760
▁상투	-10761
▁소림	-10762
▁소방	-10763
▁속의	-10764
▁시기	-10765
▁시스	-10766
▁식의	-10767
▁싫은	-10768
▁심어	-10769
▁씨발	-10770
▁어딨	-10771
▁오만	-10772
▁오싹	-10773
▁욕먹	-10774
▁원맨	-10775
▁이념	-10776
▁자칫	-10777
▁잘만	-10778
▁조인	-10779
▁조직	-10780
▁존중	-10781
▁중세	-10782
▁지들	-10783
▁지지	-10784
▁질투	-10785
▁처참	-10786
▁쳐도	-10787
▁침묵	-10788
▁코엔	-10789
▁픽사	-10790
▁할지	-10791
▁허전	-10792
▁황홀	-10793
▁후기	-10794
▁흐르	-10795
▁흘렀	-10796
가네요	-10797
겟네요	-10798
는지도	-10799
다가도	-10800
되면서	-10801
됬는데	-10802
반전이	-10803
분보고	-10804
사람만	-10805
사랑을	-10806
씬에서	-10807
윌리스	-10808
이것도	-10809
이런거	-10810
적이며	-10811
좋겠다	-10812
지않나	-10813
한거지	-10814
합니까	-10815
해준다	-10816
1010	-10817
▁0.5	-10818
▁거대한	-10819
▁과거의	-10820
▁관객의	-10821
▁구리다	-10822
▁김구라	-10823
▁깊이가	-10824
▁나이에	-10825
▁느꼈던	-10826
▁다니는	-10827
▁다를게	-10828
▁달콤한	-10829
▁레이싱	-10830
▁리암니	-10831
▁마음은	-10832
▁막장의	-10833
▁말해서	-10834
▁몬스터	-10835
▁묵직한	-10836
▁뭡니까	-10837
▁미이라	-10838
▁범죄자	-10839
▁별다른	-10840
▁별볼일	-10841
▁보기도	-10842
▁보자고	-10843
▁봤다고	-10844
▁빨리감	-10845
▁살인을	-10846
▁상황에	-10847
▁섹시한	-10848
▁슬프게	-10849
▁슬픔이	-10850
▁시간의	-10851
▁신현준	-10852
▁심각한	-10853
▁심심한	-10854
▁씁쓸한	-10855
▁아시아	-10856
▁안난다	-10857
▁안든다	-10858
▁안에서	-10859
▁액션신	-10860
▁어려울	-10861
▁영화죠	-10862
▁왜만들	-10863
▁우리네	-10864
▁웃겨요	-10865
▁의미는	-10866
▁이들이	-10867
▁이리도	-10868
▁인간을	-10869
▁일상을	-10870
▁임청하	-10871
▁잘했다	-10872
▁장면들	-10873
▁정도껏	-10874
▁졸려서	-10875
▁주제로	-10876
▁죽이네	-10877
▁줄리엣	-10878
▁즐거움	-10879
▁지대로	-10880
▁진행이	-10881
▁최고라	-10882
▁충실한	-10883
▁팔아먹	-10884
▁플레이	-10885
▁하나만	-10886
▁한번은	-10887
▁홍금보	-10888
▁황정민	-10889
▁힘든데	-10890
드라마로	-10891
앞으로도	-10892
▁공감되는	-10893
▁그래픽은	-10894
▁나온다는	-10895
▁다운로드	-10896
▁말할것도	-10897
▁명작이라	-10898
▁브래드피	-10899
▁사랑이란	-10900
▁생각나네	-10901
▁생각했다	-10902
▁선동영화	-10903
▁소름돋는	-10904
▁스타일의	-10905
▁시청자를	-10906
▁실망했다	-10907
▁쓰레기들	-10908
▁쓰레기로	-10909
▁아니었음	-10910
▁안하는데	-10911
▁어색하다	-10912
▁이해하지	-10913
▁인간들은	-10914
▁전개되는	-10915
▁좋아하게	-10916
▁촌스러운	-10917
▁촬영기법	-10918
▁출연하는	-10919
▁코미디도	-10920
▁코스프레	-10921
▁해야하나	-10922
▁휴머니즘	-10923
▁개인적으론	-10924
▁객관적으로	-10925
▁느꼈습니다	-10926
▁볼만하네요	-10927
▁시간아까움	-10928
▁시나리오는	-10929
▁싸이코패스	-10930
▁아름다웠던	-10931
▁영화자체가	-10932
▁오그라든다	-10933
▁우리나라에	-10934
▁유치하지만	-10935
▁재미없다는	-10936
▁재밌게봤음	-10937
▁재밌는영화	-10938
▁좋아할만한	-10939
ᄏᄏᄏᄏᄏᄏᄏᄏᄏᄏᄏ	-10940
????????????????	-10941
),	-10942
->	-10943
21	-10944
78	-10945
ul	-10946
un	-10947
▁낼	-10948
▁뺨	-10949
▁쉣	-10950
▁슴	-10951
▁춘	-10952
▁턱	-10953
가기	-10954
가다	-10955
가도	-10956
가루	-10957
근래	-10958
깜짝	-10959
내면	-10960
너의	-10961
눈에	-10962
는디	-10963
대충	-10964
렬한	-10965
론은	-10966
린거	-10967
망이	-10968
머지	-10969
메오	-10970
미와	-10971
밖엔	-10972
사진	-10973
상과	-10974
세지	-10975
슨은	-10976
안함	-10977
야오	-10978
어쩔	-10979
없구	-10980
엇던	-10981
여도	-10982
여름	-10983
용이	-10984
워커	-10985
이것	-10986
이시	-10987
이와	-10988
작정	-10989
제왕	-10990
죽을	-10991
지로	-10992
질만	-10993
책을	-10994
탄이	-10995
테니	-10996
트에	-10997
트와	-10998
하든	-10999
항상	-11000
행을	-11001
회를	-11002
.,.	-11003
ant	-11004
ent	-11005
▁->	-11006
▁각자	-11007
▁갑작	-11008
▁건너	-11009
▁게리	-11010
▁고래	-11011
▁고려	-11012
▁고로	-11013
▁고백	-11014
▁관점	-11015
▁기사	-11016
▁나빠	-11017
▁낳은	-11018
▁노는	-11019
▁놓친	-11020
▁닮은	-11021
▁더한	-11022
▁동일	-11023
▁뛰쳐	-11024
▁마츠	-11025
▁매년	-11026
▁목사	-11027
▁미리	-11028
▁미성	-11029
▁미칠	-11030
▁믿겨	-11031
▁믿음	-11032
▁발생	-11033
▁발휘	-11034
▁보임	-11035
▁부른	-11036
▁부여	-11037
▁비난	-11038
▁뽑아	-11039
▁서극	-11040
▁수애	-11041
▁슈렉	-11042
▁스탤	-11043
▁시민	-11044
▁실컷	-11045
▁씬은	-11046
▁악몽	-11047
▁안됐	-11048
▁안웃	-11049
▁암이	-11050
▁어둠	-11051
▁어의	-11052
▁얼른	-11053
▁에반	-11054
▁여진	-11055
▁영활	-11056
▁외화	-11057
▁유사	-11058
▁잇는	-11059
▁있으	-11060
▁재주	-11061
▁전환	-11062
▁줘서	-11063
▁진보	-11064
▁체험	-11065
▁출신	-11066
▁크고	-11067
▁터져	-11068
▁토요	-11069
▁파악	-11070
▁편이	-11071
▁표본	-11072
▁호텔	-11073
▁흔히	-11074
겁니까	-11075
기분이	-11076
된다는	-11077
드리고	-11078
몰라도	-11079
몰입도	-11080
무서운	-11081
버렸네	-11082
버렸음	-11083
상으로	-11084
아니야	-11085
어디서	-11086
왜이리	-11087
위해서	-11088
이면서	-11089
이상은	-11090
이하도	-11091
작품이	-11092
점수는	-11093
지금도	-11094
치도록	-11095
키드먼	-11096
하나의	-11097
하라고	-11098
할수록	-11099
훌륭한	-11100
,...	-11101
▁CGV	-11102
▁and	-11103
▁kbs	-11104
▁가득찬	-11105
▁같기도	-11106
▁결론이	-11107
▁곳에서	-11108
▁김강우	-11109
▁김태희	-11110
▁김하늘	-11111
▁나이트	-11112
▁나중엔	-11113
▁납니다	-11114
▁냄새가	-11115
▁니들은	-11116
▁다같이	-11117
▁답답함	-11118
▁된다고	-11119
▁때리고	-11120
▁막장이	-11121
▁만큼은	-11122
▁말한다	-11123
▁망쳤다	-11124
▁맞추기	-11125
▁목숨을	-11126
▁몰입을	-11127
▁못된다	-11128
▁못생겼	-11129
▁무료로	-11130
▁뭐하냐	-11131
▁미국판	-11132
▁박평식	-11133
▁반전과	-11134
▁배경은	-11135
▁배우로	-11136
▁보기는	-11137
▁보여서	-11138
▁봤다니	-11139
▁비중이	-11140
▁빵터짐	-11141
▁새롭고	-11142
▁세계를	-11143
▁순간이	-11144
▁신기한	-11145
▁신나는	-11146
▁약간은	-11147
▁언제쯤	-11148
▁영화면	-11149
▁영화좀	-11150
▁예뻐요	-11151
▁와이프	-11152
▁외에는	-11153
▁욕하는	-11154
▁울었음	-11155
▁이동욱	-11156
▁이은주	-11157
▁이해는	-11158
▁인기가	-11159
▁일이다	-11160
▁잘생긴	-11161
▁재밌긴	-11162
▁전도연	-11163
▁주려고	-11164
▁중국의	-11165
▁찌질한	-11166
▁차승원	-11167
▁첨본다	-11168
▁초반의	-11169
▁치밀한	-11170
▁평점좀	-11171
▁한국은	-11172
▁한정된	-11173
▁후덜덜	-11174
▁힘들어	-11175
배우들도	-11176
스토리를	-11177
이라는걸	-11178
이영화를	-11179
재미있는	-11180
하는구나	-11181
하지않은	-11182
▁깨알같은	-11183
▁꺼버렸다	-11184
▁나에게는	-11185
▁누구에게	-11186
▁로드무비	-11187
▁리즈시절	-11188
▁마지막의	-11189
▁만들겠다	-11190
▁만들기도	-11191
▁못미치는	-11192
▁볼거리가	-11193
▁불편하다	-11194
▁불필요한	-11195
▁사랑스런	-11196
▁생각하지	-11197
▁생각해도	-11198
▁생생하게	-11199
▁수준이다	-11200
▁스타일이	-11201
▁시원하게	-11202
▁싶은건지	-11203
▁안쓰는데	-11204
▁알고보니	-11205
▁어떻게든	-11206
▁없었지만	-11207
▁엉망이고	-11208
▁에이리언	-11209
▁오글거려	-11210
▁왠만해선	-11211
▁이걸보고	-11212
▁이야기와	-11213
▁일어나는	-11214
▁있는것도	-11215
▁자극하는	-11216
▁작품성이	-11217
▁작품인데	-11218
▁잔인하게	-11219
▁저평가된	-11220
▁좋아한다	-11221
▁주인공도	-11222
▁파라노말	-11223
▁허무하다	-11224
▁허술하다	-11225
점준것중에	-11226
▁끝날때까지	-11227
▁드라마보다	-11228
▁드라마에요	-11229
▁마지막으로	-11230
▁몰입하면서	-11231
▁미안하지만	-11232
▁소름끼친다	-11233
▁수작입니다	-11234
▁쓰레기라고	-11235
▁없었습니다	-11236
▁영화인데도	-11237
▁잔잔하면서	-11238
▁페이크다큐	-11239
▁우리나라에서	-11240
리의리의리의리의	-11241
ᄏᄏᄏᄏᄏᄏᄏᄏᄏᄏᄏᄏᄏ	-11242
56	-11243
>_	-11244
CN	-11245
XX	-11246
▁겸	-11247
▁눌	-11248
▁랩	-11249
▁잣	-11250
▁져	-11251
▁퉤	-11252
▁팽	-11253
가나	-11254
겁게	-11255
겠군	-11256
고에	-11257
깊게	-11258
는걸	-11259
는것	-11260
니잼	-11261
단다	-11262
되냐	-11263
랑이	-11264
론데	-11265
리온	-11266
마가	-11267
말은	-11268
무가	-11269
뭐가	-11270
밀리	-11271
바보	-11272
별점	-11273
본방	-11274
사냥	-11275
새벽	-11276
선물	-11277
세한	-11278
수다	-11279
수에	-11280
씬도	-11281
아담	-11282
안나	-11283
엉망	-11284
역에	-11285
우우	-11286
워야	-11287
유미	-11288
이이	-11289
이즈	-11290
자신	-11291
제는	-11292
졌고	-11293
주에	-11294
진지	-11295
질에	-11296
초등	-11297
타르	-11298
파괴	-11299
프다	-11300
하가	-11301
할게	-11302
행크	-11303
현재	-11304
훈이	-11305
?""	-11306
ain	-11307
▁my	-11308
▁no	-11309
▁re	-11310
▁가식	-11311
▁감당	-11312
▁고급	-11313
▁고현	-11314
▁교차	-11315
▁구매	-11316
▁귀에	-11317
▁극과	-11318
▁기도	-11319
▁깜찍	-11320
▁날이	-11321
▁넘겨	-11322
▁눈부	-11323
▁대략	-11324
▁대변	-11325
▁대형	-11326
▁돌이	-11327
▁동방	-11328
▁두개	-11329
▁라면	-11330
▁류의	-11331
▁마주	-11332
▁매튜	-11333
▁먼지	-11334
▁모냐	-11335
▁몸에	-11336
▁못볼	-11337
▁문근	-11338
▁미루	-11339
▁미흡	-11340
▁반가	-11341
▁부자	-11342
▁붙여	-11343
▁비틀	-11344
▁사막	-11345
▁상식	-11346
▁색다	-11347
▁서민	-11348
▁순정	-11349
▁신앙	-11350
▁싶게	-11351
▁싶네	-11352
▁쌍욕	-11353
▁쌍팔	-11354
▁아야	-11355
▁안고	-11356
▁안목	-11357
▁애를	-11358
▁여고	-11359
▁여지	-11360
▁오류	-11361
▁오르	-11362
▁완소	-11363
▁왜저	-11364
▁요구	-11365
▁원빈	-11366
▁유오	-11367
▁일방	-11368
▁잘된	-11369
▁적응	-11370
▁전국	-11371
▁제미	-11372
▁제법	-11373
▁조쉬	-11374
▁지존	-11375
▁참다	-11376
▁투표	-11377
▁파트	-11378
▁평은	-11379
▁피어	-11380
▁필수	-11381
▁하얀	-11382
▁한결	-11383
▁한달	-11384
▁한표	-11385
▁할거	-11386
▁해줄	-11387
▁화해	-11388
▁희한	-11389
가족이	-11390
갔으면	-11391
건강에	-11392
걸까요	-11393
국주의	-11394
남자가	-11395
년대의	-11396
마무리	-11397
만큼도	-11398
매니아	-11399
메이징	-11400
밖에는	-11401
배우도	-11402
봅시다	-11403
수밖에	-11404
아닌듯	-11405
아들이	-11406
알바들	-11407
영환데	-11408
오히려	-11409
왔지만	-11410
우주연	-11411
이쁘다	-11412
인트가	-11413
있어야	-11414
재미잇	-11415
점드림	-11416
좋았음	-11417
주고싶	-11418
쪽으로	-11419
크리스	-11420
픕니다	-11421
하시면	-11422
할영화	-11423
해서는	-11424
▁가는줄	-11425
▁각본과	-11426
▁고통을	-11427
▁관계를	-11428
▁그것은	-11429
▁그리운	-11430
▁꺼버림	-11431
▁꼭봐라	-11432
▁나라를	-11433
▁나았다	-11434
▁나한테	-11435
▁나홀로	-11436
▁남편이	-11437
▁놀라울	-11438
▁놈들이	-11439
▁눈물도	-11440
▁눈빛이	-11441
▁느껴짐	-11442
▁단체로	-11443
▁돋보임	-11444
▁돌려줘	-11445
▁듣보잡	-11446
▁모두다	-11447
▁모습도	-11448
▁못하게	-11449
▁뭔가를	-11450
▁배경을	-11451
▁보고서	-11452
▁볼수가	-11453
▁봐야함	-11454
▁봤을땐	-11455
▁비추천	-11456
▁사로잡	-11457
▁생겨서	-11458
▁수준급	-11459
▁신파극	-11460
▁실망한	-11461
▁아닌거	-11462
▁안가고	-11463
▁어느새	-11464
▁어벤져	-11465
▁어지간	-11466
▁어째서	-11467
▁얼굴도	-11468
▁여성의	-11469
▁연기파	-11470
▁연출에	-11471
▁영화고	-11472
▁웃음도	-11473
▁원맨쇼	-11474
▁일본식	-11475
▁잘생김	-11476
▁전쟁이	-11477
▁전편에	-11478
▁졸았다	-11479
▁즐기는	-11480
▁지겨운	-11481
▁추악한	-11482
▁케이지	-11483
▁크루즈	-11484
▁클라스	-11485
▁터무니	-11486
▁파이팅	-11487
▁프레디	-11488
▁하나님	-11489
▁하는것	-11490
▁한예슬	-11491
▁한장면	-11492
▁황비홍	-11493
▁흔적이	-11494
▁흘러도	-11495
기때문에	-11496
다고생각	-11497
만든영화	-11498
만들어도	-11499
보여주는	-11500
영화중에	-11501
임파서블	-11502
재밌는데	-11503
주인공의	-11504
지금까지	-11505
짜증난다	-11506
▁2008	-11507
▁기준으로	-11508
▁드라마임	-11509
▁떠올리게	-11510
▁리얼하게	-11511
▁만드는지	-11512
▁멋있었다	-11513
▁몇번이고	-11514
▁못하지만	-11515
▁무의미한	-11516
▁배우들만	-11517
▁보았지만	-11518
▁분명하다	-11519
▁불편하고	-11520
▁사랑스러	-11521
▁심사위원	-11522
▁아메리칸	-11523
▁아이들을	-11524
▁안봤는데	-11525
▁않았는데	-11526
▁알바들이	-11527
▁액션으로	-11528
▁어울린다	-11529
▁없었다면	-11530
▁영화니까	-11531
▁영화인거	-11532
▁오그라들	-11533
▁잊을수가	-11534
▁잔잔하니	-11535
▁전문성우	-11536
▁졸업작품	-11537
▁진정으로	-11538
▁참신하고	-11539
▁최곱니다	-11540
▁캐릭터에	-11541
▁화가난다	-11542
점드립니다	-11543
좋아하는데	-11544
▁너무좋아요	-11545
▁생각하는데	-11546
▁않았습니다	-11547
▁연기자들의	-11548
▁이스트우드	-11549
▁재미가없다	-11550
▁중간중간에	-11551
▁처음입니다	-11552
▁프랑스영화	-11553
▁말이필요없는	-11554
★☆★☆★☆★☆	-11555
▁ᄏᄏᄏᄏᄏᄏᄏᄏᄏᄏᄏᄏᄏ	-11556
./	-11557
▁닐	-11558
▁덩	-11559
▁밟	-11560
▁왈	-11561
▁텅	-11562
▁핫	-11563
걸린	-11564
게도	-11565
경은	-11566
고를	-11567
고요	-11568
글고	-11569
금지	-11570
기동	-11571
기스	-11572
길이	-11573
끼고	-11574
나지	-11575
날의	-11576
낮다	-11577
대결	-11578
대서	-11579
데기	-11580
동석	-11581
동엽	-11582
때의	-11583
력도	-11584
르다	-11585
림을	-11586
만옥	-11587
망한	-11588
모토	-11589
무라	-11590
물고	-11591
물도	-11592
보나	-11593
볼때	-11594
봤자	-11595
분히	-11596
뿐인	-11597
사기	-11598
생의	-11599
셜록	-11600
순위	-11601
스틸	-11602
써서	-11603
아자	-11604
없냐	-11605
왠지	-11606
우울	-11607
우치	-11608
운의	-11609
이웃	-11610
입견	-11611
입장	-11612
적일	-11613
전기	-11614
전설	-11615
제의	-11616
주로	-11617
즈는	-11618
증에	-11619
찍는	-11620
청춘	-11621
치콕	-11622
코의	-11623
콜릿	-11624
크를	-11625
타이	-11626
피니	-11627
필드	-11628
해여	-11629
헤헤	-11630
훈훈	-11631
-.-	-11632
200	-11633
^^;	-11634
^_^	-11635
▁97	-11636
▁가미	-11637
▁갑갑	-11638
▁거대	-11639
▁건축	-11640
▁경이	-11641
▁고은	-11642
▁고정	-11643
▁금방	-11644
▁김보	-11645
▁껏다	-11646
▁꿈에	-11647
▁나눠	-11648
▁난감	-11649
▁녀석	-11650
▁녹화	-11651
▁다듬	-11652
▁단조	-11653
▁독백	-11654
▁되길	-11655
▁된게	-11656
▁등이	-11657
▁레드	-11658
▁로긴	-11659
▁마사	-11660
▁매회	-11661
▁멜깁	-11662
▁명곡	-11663
▁문학	-11664
▁뭐죠	-11665
▁미달	-11666
▁미사	-11667
▁배틀	-11668
▁보네	-11669
▁보실	-11670
▁사형	-11671
▁살릴	-11672
▁서인	-11673
▁수치	-11674
▁숨이	-11675
▁습작	-11676
▁심은	-11677
▁썩은	-11678
▁아키	-11679
▁악의	-11680
▁애정	-11681
▁야이	-11682
▁양산	-11683
▁어깨	-11684
▁어렷	-11685
▁없구	-11686
▁오마	-11687
▁옹호	-11688
▁유리	-11689
▁의존	-11690
▁이뤄	-11691
▁인한	-11692
▁자제	-11693
▁장쯔	-11694
▁재회	-11695
▁저의	-11696
▁전무	-11697
▁전통	-11698
▁죄를	-11699
▁쫄깃	-11700
▁참혹	-11701
▁창작	-11702
▁추잡	-11703
▁클라	-11704
▁태양	-11705
▁토이	-11706
▁트라	-11707
▁파란	-11708
▁프렌	-11709
▁하차	-11710
▁한건	-11711
▁해보	-11712
▁해적	-11713
▁획을	-11714
▁후진	-11715
▁훈련	-11716
간다는	-11717
감동을	-11718
날로그	-11719
녀유혼	-11720
다니고	-11721
대사가	-11722
더이상	-11723
만드나	-11724
성있는	-11725
야겠다	-11726
없으면	-11727
역으로	-11728
였다니	-11729
영화나	-11730
이없다	-11731
작가가	-11732
잔잔한	-11733
장면만	-11734
죽는줄	-11735
줄알고	-11736
친구가	-11737
하나는	-11738
하던가	-11739
해놓은	-11740
햇지만	-11741
good	-11742
▁각본이	-11743
▁감정의	-11744
▁거리가	-11745
▁것처럼	-11746
▁그녀는	-11747
▁그랬다	-11748
▁극적인	-11749
▁기대해	-11750
▁기억은	-11751
▁긴장을	-11752
▁김명민	-11753
▁끝나지	-11754
▁나라의	-11755
▁나쁘진	-11756
▁노래만	-11757
▁노력한	-11758
▁노무현	-11759
▁달달한	-11760
▁로보캅	-11761
▁만든것	-11762
▁많았다	-11763
▁말하려	-11764
▁말하지	-11765
▁멋있음	-11766
▁몰라서	-11767
▁못보겠	-11768
▁무책임	-11769
▁배우다	-11770
▁보네요	-11771
▁보러갔	-11772
▁복수가	-11773
▁분노의	-11774
▁산드라	-11775
▁성우를	-11776
▁성유리	-11777
▁소년의	-11778
▁시선을	-11779
▁실패한	-11780
▁싸우고	-11781
▁아들과	-11782
▁아쉽긴	-11783
▁알수가	-11784
▁애절한	-11785
▁어떨까	-11786
▁어려서	-11787
▁엄마와	-11788
▁없다면	-11789
▁엔딩곡	-11790
▁영혼을	-11791
▁완벽히	-11792
▁왔어요	-11793
▁외로운	-11794
▁유아용	-11795
▁이게왜	-11796
▁이러니	-11797
▁이뻐요	-11798
▁있는거	-11799
▁잘봤다	-11800
▁장면에	-11801
▁재밋어	-11802
▁조승우	-11803
▁존재가	-11804
▁좋아하	-11805
▁주말에	-11806
▁죽어서	-11807
▁죽을뻔	-11808
▁중딩때	-11809
▁즐겁다	-11810
▁지구를	-11811
▁지저분	-11812
▁지하철	-11813
▁집어넣	-11814
▁짧아서	-11815
▁차가운	-11816
▁초딩이	-11817
▁최선을	-11818
▁출연료	-11819
▁코믹한	-11820
▁펑펑울	-11821
▁피라냐	-11822
▁한국형	-11823
▁한다면	-11824
▁해리슨	-11825
▁했다는	-11826
▁했다면	-11827
▁행동이	-11828
▁후반에	-11829
▁흥해라	-11830
것같아서	-11831
기보다는	-11832
쓰레기다	-11833
이라지만	-11834
이야기가	-11835
인거같다	-11836
할수밖에	-11837
?????	-11838
~!!!!	-11839
ᅲᅲᅲᅲᅲ	-11840
▁그래픽도	-11841
▁끝내준다	-11842
▁남자들의	-11843
▁능가하는	-11844
▁돌아가는	-11845
▁멋지네요	-11846
▁명작인데	-11847
▁무언가가	-11848
▁미국에서	-11849
▁미치겠다	-11850
▁미화하는	-11851
▁보여주지	-11852
▁샤론스톤	-11853
▁솔직하게	-11854
▁스릴러의	-11855
▁신선하다	-11856
▁아니에요	-11857
▁안나와서	-11858
▁안되네요	-11859
▁안봤으면	-11860
▁안봤지만	-11861
▁알면서도	-11862
▁어머니의	-11863
▁였습니다	-11864
▁영화일뿐	-11865
▁외계인이	-11866
▁욕나오는	-11867
▁유치뽕짝	-11868
▁인내심을	-11869
▁있어보이	-11870
▁주연으로	-11871
▁중에서도	-11872
▁캐스팅에	-11873
▁코미디를	-11874
▁크리스틴	-11875
▁했었는데	-11876
▁화끈하게	-11877
▁후반으로	-11878
▁후회하지	-11879
영화중에서	-11880
▁가면갈수록	-11881
▁공포영화의	-11882
▁기대합니다	-11883
▁나왔습니다	-11884
▁내용전개가	-11885
▁대단합니다	-11886
▁로그인하게	-11887
▁마이너스는	-11888
▁만들었네요	-11889
▁못봐주겠다	-11890
▁보면볼수록	-11891
▁스타일리쉬	-11892
▁시나리오와	-11893
▁아니었으면	-11894
▁아름다움을	-11895
▁억지스럽다	-11896
▁여주인공은	-11897
▁영화관가서	-11898
▁인상적이다	-11899
▁자연스럽고	-11900
▁적나라하게	-11901
▁추천해주고	-11902
▁캐릭터들의	-11903
▁평론가들은	-11904
▁할말이없다	-11905
▁행복해지는	-11906
인줄알았는데	-11907
▁ᄏᄏᄏᄏᄏᄏᄏᄏᄏᄏᄏᄏᄏᄏ	-11908
18	-11909
▁)	-11910
▁ᄁ	-11911
▁뽕	-11912
▁였	-11913
▁욱	-11914
▁쬐	-11915
▁츠	-11916
▁퀸	-11917
▁헨	-11918
▁흰	-11919
같지	-11920
개판	-11921
걸고	-11922
공의	-11923
공이	-11924
굳굳	-11925
권을	-11926
그거	-11927
그닥	-11928
끄고	-11929
난이	-11930
남겨	-11931
남편	-11932
놔서	-11933
달러	-11934
대장	-11935
더의	-11936
도전	-11937
둘이	-11938
뒤로	-11939
드벤	-11940
디에	-11941
레드	-11942
려한	-11943
르의	-11944
리라	-11945
리브	-11946
리어	-11947
리자	-11948
리화	-11949
말에	-11950
맥스	-11951
맨이	-11952
멸의	-11953
몸매	-11954
무어	-11955
민서	-11956
반도	-11957
받았	-11958
비판	-11959
비하	-11960
산이	-11961
선가	-11962
스텝	-11963
슬픔	-11964
시노	-11965
시로	-11966
신듯	-11967
안습	-11968
야의	-11969
약간	-11970
오버	-11971
올린	-11972
우와	-11973
을꺼	-11974
이였	-11975
인한	-11976
일도	-11977
일체	-11978
잊혀	-11979
자랑	-11980
전거	-11981
정씨	-11982
져도	-11983
조절	-11984
조한	-11985
중인	-11986
지구	-11987
짓게	-11988
차고	-11989
찾기	-11990
카시	-11991
탄을	-11992
태규	-11993
텔링	-11994
투자	-11995
틀어	-11996
팬더	-11997
풀이	-11998
하트	-11999
행이	-12000
헌터	-12001
호화	-12002
홍콩	-12003
흥행	-12004
ast	-12005
▁각인	-12006
▁간절	-12007
▁갈아	-12008
▁개떡	-12009
▁거침	-12010
▁괜춘	-12011
▁괴롭	-12012
▁구로	-12013
▁구원	-12014
▁그땐	-12015
▁끼어	-12016
▁낫지	-12017
▁낮추	-12018
▁낮춰	-12019
▁넘버	-12020
▁놈이	-12021
▁눈만	-12022
▁뉴스	-12023
▁달아	-12024
▁대리	-12025
▁댄스	-12026
▁데드	-12027
▁동정	-12028
▁동참	-12029
▁동호	-12030
▁되새	-12031
▁들었	-12032
▁디아	-12033
▁땀을	-12034
▁때론	-12035
▁똥폼	-12036
▁뚜렷	-12037
▁롯데	-12038
▁르네	-12039
▁말지	-12040
▁맛을	-12041
▁망쳤	-12042
▁메리	-12043
▁몰래	-12044
▁못지	-12045
▁무거	-12046
▁뭣도	-12047
▁바가	-12048
▁바뀐	-12049
▁박영	-12050
▁발랄	-12051
▁방식	-12052
▁보물	-12053
▁볼꺼	-12054
▁볼껄	-12055
▁봐요	-12056
▁부럽	-12057
▁부인	-12058
▁불꽃	-12059
▁불만	-12060
▁불사	-12061
▁사나	-12062
▁살기	-12063
▁삼국	-12064
▁선수	-12065
▁선전	-12066
▁설렘	-12067
▁세트	-12068
▁승화	-12069
▁시덥	-12070
▁실존	-12071
▁실종	-12072
▁쓰레	-12073
▁아랫	-12074
▁안죽	-12075
▁얄팍	-12076
▁어줍	-12077
▁에어	-12078
▁역을	-12079
▁역활	-12080
▁오다	-12081
▁온다	-12082
▁왜냐	-12083
▁운운	-12084
▁으아	-12085
▁이룬	-12086
▁이주	-12087
▁인식	-12088
▁자라	-12089
▁자존	-12090
▁잠든	-12091
▁정답	-12092
▁졸려	-12093
▁좌파	-12094
▁주면	-12095
▁줄은	-12096
▁청년	-12097
▁치명	-12098
▁타짜	-12099
▁탐욕	-12100
▁터짐	-12101
▁파리	-12102
▁하필	-12103
▁함정	-12104
▁했네	-12105
▁현빈	-12106
▁호감	-12107
▁혹평	-12108
▁활약	-12109
▁후유	-12110
▁흔해	-12111
것같고	-12112
나오면	-12113
남는다	-12114
남자의	-12115
났어요	-12116
년이나	-12117
년이지	-12118
되어야	-12119
라는거	-12120
라는데	-12121
뮤지컬	-12122
버려서	-12123
보지말	-12124
소재로	-12125
슬프고	-12126
십시오	-12127
아무튼	-12128
안되게	-12129
없는게	-12130
없었던	-12131
에게서	-12132
위에서	-12133
인데요	-12134
일까요	-12135
잘하고	-12136
점이면	-12137
점이지	-12138
점인데	-12139
졌는데	-12140
죽이는	-12141
줬는데	-12142
지는데	-12143
터지는	-12144
테이크	-12145
프랑스	-12146
해줘서	-12147
-_-;	-12148
~♥~♥	-12149
▁140	-12150
▁OCN	-12151
▁가네요	-12152
▁가만히	-12153
▁가슴찡	-12154
▁감독아	-12155
▁강호동	-12156
▁교훈이	-12157
▁그리스	-12158
▁극장서	-12159
▁급전개	-12160
▁나와라	-12161
▁납득이	-12162
▁내면의	-12163
▁다녀온	-12164
▁단언컨	-12165
▁당신을	-12166
▁당하고	-12167
▁당하는	-12168
▁대사들	-12169
▁더빙도	-12170
▁데려다	-12171
▁돈아깝	-12172
▁뒤집어	-12173
▁따라한	-12174
▁리얼한	-12175
▁몇년이	-12176
▁못하나	-12177
▁민망한	-12178
▁바보가	-12179
▁배우고	-12180
▁본인이	-12181
▁부끄럽	-12182
▁브레이	-12183
▁빡쳐서	-12184
▁사건을	-12185
▁사건의	-12186
▁사실에	-12187
▁사회를	-12188
▁서부극	-12189
▁서서히	-12190
▁소리를	-12191
▁속편이	-12192
▁스마트	-12193
▁시시한	-12194
▁신들린	-12195
▁신선함	-12196
▁아들의	-12197
▁아쉬워	-12198
▁아쉽네	-12199
▁아오이	-12200
▁아이도	-12201
▁안되요	-12202
▁안맞고	-12203
▁안성기	-12204
▁알아서	-12205
▁암울한	-12206
▁애니로	-12207
▁양조위	-12208
▁엄태웅	-12209
▁없더라	-12210
▁에로틱	-12211
▁역사의	-12212
▁연기나	-12213
▁연출로	-12214
▁연출한	-12215
▁영구와	-12216
▁영상을	-12217
▁요소는	-12218
▁음악의	-12219
▁이러한	-12220
▁이런데	-12221
▁이만큼	-12222
▁이모양	-12223
▁이작품	-12224
▁이후의	-12225
▁잃었다	-12226
▁자체를	-12227
▁잔잔함	-12228
▁장르에	-12229
▁재해석	-12230
▁제정신	-12231
▁조선족	-12232
▁졸작이	-12233
▁좋아라	-12234
▁찍어라	-12235
▁찾았다	-12236
▁천재다	-12237
▁최대한	-12238
▁톰행크	-12239
▁평가가	-12240
▁필요는	-12241
▁하는가	-12242
▁한국에	-12243
▁한사람	-12244
▁합시다	-12245
▁핸드폰	-12246
▁환상의	-12247
▁후에도	-12248
▁흐름을	-12249
▁흥행에	-12250
생각하게	-12251
이드라마	-12252
재미없네	-12253
재미있고	-12254
점이라도	-12255
....?	-12256
naver	-12257
▁Very	-12258
▁감동감동	-12259
▁감동으로	-12260
▁거슬린다	-12261
▁괜찮았고	-12262
▁그나저나	-12263
▁극단적인	-12264
▁기다리고	-12265
▁기분좋은	-12266
▁끊임없이	-12267
▁끝내주는	-12268
▁난해하다	-12269
▁내스타일	-12270
▁내용이나	-12271
▁다가오는	-12272
▁담담하게	-12273
▁떠오른다	-12274
▁만들었던	-12275
▁망한영화	-12276
▁망했는지	-12277
▁멋집니다	-12278
▁모두에게	-12279
▁물론이고	-12280
▁반성해라	-12281
▁반전까지	-12282
▁보기드문	-12283
▁보이네요	-12284
▁볼거리도	-12285
▁분위기의	-12286
▁사실적인	-12287
▁상상력을	-12288
▁스케일도	-12289
▁아날로그	-12290
▁아버지를	-12291
▁알겠으나	-12292
▁어땠을까	-12293
▁연출력도	-12294
▁영화다운	-12295
▁완성도는	-12296
▁용두사미	-12297
▁유쾌하다	-12298
▁이게뭐야	-12299
▁이정도는	-12300
▁인물들이	-12301
▁재밌었어	-12302
▁잼있었다	-12303
▁주옥같은	-12304
▁짱이에요	-12305
▁짱입니다	-12306
▁코미디로	-12307
▁한순간도	-12308
▁허무하고	-12309
▁훌륭했다	-12310
것도아니고	-12311
보고있어요	-12312
최악의영화	-12313
하지마세요	-12314
;;;;;;	-12315
▁개봉했을때	-12316
▁더럽게없다	-12317
▁드라마였다	-12318
▁먹먹해지는	-12319
▁실망스러운	-12320
▁어처구니가	-12321
▁의심스럽다	-12322
▁이런영화에	-12323
▁잔인하지도	-12324
▁재미없었던	-12325
▁최악입니다	-12326
▁무섭지도않고	-12327
▁무슨내용인지	-12328
▁애니메이션은	-12329
~~~~~~~~~~~~~~~~	-12330
.'	-12331
ak	-12332
ee	-12333
um	-12334
~.	-12335
~7	-12336
▁ᅢ	-12337
▁↓	-12338
▁균	-12339
▁윈	-12340
▁쿡	-12341
▁펜	-12342
감각	-12343
겁고	-12344
계상	-12345
구난	-12346
그려	-12347
껴서	-12348
끝도	-12349
끝에	-12350
나잇	-12351
남녀	-12352
년후	-12353
니발	-12354
단의	-12355
단이	-12356
대표	-12357
돈다	-12358
등을	-12359
래야	-12360
래원	-12361
레미	-12362
로선	-12363
로얄	-12364
루니	-12365
르지	-12366
리얼	-12367
만원	-12368
맛에	-12369
메다	-12370
못미	-12371
뭐니	-12372
미남	-12373
미드	-12374
방을	-12375
별한	-12376
복이	-12377
비의	-12378
빠다	-12379
사로	-12380
생겼	-12381
설레	-12382
섹스	-12383
셔요	-12384
소사	-12385
쉽게	-12386
스탈	-12387
심과	-12388
아씨	-12389
아역	-12390
안쓰	-12391
않는	-12392
애기	-12393
야만	-12394
어렵	-12395
에효	-12396
요한	-12397
인표	-12398
일지	-12399
입은	-12400
자이	-12401
졸라	-12402
주니	-12403
주변	-12404
즈를	-12405
집중	-12406
차가	-12407
처리	-12408
천국	-12409
총사	-12410
탄은	-12411
탈리	-12412
편만	-12413
프트	-12414
햇던	-12415
햇음	-12416
현우	-12417
현지	-12418
희를	-12419
.!!	-12420
ome	-12421
ust	-12422
▁1%	-12423
▁1.	-12424
▁2%	-12425
▁MC	-12426
▁vs	-12427
▁가게	-12428
▁각성	-12429
▁건진	-12430
▁걸레	-12431
▁구려	-12432
▁귀가	-12433
▁그딴	-12434
▁글구	-12435
▁기막	-12436
▁꼽을	-12437
▁끄는	-12438
▁나간	-12439
▁남김	-12440
▁네가	-12441
▁닌자	-12442
▁단점	-12443
▁당당	-12444
▁도박	-12445
▁독창	-12446
▁들을	-12447
▁리플	-12448
▁마크	-12449
▁망함	-12450
▁몇일	-12451
▁모델	-12452
▁못된	-12453
▁무덤	-12454
▁미군	-12455
▁밝고	-12456
▁밝은	-12457
▁배운	-12458
▁별이	-12459
▁보장	-12460
▁보호	-12461
▁봤어	-12462
▁비명	-12463
▁빼놓	-12464
▁사춘	-12465
▁성괴	-12466
▁속지	-12467
▁수식	-12468
▁수정	-12469
▁수퍼	-12470
▁스며	-12471
▁스틸	-12472
▁시바	-12473
▁싫음	-12474
▁써도	-12475
▁써라	-12476
▁알리	-12477
▁암살	-12478
▁애썼	-12479
▁어쩐	-12480
▁언급	-12481
▁언어	-12482
▁에니	-12483
▁연계	-12484
▁옥의	-12485
▁외엔	-12486
▁웬만	-12487
▁이슈	-12488
▁이슬	-12489
▁이웃	-12490
▁이질	-12491
▁일드	-12492
▁잃지	-12493
▁자는	-12494
▁정부	-12495
▁좋으	-12496
▁주원	-12497
▁줬다	-12498
▁지속	-12499
▁지식	-12500
▁지원	-12501
▁진주	-12502
▁진화	-12503
▁짠한	-12504
▁짱구	-12505
▁찡한	-12506
▁책도	-12507
▁치우	-12508
▁크리	-12509
▁큰일	-12510
▁택시	-12511
▁트루	-12512
▁포스	-12513
▁피가	-12514
▁한물	-12515
▁해학	-12516
▁허영	-12517
▁회사	-12518
▁히트	-12519
것이지	-12520
것인지	-12521
급이다	-12522
들과는	-12523
랍시고	-12524
로써는	-12525
리우드	-12526
마음을	-12527
배우는	-12528
보이고	-12529
본사람	-12530
비슷한	-12531
시킨다	-12532
았다는	-12533
연기와	-12534
예전에	-12535
올시다	-12536
이란걸	-12537
이상실	-12538
인들은	-12539
일라잇	-12540
일수도	-12541
저렇게	-12542
정도다	-12543
지않을	-12544
척하는	-12545
페이지	-12546
편보고	-12547
하던지	-12548
하진않	-12549
해버린	-12550
했었다	-12551
...2	-12552
////	-12553
ight	-12554
▁120	-12555
▁mbc	-12556
▁감정선	-12557
▁강혜정	-12558
▁같다는	-12559
▁관계가	-12560
▁그때는	-12561
▁그런건	-12562
▁기괴한	-12563
▁끝나네	-12564
▁끝내주	-12565
▁끝으로	-12566
▁나라가	-12567
▁넘치고	-12568
▁높네요	-12569
▁눈뜨고	-12570
▁눈요기	-12571
▁다음에	-12572
▁대하여	-12573
▁더빙을	-12574
▁돌리도	-12575
▁동심을	-12576
▁되는거	-12577
▁된다면	-12578
▁따듯한	-12579
▁때부터	-12580
▁때우기	-12581
▁멋있게	-12582
▁멋있어	-12583
▁모두들	-12584
▁모두를	-12585
▁박신양	-12586
▁방식이	-12587
▁버리는	-12588
▁보지만	-12589
▁봤으니	-12590
▁소녀의	-12591
▁슈스케	-12592
▁스릴은	-12593
▁슬픔을	-12594
▁시스템	-12595
▁신민아	-12596
▁싫어서	-12597
▁심했다	-12598
▁씹노잼	-12599
▁아니란	-12600
▁아들을	-12601
▁아마도	-12602
▁아픔이	-12603
▁알려주	-12604
▁약하고	-12605
▁어리석	-12606
▁엄마는	-12607
▁없구만	-12608
▁엉덩이	-12609
▁여자와	-12610
▁역할이	-12611
▁와이어	-12612
▁완전한	-12613
▁왜이럼	-12614
▁용서가	-12615
▁위로가	-12616
▁음악만	-12617
▁이런것	-12618
▁이전에	-12619
▁일어난	-12620
▁일점도	-12621
▁있었나	-12622
▁작품도	-12623
▁작품들	-12624
▁잔잔히	-12625
▁잠수함	-12626
▁장만옥	-12627
▁전설이	-12628
▁정치적	-12629
▁조아요	-12630
▁조재현	-12631
▁좋아함	-12632
▁좋았어	-12633
▁죽음의	-12634
▁차원이	-12635
▁철없는	-12636
▁촌스럽	-12637
▁최고지	-12638
▁최민수	-12639
▁친구를	-12640
▁캐서린	-12641
▁폴워커	-12642
▁표현을	-12643
▁하나를	-12644
▁하니까	-12645
▁행복해	-12646
▁확실한	-12647
▁후회할	-12648
★★★★	-12649
그레이드	-12650
봣습니다	-12651
사람들의	-12652
영화이다	-12653
이라는거	-12654
이었다는	-12655
재밌네요	-12656
좋아해서	-12657
지않았다	-12658
하자마자	-12659
▁1000	-12660
▁개봉하는	-12661
▁개봉하지	-12662
▁계속해서	-12663
▁고마워요	-12664
▁괜찮던데	-12665
▁기분이다	-12666
▁기억하는	-12667
▁깨달았다	-12668
▁맥라이언	-12669
▁몇안되는	-12670
▁몰입감이	-12671
▁몰입도는	-12672
▁무서운거	-12673
▁무섭다고	-12674
▁밋밋하고	-12675
▁배우들로	-12676
▁보다보면	-12677
▁보여줬다	-12678
▁비슷하게	-12679
▁비현실적	-12680
▁사랑하게	-12681
▁생각지도	-12682
▁숨막히는	-12683
▁스펙타클	-12684
▁신기하다	-12685
▁실화라고	-12686
▁실화라는	-12687
▁심심할때	-12688
▁아무래도	-12689
▁아쉬웠다	-12690
▁아이리스	-12691
▁안된다는	-12692
▁어메이징	-12693
▁어중간한	-12694
▁억지스럽	-12695
▁엑스트라	-12696
▁연기력을	-12697
▁영화에선	-12698
▁영화처럼	-12699
▁와닿는다	-12700
▁완성도를	-12701
▁원작보다	-12702
▁이름으로	-12703
▁이미지가	-12704
▁일본애니	-12705
▁있었어요	-12706
▁작품으로	-12707
▁좋아하면	-12708
▁지루해요	-12709
▁촌스럽고	-12710
▁최고였음	-12711
▁틀림없다	-12712
▁팬이라서	-12713
▁풋풋하고	-12714
▁프레데터	-12715
▁하기에는	-12716
감동적이고	-12717
보고있는데	-12718
이런영화가	-12719
▁강추입니다	-12720
▁니콜키드먼	-12721
▁다르겠지만	-12722
▁대단하네요	-12723
▁대박입니다	-12724
▁대한민국의	-12725
▁만들었는데	-12726
▁모르겠어요	-12727
▁스크린으로	-12728
▁여자친구랑	-12729
▁영화이지만	-12730
▁오랜만이다	-12731
▁이영화에서	-12732
▁재미있던데	-12733
▁정신건강에	-12734
▁좋아합니다	-12735
▁좋아했는데	-12736
▁지루하네요	-12737
▁지루하다고	-12738
▁지루하지도	-12739
▁초등학생때	-12740
▁캐릭터들도	-12741
▁브루스윌리스	-12742
▁영화보는내내	-12743
▁행복했습니다	-12744
▁흥미진진하고	-12745
,.,.,.,.	-12746
▁감동적이었어요	-12747
...............	-12748
ir	-12749
lt	-12750
us	-12751
ᄅᄀ	-12752
▁닉	-12753
▁롭	-12754
▁믹	-12755
▁밸	-12756
▁삭	-12757
▁쟁	-12758
▁킥	-12759
갖고	-12760
같애	-12761
겟지	-12762
경의	-12763
관리	-12764
괴물	-12765
구로	-12766
그지	-12767
금이	-12768
낄낄	-12769
년들	-12770
년은	-12771
느님	-12772
다를	-12773
단순	-12774
대본	-12775
대작	-12776
동물	-12777
됬다	-12778
두개	-12779
따윈	-12780
락이	-12781
레쉬	-12782
렸어	-12783
령이	-12784
로게	-12785
류가	-12786
르르	-12787
린지	-12788
릴라	-12789
마에	-12790
마의	-12791
만나	-12792
만함	-12793
맞아	-12794
맨날	-12795
모루	-12796
물어	-12797
바뀌	-12798
방에	-12799
병이	-12800
분장	-12801
빠이	-12802
설명	-12803
순례	-12804
스오	-12805
스파	-12806
시장	-12807
씁쓸	-12808
아픈	-12809
알게	-12810
알려	-12811
애를	-12812
엔틴	-12813
외국	-12814
운동	-12815
웃겼	-12816
의사	-12817
이드	-12818
인칭	-12819
자유	-12820
적도	-12821
점임	-12822
젝트	-12823
조의	-12824
죽음	-12825
진씨	-12826
짝퉁	-12827
쩌네	-12828
쩌는	-12829
착한	-12830
키의	-12831
탄탄	-12832
평범	-12833
포로	-12834
1,2	-12835
▁bb	-12836
▁ᄀᄀ	-12837
▁ᅮᅲ	-12838
▁가위	-12839
▁강시	-12840
▁강철	-12841
▁거리	-12842
▁걸어	-12843
▁고수	-12844
▁과한	-12845
▁광팬	-12846
▁광해	-12847
▁괴작	-12848
▁극을	-12849
▁극의	-12850
▁근육	-12851
▁금지	-12852
▁꾸준	-12853
▁나갈	-12854
▁낚임	-12855
▁남음	-12856
▁낯선	-12857
▁농락	-12858
▁높냐	-12859
▁느꼇	-12860
▁늙어	-12861
▁되었	-12862
▁될까	-12863
▁둘러	-12864
▁드립	-12865
▁들려	-12866
▁떠난	-12867
▁맞은	-12868
▁맞음	-12869
▁먹을	-12870
▁메인	-12871
▁명예	-12872
▁목표	-12873
▁무려	-12874
▁무성	-12875
▁박한	-12876
▁반짝	-12877
▁발톱	-12878
▁밥먹	-12879
▁버티	-12880
▁법칙	-12881
▁베낀	-12882
▁별을	-12883
▁복제	-12884
▁본후	-12885
▁볼걸	-12886
▁볼땐	-12887
▁분석	-12888
▁비비	-12889
▁빌리	-12890
▁생겨	-12891
▁서정	-12892
▁선교	-12893
▁선배	-12894
▁성숙	-12895
▁소문	-12896
▁소외	-12897
▁속상	-12898
▁스탈	-12899
▁스톤	-12900
▁스파	-12901
▁신뢰	-12902
▁신부	-12903
▁썩어	-12904
▁씬이	-12905
▁아웃	-12906
▁아일	-12907
▁악평	-12908
▁안의	-12909
▁안질	-12910
▁압축	-12911
▁약해	-12912
▁어서	-12913
▁언론	-12914
▁옹박	-12915
▁왕따	-12916
▁원망	-12917
▁원초	-12918
▁윌스	-12919
▁유역	-12920
▁이길	-12921
▁이문	-12922
▁인공	-12923
▁있죠	-12924
▁자격	-12925
▁잘난	-12926
▁잘한	-12927
▁장치	-12928
▁전성	-12929
▁절라	-12930
▁정점	-12931
▁제한	-12932
▁조디	-12933
▁조명	-12934
▁조커	-12935
▁주체	-12936
▁지도	-12937
▁지우	-12938
▁질문	-12939
▁초라	-12940
▁총질	-12941
▁칼로	-12942
▁통찰	-12943
▁파멸	-12944
▁팬티	-12945
▁평정	-12946
▁플래	-12947
▁필모	-12948
▁한때	-12949
▁헐크	-12950
▁훼손	-12951
거리며	-12952
게스트	-12953
결말도	-12954
그렇지	-12955
났는데	-12956
놈들아	-12957
던영화	-12958
때까지	-12959
로버츠	-12960
만들지	-12961
맙소사	-12962
명이서	-12963
바이벌	-12964
밖에안	-12965
보았다	-12966
분들도	-12967
소재를	-12968
스파이	-12969
액션도	-12970
없다는	-12971
엇지만	-12972
에비해	-12973
여년전	-12974
영상미	-12975
영화만	-12976
요소가	-12977
우리가	-12978
으라면	-12979
읍니다	-12980
이기도	-12981
이어서	-12982
자들을	-12983
자마자	-12984
작가의	-12985
정도가	-12986
지는게	-12987
지못한	-12988
질않나	-12989
출연진	-12990
카메라	-12991
테스크	-12992
편보단	-12993
하네여	-12994
*^^*	-12995
..10	-12996
▁것으로	-12997
▁공감은	-12998
▁괜찮을	-12999
▁괴물이	-13000
▁구하기	-13001
▁그녀가	-13002
▁그래두	-13003
▁그러면	-13004
▁그러지	-13005
▁그림이	-13006
▁기타노	-13007
▁끔찍한	-13008
▁끝났다	-13009
▁나오길	-13010
▁나오니	-13011
▁나왔을	-13012
▁남아돌	-13013
▁남자들	-13014
▁내보내	-13015
▁노래와	-13016
▁노출이	-13017
▁뇌리에	-13018
▁누구냐	-13019
▁느끼지	-13020
▁당시의	-13021
▁따라서	-13022
▁라디오	-13023
▁로멘틱	-13024
▁로버츠	-13025
▁마음속	-13026
▁말이야	-13027
▁말이죠	-13028
▁망치는	-13029
▁모니터	-13030
▁못되는	-13031
▁무삭제	-13032
▁미국에	-13033
▁미쳤다	-13034
▁바라며	-13035
▁바보로	-13036
▁보니깐	-13037
▁본질을	-13038
▁불쌍함	-13039
▁빈디젤	-13040
▁뿐이고	-13041
▁선입견	-13042
▁설레는	-13043
▁속편은	-13044
▁수작임	-13045
▁스릴감	-13046
▁싶다는	-13047
▁안나와	-13048
▁안드로	-13049
▁앞뒤가	-13050
▁어느것	-13051
▁어드벤	-13052
▁어떨지	-13053
▁어쩌고	-13054
▁얼굴만	-13055
▁없을듯	-13056
▁없잖아	-13057
▁여실히	-13058
▁여주는	-13059
▁역부족	-13060
▁연결이	-13061
▁영상물	-13062
▁예술을	-13063
▁예전의	-13064
▁오드리	-13065
▁욕하고	-13066
▁운명을	-13067
▁웃기긴	-13068
▁이건머	-13069
▁이나영	-13070
▁이라고	-13071
▁이민기	-13072
▁이범수	-13073
▁이성재	-13074
▁이종석	-13075
▁익숙한	-13076
▁인내심	-13077
▁인셉션	-13078
▁인피니	-13079
▁일본판	-13080
▁잘모르	-13081
▁장난해	-13082
▁재미난	-13083
▁제목도	-13084
▁좀비물	-13085
▁좋다는	-13086
▁좋은거	-13087
▁주변에	-13088
▁중구난	-13089
▁중반부	-13090
▁지브리	-13091
▁지상파	-13092
▁처절한	-13093
▁철저히	-13094
▁초반은	-13095
▁초콜릿	-13096
▁최고작	-13097
▁최민식	-13098
▁최진실	-13099
▁출연자	-13100
▁카타르	-13101
▁특히나	-13102
▁평소에	-13103
▁평점만	-13104
▁하늘을	-13105
▁하시는	-13106
▁한국이	-13107
▁허무함	-13108
▁허접함	-13109
▁화난다	-13110
▁후속편	-13111
▁흔하디	-13112
▁흥미가	-13113
나오는거	-13114
나왔으면	-13115
났습니다	-13116
아닌가요	-13117
아무것도	-13118
영화라니	-13119
점이라니	-13120
처음부터	-13121
하더군요	-13122
▁가족끼리	-13123
▁감독님이	-13124
▁감성적인	-13125
▁개연성은	-13126
▁관대하다	-13127
▁괜찮지만	-13128
▁기억하고	-13129
▁나오면서	-13130
▁너무하다	-13131
▁다가온다	-13132
▁담겨있는	-13133
▁대작이다	-13134
▁돋보였던	-13135
▁돌아가고	-13136
▁디테일한	-13137
▁따뜻하다	-13138
▁로맨스를	-13139
▁메시지는	-13140
▁못했지만	-13141
▁반전영화	-13142
▁벌어지는	-13143
▁별하나도	-13144
▁보는듯한	-13145
▁생각해요	-13146
▁선생님이	-13147
▁손꼽히는	-13148
▁시간여행	-13149
▁시리즈로	-13150
▁식상하고	-13151
▁신비로운	-13152
▁싶어지는	-13153
▁쌍팔년도	-13154
▁쓰레기도	-13155
▁아이들도	-13156
▁안타까울	-13157
▁알수있는	-13158
▁액션씬이	-13159
▁어디선가	-13160
▁어릴적에	-13161
▁어벤져스	-13162
▁어이없네	-13163
▁여자들은	-13164
▁영화까지	-13165
▁영화들을	-13166
▁영화보면	-13167
▁오래오래	-13168
▁으리으리	-13169
▁이야기로	-13170
▁인상깊은	-13171
▁재밌게봄	-13172
▁재밌겠다	-13173
▁전하고자	-13174
▁조잡하고	-13175
▁주인공과	-13176
▁줄거리는	-13177
▁천녀유혼	-13178
▁판타지를	-13179
▁필요할까	-13180
▁하루종일	-13181
▁현실성도	-13182
뻔한스토리	-13183
영화보면서	-13184
▁괜찮았어요	-13185
▁그렇다치고	-13186
▁기대하면서	-13187
▁내용이지만	-13188
▁뒤로갈수록	-13189
▁드라마에서	-13190
▁모르겠으나	-13191
▁볼만하던데	-13192
▁사람으로서	-13193
▁스토리라인	-13194
▁억지스러움	-13195
▁인상깊었다	-13196
▁작품이라고	-13197
▁재미없던데	-13198
▁지루합니다	-13199
▁최악이었다	-13200
▁해피엔딩이	-13201
▁감사드립니다	-13202
▁애니메이션을	-13203
▁최고의드라마	-13204
EC	-13205
_=	-13206
ww	-13207
▁ᅡ	-13208
▁귓	-13209
▁랭	-13210
▁밧	-13211
▁뷰	-13212
▁샀	-13213
▁숫	-13214
▁좁	-13215
▁챔	-13216
▁펄	-13217
가끔	-13218
개월	-13219
검색	-13220
겟음	-13221
계에	-13222
고어	-13223
관에	-13224
기리	-13225
끝이	-13226
나나	-13227
낮게	-13228
년생	-13229
노무	-13230
노키	-13231
느낀	-13232
다메	-13233
단지	-13234
대신	-13235
더블	-13236
도못	-13237
동일	-13238
된게	-13239
러리	-13240
력과	-13241
로가	-13242
론을	-13243
리던	-13244
린데	-13245
먼이	-13246
면도	-13247
모자	-13248
무협	-13249
민을	-13250
받지	-13251
밤에	-13252
버렷	-13253
보냐	-13254
본듯	-13255
볼타	-13256
부대	-13257
분열	-13258
브로	-13259
비한	-13260
사상	-13261
살짝	-13262
상관	-13263
상식	-13264
세트	-13265
소니	-13266
수한	-13267
슬링	-13268
시윤	-13269
시즘	-13270
신경	-13271
신과	-13272
실한	-13273
어낸	-13274
어주	-13275
에여	-13276
여친	-13277
예상	-13278
와라	-13279
유천	-13280
으다	-13281
은이	-13282
이군	-13283
인기	-13284
장창	-13285
줬음	-13286
짜고	-13287
찍고	-13288
찍은	-13289
최강	-13290
침을	-13291
타닉	-13292
포스	-13293
포장	-13294
피의	-13295
현이	-13296
황당	-13297
흐흐	-13298
..3	-13299
///	-13300
500	-13301
uck	-13302
▁-1	-13303
▁PD	-13304
▁강예	-13305
▁개빡	-13306
▁경쟁	-13307
▁고고	-13308
▁고향	-13309
▁골든	-13310
▁공개	-13311
▁과감	-13312
▁구할	-13313
▁그중	-13314
▁김규	-13315
▁김창	-13316
▁남지	-13317
▁놀랄	-13318
▁높고	-13319
▁놓칠	-13320
▁다는	-13321
▁다죽	-13322
▁대다	-13323
▁되냐	-13324
▁드릅	-13325
▁드릴	-13326
▁마땅	-13327
▁많지	-13328
▁맞고	-13329
▁먹어	-13330
▁미워	-13331
▁바꿀	-13332
▁배슬	-13333
▁백미	-13334
▁밴드	-13335
▁봣다	-13336
▁분신	-13337
▁빨아	-13338
▁산다	-13339
▁상당	-13340
▁샤말	-13341
▁서사	-13342
▁서세	-13343
▁선율	-13344
▁소오	-13345
▁손오	-13346
▁스탠	-13347
▁스탭	-13348
▁신성	-13349
▁아따	-13350
▁아시	-13351
▁아휴	-13352
▁안듬	-13353
▁안전	-13354
▁압박	-13355
▁약을	-13356
▁어긋	-13357
▁얻은	-13358
▁오덕	-13359
▁우월	-13360
▁유전	-13361
▁윤아	-13362
▁의아	-13363
▁인과	-13364
▁인듯	-13365
▁인연	-13366
▁인줄	-13367
▁임팩	-13368
▁자매	-13369
▁작업	-13370
▁작작	-13371
▁작정	-13372
▁잡은	-13373
▁저딴	-13374
▁적합	-13375
▁정글	-13376
▁제공	-13377
▁졸립	-13378
▁좋구	-13379
▁좌절	-13380
▁중심	-13381
▁지네	-13382
▁징그	-13383
▁짱나	-13384
▁채우	-13385
▁책이	-13386
▁쳐다	-13387
▁최종	-13388
▁취급	-13389
▁치곤	-13390
▁치닫	-13391
▁친절	-13392
▁키워	-13393
▁터지	-13394
▁통한	-13395
▁파헤	-13396
▁피디	-13397
▁한몫	-13398
▁한쪽	-13399
▁할듯	-13400
▁합쳐	-13401
▁했어	-13402
▁형태	-13403
▁흡사	-13404
개연성	-13405
귀여워	-13406
극장판	-13407
들과의	-13408
들이여	-13409
렸지만	-13410
리는게	-13411
만해도	-13412
무서워	-13413
박하고	-13414
버리네	-13415
본건데	-13416
봤을때	-13417
부분만	-13418
분들께	-13419
사회의	-13420
생각해	-13421
소재는	-13422
수없다	-13423
스트너	-13424
쒸레기	-13425
애들도	-13426
없었음	-13427
연기자	-13428
연출이	-13429
왜이래	-13430
원작을	-13431
인건가	-13432
점수를	-13433
정신이	-13434
주는거	-13435
중인데	-13436
편이나	-13437
평점에	-13438
할머니	-13439
했었던	-13440
화부터	-13441
▁6.5	-13442
▁가운데	-13443
▁가치는	-13444
▁각각의	-13445
▁개실망	-13446
▁고딩때	-13447
▁고맙다	-13448
▁구리고	-13449
▁귀요미	-13450
▁그러니	-13451
▁급하게	-13452
▁기회를	-13453
▁꽃보다	-13454
▁나같은	-13455
▁나타난	-13456
▁나혼자	-13457
▁내평점	-13458
▁놀래키	-13459
▁다루는	-13460
▁다문화	-13461
▁당할순	-13462
▁대단함	-13463
▁돌아온	-13464
▁또다시	-13465
▁똑같다	-13466
▁리스트	-13467
▁맞지만	-13468
▁먹칠을	-13469
▁몰랐던	-13470
▁무리수	-13471
▁무작정	-13472
▁뭔내용	-13473
▁미국은	-13474
▁미래의	-13475
▁밑에분	-13476
▁바뀌고	-13477
▁발견한	-13478
▁보고또	-13479
▁보시는	-13480
▁보였다	-13481
▁봤는대	-13482
▁부실한	-13483
▁불멸의	-13484
▁빠르고	-13485
▁사랑할	-13486
▁살아갈	-13487
▁새로울	-13488
▁색감이	-13489
▁생각과	-13490
▁생각남	-13491
▁생뚱맞	-13492
▁생생한	-13493
▁시키는	-13494
▁신기할	-13495
▁실력이	-13496
▁실망을	-13497
▁아팠다	-13498
▁안나올	-13499
▁안들어	-13500
▁약빨고	-13501
▁어울릴	-13502
▁언니가	-13503
▁얼굴을	-13504
▁없는지	-13505
▁없으며	-13506
▁역량이	-13507
▁영혼이	-13508
▁예술가	-13509
▁오늘은	-13510
▁이감독	-13511
▁이것을	-13512
▁이러지	-13513
▁이름만	-13514
▁이쁘네	-13515
▁이자벨	-13516
▁있겠다	-13517
▁있기에	-13518
▁있는것	-13519
▁있었지	-13520
▁자체로	-13521
▁장근석	-13522
▁장애인	-13523
▁재미업	-13524
▁전개를	-13525
▁조금더	-13526
▁조악한	-13527
▁주제곡	-13528
▁죽어도	-13529
▁지독한	-13530
▁진하게	-13531
▁짜여진	-13532
▁짧지만	-13533
▁찍어도	-13534
▁추천함	-13535
▁충무로	-13536
▁친구와	-13537
▁친일파	-13538
▁콘서트	-13539
▁타이밍	-13540
▁팬인데	-13541
▁피터팬	-13542
▁하시길	-13543
▁하야오	-13544
▁하여금	-13545
▁한국식	-13546
▁해줘서	-13547
▁했어야	-13548
▁히치콕	-13549
▁히틀러	-13550
그렇다고	-13551
남는영화	-13552
만으로는	-13553
시리즈중	-13554
아아아아	-13555
인것같다	-13556
점줍니다	-13557
주고싶다	-13558
캐릭터가	-13559
하기에는	-13560
▁-_-;	-13561
▁2002	-13562
▁2006	-13563
▁2009	-13564
▁감동까지	-13565
▁결혼하고	-13566
▁관점에서	-13567
▁그러니까	-13568
▁꼭보시길	-13569
▁나오지만	-13570
▁남는영화	-13571
▁네이버는	-13572
▁눈물난다	-13573
▁다시보면	-13574
▁달달하고	-13575
▁드림웍스	-13576
▁들어가는	-13577
▁만드는게	-13578
▁말하려고	-13579
▁매끄럽지	-13580
▁먹먹하고	-13581
▁보는사람	-13582
▁보이는데	-13583
▁본시리즈	-13584
▁본영화중	-13585
▁볼만하고	-13586
▁브라이언	-13587
▁사라지고	-13588
▁생각해볼	-13589
▁섬세하고	-13590
▁성장영화	-13591
▁스릴러도	-13592
▁신선했다	-13593
▁아까운데	-13594
▁아름다워	-13595
▁아버지와	-13596
▁안됩니다	-13597
▁안보는데	-13598
▁알았네요	-13599
▁알았지만	-13600
▁압권이다	-13601
▁엔딩까지	-13602
▁연출이나	-13603
▁열받아서	-13604
▁엽기적인	-13605
▁올레티비	-13606
▁옴니버스	-13607
▁왜이러냐	-13608
▁왜이러지	-13609
▁욕하면서	-13610
▁유치원생	-13611
▁이유없이	-13612
▁있는영화	-13613
▁있었을까	-13614
▁잔잔하다	-13615
▁재밌지만	-13616
▁잼있는데	-13617
▁잼있었음	-13618
▁줄거리도	-13619
▁줄거리에	-13620
▁중국영화	-13621
▁지금보니	-13622
▁지루함과	-13623
▁질질끌고	-13624
▁집중하게	-13625
▁처음보는	-13626
▁풀어가는	-13627
▁하루하루	-13628
▁하지말고	-13629
▁한번보고	-13630
재미도없고	-13631
...!!!	-13632
▁너무재미있	-13633
▁네이버에서	-13634
▁떨어지지만	-13635
▁리메이크작	-13636
▁만들어내는	-13637
▁만들었다면	-13638
▁소름돋는다	-13639
▁스토리텔링	-13640
▁아담샌들러	-13641
▁아쉽습니다	-13642
▁알았습니다	-13643
▁여주인공도	-13644
▁이런쓰레기	-13645
▁잊혀지지가	-13646
▁잔인하기만	-13647
▁조금이라도	-13648
▁좋은영화다	-13649
▁죽여버리고	-13650
▁충격적이다	-13651
▁감동적이예요	-13652
▁기대이상으로	-13653
▁내인생최고의	-13654
▁등장인물들이	-13655
▁무슨생각으로	-13656
▁미션임파서블	-13657
▁해피엔딩으로	-13658
99999999	-13659
▁수고하셨습니다	-13660
?.	-13661
SF	-13662
av	-13663
ge	-13664
gt	-13665
xx	-13666
▁꺄	-13667
▁꽂	-13668
▁띠	-13669
▁래	-13670
▁샹	-13671
▁셰	-13672
▁쩜	-13673
▁쭈	-13674
▁펑	-13675
▁험	-13676
▁헝	-13677
개뿔	-13678
겹고	-13679
고만	-13680
광수	-13681
국을	-13682
군데	-13683
그대	-13684
그럴	-13685
긴데	-13686
꺼임	-13687
껀데	-13688
날에	-13689
닥터	-13690
대요	-13691
대인	-13692
되었	-13693
등이	-13694
딩이	-13695
딱지	-13696
라구	-13697
레터	-13698
리암	-13699
마라	-13700
뭐임	-13701
배가	-13702
봤어	-13703
부부	-13704
비행	-13705
산다	-13706
색이	-13707
생크	-13708
세번	-13709
소문	-13710
쉬는	-13711
스랑	-13712
슴다	-13713
시걸	-13714
신지	-13715
쏘는	-13716
씬을	-13717
안이	-13718
양반	-13719
어려	-13720
연습	-13721
올려	-13722
우성	-13723
웃고	-13724
위는	-13725
이연	-13726
일로	-13727
자극	-13728
잔아	-13729
죽은	-13730
지노	-13731
지상	-13732
츠의	-13733
퍼스	-13734
포기	-13735
포드	-13736
폭행	-13737
피가	-13738
할순	-13739
해질	-13740
호는	-13741
확인	-13742
흑흑	-13743
힐링	-13744
art	-13745
▁22	-13746
▁AV	-13747
▁up	-13748
▁ᄂᄂ	-13749
▁ᄌᄅ	-13750
▁감싸	-13751
▁개망	-13752
▁경기	-13753
▁계시	-13754
▁고집	-13755
▁공격	-13756
▁곽지	-13757
▁국뽕	-13758
▁귀한	-13759
▁균형	-13760
▁근거	-13761
▁금치	-13762
▁급급	-13763
▁기반	-13764
▁깨우	-13765
▁나나	-13766
▁나지	-13767
▁남한	-13768
▁너도	-13769
▁놀람	-13770
▁놀이	-13771
▁눈감	-13772
▁당췌	-13773
▁대구	-13774
▁대여	-13775
▁독재	-13776
▁동의	-13777
▁두뇌	-13778
▁두서	-13779
▁따지	-13780
▁딴짓	-13781
▁딸을	-13782
▁마르	-13783
▁며칠	-13784
▁면도	-13785
▁몰고	-13786
▁몰려	-13787
▁무뇌	-13788
▁무방	-13789
▁뭐든	-13790
▁뭘말	-13791
▁박용	-13792
▁박철	-13793
▁반항	-13794
▁배제	-13795
▁백만	-13796
▁벌레	-13797
▁법한	-13798
▁벗고	-13799
▁베르	-13800
▁베일	-13801
▁변명	-13802
▁분은	-13803
▁빠졌	-13804
▁사정	-13805
▁살았	-13806
▁살지	-13807
▁성지	-13808
▁셜록	-13809
▁소비	-13810
▁속아	-13811
▁수영	-13812
▁아리	-13813
▁아자	-13814
▁안티	-13815
▁알맹	-13816
▁야마	-13817
▁야쿠	-13818
▁양반	-13819
▁어필	-13820
▁에스	-13821
▁에혀	-13822
▁오줌	-13823
▁욕할	-13824
▁우마	-13825
▁우베	-13826
▁울었	-13827
▁유니	-13828
▁유작	-13829
▁윤제	-13830
▁의식	-13831
▁이모	-13832
▁이시	-13833
▁일제	-13834
▁잃어	-13835
▁자료	-13836
▁자빠	-13837
▁작살	-13838
▁잘라	-13839
▁잠만	-13840
▁잠재	-13841
▁잡을	-13842
▁장기	-13843
▁장편	-13844
▁재연	-13845
▁재일	-13846
▁적어	-13847
▁전범	-13848
▁조롱	-13849
▁종결	-13850
▁주네	-13851
▁주장	-13852
▁중고	-13853
▁지날	-13854
▁지능	-13855
▁질러	-13856
▁짜고	-13857
▁짧고	-13858
▁추상	-13859
▁쿠바	-13860
▁탈을	-13861
▁트와	-13862
▁특집	-13863
▁포커	-13864
▁호강	-13865
▁홀로	-13866
▁획기	-13867
▁효민	-13868
▁힘듬	-13869
각기동	-13870
개드림	-13871
겟어요	-13872
넘치고	-13873
노래도	-13874
는다면	-13875
달리는	-13876
데리고	-13877
배우를	-13878
보는거	-13879
본다면	-13880
부일체	-13881
분들의	-13882
빠지고	-13883
뻔하고	-13884
설정이	-13885
쇄살인	-13886
아름다	-13887
았다고	-13888
어주는	-13889
열심히	-13890
예쁘고	-13891
으려나	-13892
으려다	-13893
이구나	-13894
이나마	-13895
이런걸	-13896
일지도	-13897
자신을	-13898
자체도	-13899
코드가	-13900
티비티	-13901
할말이	-13902
할수있	-13903
회까지	-13904
▁197	-13905
▁Bad	-13906
▁가지게	-13907
▁감동에	-13908
▁갑이다	-13909
▁강하다	-13910
▁개봉작	-13911
▁개성이	-13912
▁개인적	-13913
▁개짜증	-13914
▁공포의	-13915
▁과거에	-13916
▁과하게	-13917
▁그걸로	-13918
▁그녀를	-13919
▁그러고	-13920
▁김남길	-13921
▁까메오	-13922
▁꼬라지	-13923
▁내리는	-13924
▁넘친다	-13925
▁노력은	-13926
▁능력이	-13927
▁다가오	-13928
▁대박나	-13929
▁돋는다	-13930
▁되는지	-13931
▁드릅게	-13932
▁드리고	-13933
▁들어오	-13934
▁들었음	-13935
▁마피아	-13936
▁말대로	-13937
▁매력도	-13938
▁멋졌다	-13939
▁모처럼	-13940
▁못한게	-13941
▁뭐하러	-13942
▁바람피	-13943
▁밖에는	-13944
▁발전이	-13945
▁보다도	-13946
▁볼만은	-13947
▁봉태규	-13948
▁봤어도	-13949
▁봤으나	-13950
▁분들께	-13951
▁빠르게	-13952
▁사소한	-13953
▁사실은	-13954
▁상황과	-13955
▁소설의	-13956
▁소설이	-13957
▁수준도	-13958
▁시선이	-13959
▁시절이	-13960
▁신동엽	-13961
▁심장을	-13962
▁싶었음	-13963
▁쓸쓸한	-13964
▁아시는	-13965
▁아직은	-13966
▁아픔과	-13967
▁악역이	-13968
▁애들용	-13969
▁야동을	-13970
▁어렵게	-13971
▁어색함	-13972
▁어울려	-13973
▁엉망인	-13974
▁엉성함	-13975
▁여고생	-13976
▁여운과	-13977
▁예술이	-13978
▁오래전	-13979
▁욕심이	-13980
▁용기를	-13981
▁우정이	-13982
▁유머와	-13983
▁이러냐	-13984
▁이선균	-13985
▁이순신	-13986
▁이지만	-13987
▁인간에	-13988
▁임수정	-13989
▁있을듯	-13990
▁자체의	-13991
▁장난이	-13992
▁잼있고	-13993
▁전쟁에	-13994
▁제작한	-13995
▁조용한	-13996
▁주는거	-13997
▁주셔서	-13998
▁주지훈	-13999
▁죽었다	-14000
▁처음봄	-14001
▁초점을	-14002
▁초호화	-14003
▁최강의	-14004
▁추억돋	-14005
▁추억에	-14006
▁코믹물	-14007
▁쿠엔틴	-14008
▁투자한	-14009
▁티비에	-14010
▁퍼펙트	-14011
▁포기한	-14012
▁포장한	-14013
▁하여간	-14014
▁한방에	-14015
▁한번에	-14016
▁했다고	-14017
▁헛소리	-14018
▁현재의	-14019
꼭보세요	-14020
다는건지	-14021
보고싶은	-14022
봤는데도	-14023
사랑해요	-14024
스오피스	-14025
신분들은	-14026
아이들이	-14027
액션영화	-14028
에서부터	-14029
이라이트	-14030
이야기를	-14031
잘봤어요	-14032
적으로도	-14033
채널에서	-14034
하기만한	-14035
하셨어요	-14036
한국영화	-14037
해야하나	-14038
했을텐데	-14039
▁2007	-14040
▁love	-14041
▁가슴으로	-14042
▁궁금하게	-14043
▁귀엽네요	-14044
▁극장개봉	-14045
▁기대보다	-14046
▁기분나쁜	-14047
▁나오는게	-14048
▁남습니다	-14049
▁내취향은	-14050
▁너무재밋	-14051
▁노잼이다	-14052
▁느끼는게	-14053
▁늘어지는	-14054
▁단순하고	-14055
▁도대체가	-14056
▁로맨스도	-14057
▁명작중의	-14058
▁몰입도를	-14059
▁무시하고	-14060
▁민주주의	-14061
▁반복되는	-14062
▁별로지만	-14063
▁볼거리는	-14064
▁볼까말까	-14065
▁봤을때는	-14066
▁불가능한	-14067
▁빠져들어	-14068
▁상업영화	-14069
▁상영시간	-14070
▁상황에서	-14071
▁생각된다	-14072
▁생생하다	-14073
▁샤를리즈	-14074
▁슈퍼액션	-14075
▁스토리만	-14076
▁시간아깝	-14077
▁시청자가	-14078
▁안젤리나	-14079
▁않았어요	-14080
▁암걸리는	-14081
▁어이없게	-14082
▁여고괴담	-14083
▁예상되는	-14084
▁오유에서	-14085
▁우울하고	-14086
▁웃기려고	-14087
▁이딴영화	-14088
▁이때까지	-14089
▁이쁘네요	-14090
▁인상깊다	-14091
▁임팩트가	-14092
▁있어야지	-14093
▁있었으나	-14094
▁재미까지	-14095
▁재밌게봤	-14096
▁제목부터	-14097
▁존재한다	-14098
▁중요한건	-14099
▁쥬라기공	-14100
▁즐거웠다	-14101
▁코미디의	-14102
▁크리스마	-14103
▁평점테러	-14104
▁표정연기	-14105
▁현실에서	-14106
▁흥미롭다	-14107
본영화중에	-14108
재밌었는데	-14109
추천합니다	-14110
▁1,2,3	-14111
▁감동이네요	-14112
▁개연성없는	-14113
▁궁금하네요	-14114
▁모든면에서	-14115
▁뭔내용인지	-14116
▁생각해보면	-14117
▁싶을정도로	-14118
▁아이디어가	-14119
▁안타깝지만	-14120
▁영화였네요	-14121
▁있었을텐데	-14122
▁친구들이랑	-14123
▁킬링타임도	-14124
▁테러리스트	-14125
▁모르겠습니다	-14126
▁ᄏᄏᄏᄏᄏᄏᄏᄏᄏᄏᄏᄏᄏᄏᄏ	-14127
0^	-14128
==	-14129
bl	-14130
gm	-14131
~6	-14132
~?	-14133
~^	-14134
▁z	-14135
▁‘	-14136
▁껍	-14137
▁뤽	-14138
▁르	-14139
▁릴	-14140
▁벙	-14141
▁쉰	-14142
▁앗	-14143
▁훗	-14144
결이	-14145
국가	-14146
기전	-14147
길바	-14148
남고	-14149
났네	-14150
낼수	-14151
님도	-14152
당신	-14153
데가	-14154
돼지	-14155
되야	-14156
된거	-14157
둘다	-14158
드릴	-14159
디스	-14160
란의	-14161
런스	-14162
력은	-14163
류에	-14164
리뷰	-14165
릴수	-14166
마니	-14167
만치	-14168
많아	-14169
먹어	-14170
면에	-14171
뭉클	-14172
뭐라	-14173
미달	-14174
변화	-14175
불편	-14176
블록	-14177
블리	-14178
비밀	-14179
삶을	-14180
상처	-14181
서로	-14182
선징	-14183
성만	-14184
성형	-14185
수종	-14186
시킴	-14187
식상	-14188
심리	-14189
심심	-14190
아놔	-14191
안보	-14192
앓이	-14193
앤더	-14194
어져	-14195
역이	-14196
연씨	-14197
영원	-14198
올리	-14199
욕이	-14200
우월	-14201
울고	-14202
유루	-14203
잇음	-14204
있었	-14205
자매	-14206
자살	-14207
잔데	-14208
잤다	-14209
조선	-14210
종교	-14211
죽이	-14212
지경	-14213
지난	-14214
지던	-14215
지라	-14216
진한	-14217
질뻔	-14218
쩔어	-14219
쯤은	-14220
차게	-14221
차기	-14222
참나	-14223
천만	-14224
축구	-14225
출신	-14226
코비	-14227
크래	-14228
클럽	-14229
탐정	-14230
터져	-14231
토가	-14232
통쾌	-14233
파리	-14234
폐지	-14235
프가	-14236
했냐	-14237
.25	-14238
▁av	-14239
▁sm	-14240
▁ᄉᄀ	-14241
▁ᄉᄉ	-14242
▁가요	-14243
▁강남	-14244
▁거친	-14245
▁건달	-14246
▁곁에	-14247
▁계단	-14248
▁고루	-14249
▁고쳐	-14250
▁곳에	-14251
▁관찰	-14252
▁그레	-14253
▁그릇	-14254
▁그후	-14255
▁근본	-14256
▁기어	-14257
▁기원	-14258
▁긴급	-14259
▁끊어	-14260
▁나른	-14261
▁날카	-14262
▁노인	-14263
▁높음	-14264
▁누워	-14265
▁늦은	-14266
▁니미	-14267
▁님들	-14268
▁덕후	-14269
▁도움	-14270
▁돋는	-14271
▁동경	-14272
▁동원	-14273
▁디지	-14274
▁딸의	-14275
▁마련	-14276
▁말길	-14277
▁말까	-14278
▁망상	-14279
▁먹은	-14280
▁메릴	-14281
▁명량	-14282
▁모건	-14283
▁모래	-14284
▁무미	-14285
▁무어	-14286
▁반개	-14287
▁발암	-14288
▁배두	-14289
▁버림	-14290
▁변함	-14291
▁본드	-14292
▁불우	-14293
▁비가	-14294
▁비긴	-14295
▁빨려	-14296
▁사례	-14297
▁사장	-14298
▁산타	-14299
▁삼천	-14300
▁새드	-14301
▁서글	-14302
▁성질	-14303
▁손을	-14304
▁수다	-14305
▁수호	-14306
▁시점	-14307
▁시킨	-14308
▁썰렁	-14309
▁쓰면	-14310
▁쓴다	-14311
▁안달	-14312
▁얘네	-14313
▁얻을	-14314
▁없죠	-14315
▁에디	-14316
▁엠비	-14317
▁여군	-14318
▁와나	-14319
▁왜들	-14320
▁외에	-14321
▁요란	-14322
▁욕설	-14323
▁용의	-14324
▁웃다	-14325
▁워킹	-14326
▁웬지	-14327
▁유준	-14328
▁이랬	-14329
▁이명	-14330
▁이브	-14331
▁입고	-14332
▁잉여	-14333
▁잼남	-14334
▁저건	-14335
▁저격	-14336
▁점도	-14337
▁제주	-14338
▁종북	-14339
▁종종	-14340
▁좌빨	-14341
▁좌좀	-14342
▁죄책	-14343
▁주의	-14344
▁지껄	-14345
▁지내	-14346
▁지닌	-14347
▁지리	-14348
▁질이	-14349
▁쩔고	-14350
▁청소	-14351
▁춤을	-14352
▁충족	-14353
▁튀어	-14354
▁폭파	-14355
▁피로	-14356
▁한듯	-14357
▁해병	-14358
▁해운	-14359
▁회복	-14360
▁후려	-14361
▁희극	-14362
가보다	-14363
가치가	-14364
같지만	-14365
게리온	-14366
겠구나	-14367
결말은	-14368
고있는	-14369
기대를	-14370
나는데	-14371
내인생	-14372
대에서	-14373
더구만	-14374
되는게	-14375
된다고	-14376
드래곤	-14377
때리고	-14378
떄문에	-14379
릅니다	-14380
만들기	-14381
만이쁨	-14382
모로우	-14383
못한다	-14384
무섭다	-14385
미니즘	-14386
보게되	-14387
보니깐	-14388
보여주	-14389
봤을까	-14390
분까지	-14391
새로운	-14392
선징악	-14393
소설을	-14394
스라엘	-14395
스럽네	-14396
시기를	-14397
십니까	-14398
안나오	-14399
안나옴	-14400
어나서	-14401
어이가	-14402
역사상	-14403
였다는	-14404
으므로	-14405
인이다	-14406
일텐데	-14407
자신이	-14408
정말로	-14409
제목이	-14410
좋았던	-14411
케이블	-14412
하려다	-14413
해야만	-14414
핵노잼	-14415
▁^-^	-14416
▁가깝다	-14417
▁가는데	-14418
▁강력한	-14419
▁개명작	-14420
▁것들은	-14421
▁결말의	-14422
▁관람가	-14423
▁구석이	-14424
▁그래요	-14425
▁그런게	-14426
▁그정도	-14427
▁근래에	-14428
▁기분나	-14429
▁기억남	-14430
▁기존의	-14431
▁꼽히는	-14432
▁끌리는	-14433
▁끝나면	-14434
▁나가고	-14435
▁나오나	-14436
▁나와는	-14437
▁나이를	-14438
▁남아도	-14439
▁낫다고	-14440
▁내생의	-14441
▁놀라게	-14442
▁놀라고	-14443
▁담겨져	-14444
▁대기업	-14445
▁대사에	-14446
▁돋보인	-14447
▁되겠다	-14448
▁되다니	-14449
▁되버린	-14450
▁두가지	-14451
▁맙소사	-14452
▁모를까	-14453
▁묘사가	-14454
▁무개념	-14455
▁뭐하자	-14456
▁미개한	-14457
▁미성년	-14458
▁미치지	-14459
▁배우에	-14460
▁베리굿	-14461
▁별로네	-14462
▁별론데	-14463
▁별점은	-14464
▁보라는	-14465
▁보시고	-14466
▁본다는	-14467
▁봤건만	-14468
▁부성애	-14469
▁비교도	-14470
▁비오는	-14471
▁뽀로로	-14472
▁사건이	-14473
▁사나이	-14474
▁살인자	-14475
▁생각날	-14476
▁설명은	-14477
▁설정도	-14478
▁세번째	-14479
▁쇼생크	-14480
▁슬로우	-14481
▁시작한	-14482
▁시절을	-14483
▁아까웠	-14484
▁안되게	-14485
▁앞서간	-14486
▁애틋한	-14487
▁어쨋든	-14488
▁없는거	-14489
▁없는것	-14490
▁여동생	-14491
▁여름에	-14492
▁역겹고	-14493
▁열정과	-14494
▁오페라	-14495
▁올만에	-14496
▁왜그러	-14497
▁외모가	-14498
▁요즘엔	-14499
▁욕나옴	-14500
▁용가리	-14501
▁우리를	-14502
▁우리와	-14503
▁우리집	-14504
▁원작도	-14505
▁은은한	-14506
▁이러면	-14507
▁이수근	-14508
▁이슬람	-14509
▁이용해	-14510
▁이준기	-14511
▁일반인	-14512
▁있다가	-14513
▁있을때	-14514
▁자체다	-14515
▁조연들	-14516
▁좋으면	-14517
▁좋은듯	-14518
▁진리다	-14519
▁진수를	-14520
▁진실은	-14521
▁짜증날	-14522
▁차인표	-14523
▁채널을	-14524
▁첫장면	-14525
▁클로즈	-14526
▁테스트	-14527
▁투성이	-14528
▁평가할	-14529
▁포스가	-14530
▁하나다	-14531
▁하더라	-14532
▁한번만	-14533
▁해보고	-14534
▁행동을	-14535
▁향수를	-14536
▁흥행을	-14537
게만드는	-14538
나는영화	-14539
다고해서	-14540
드라마의	-14541
들때문에	-14542
무엇보다	-14543
보지마셈	-14544
본방사수	-14545
사랑하는	-14546
생각하고	-14547
아버지가	-14548
용으로도	-14549
이었다면	-14550
인줄알고	-14551
재밌었다	-14552
재밌었음	-14553
잼있어요	-14554
하긴한데	-14555
할때마다	-14556
해야한다	-14557
해지네요	-14558
,,,,,	-14559
▁감독이나	-14560
▁감정표현	-14561
▁개나소나	-14562
▁개성있는	-14563
▁것입니다	-14564
▁괜찮다고	-14565
▁그런대로	-14566
▁그이하도	-14567
▁기다리는	-14568
▁기대하게	-14569
▁기발하고	-14570
▁나올법한	-14571
▁난무하는	-14572
▁남주인공	-14573
▁너무좋다	-14574
▁네이버에	-14575
▁녹아있는	-14576
▁느낄수있	-14577
▁댓글알바	-14578
▁뛰어나다	-14579
▁로드리게	-14580
▁만드는데	-14581
▁말도안돼	-14582
▁맘에든다	-14583
▁몇년전에	-14584
▁미화시킨	-14585
▁발연기가	-14586
▁버금가는	-14587
▁보지말고	-14588
▁봤는데요	-14589
▁봤던건데	-14590
▁분위기만	-14591
▁블루레이	-14592
▁비슷해서	-14593
▁빠져든다	-14594
▁섬세하게	-14595
▁소소하게	-14596
▁순간순간	-14597
▁스릴러는	-14598
▁시간아까	-14599
▁시사회로	-14600
▁식스센스	-14601
▁실망스러	-14602
▁안나오나	-14603
▁안무서움	-14604
▁안무섭다	-14605
▁어색하지	-14606
▁어정쩡한	-14607
▁연기들이	-14608
▁연예인이	-14609
▁영상미에	-14610
▁영화ᄏᄏ	-14611
▁영화로만	-14612
▁영화보단	-14613
▁왔다갔다	-14614
▁웃기기도	-14615
▁유치하기	-14616
▁음악까지	-14617
▁이리저리	-14618
▁이스라엘	-14619
▁있다는걸	-14620
▁있을까요	-14621
▁재미있었	-14622
▁전혀없는	-14623
▁제목처럼	-14624
▁제외하면	-14625
▁조폭영화	-14626
▁좋았네요	-14627
▁주인공인	-14628
▁줄거리를	-14629
▁중구난방	-14630
▁중심으로	-14631
▁지루했던	-14632
▁진지하고	-14633
▁찍었을까	-14634
▁찾아가는	-14635
▁천재적인	-14636
▁최악이네	-14637
▁치밀하고	-14638
▁편안하게	-14639
▁포스터를	-14640
▁형편없다	-14641
▁흥미롭지	-14642
영화제에서	-14643
재밌었어요	-14644
~~~~~~	-14645
▁감동이에요	-14646
▁고등학교때	-14647
▁그로테스크	-14648
▁내용도없고	-14649
▁너무재밌게	-14650
▁너무하네요	-14651
▁누구에게나	-14652
▁느껴지네요	-14653
▁대단하다고	-14654
▁드라마인데	-14655
▁보여줬는데	-14656
▁볼만한영화	-14657
▁사람들에겐	-14658
▁실망입니다	-14659
▁아기자기한	-14660
▁영화보다는	-14661
▁이건아니다	-14662
▁이딴영화가	-14663
▁일본영화가	-14664
▁재미없는데	-14665
▁전달하고자	-14666
▁조금이나마	-14667
▁토이스토리	-14668
▁트와일라잇	-14669
▁프로그램이	-14670
▁다시보고싶은	-14671
▁말이필요없음	-14672
00000000	-14673
▁좋은영화입니다	-14674
!!!!!!!!!!!	-14675
.~	-14676
df	-14677
~3	-14678
ᄉᄋ	-14679
ᅳᅮ	-14680
▁ᅩ	-14681
▁괘	-14682
▁껄	-14683
▁껴	-14684
▁낡	-14685
▁돕	-14686
▁떳	-14687
▁란	-14688
▁룰	-14689
▁얕	-14690
▁왼	-14691
▁즈	-14692
▁쯔	-14693
▁탔	-14694
▁톡	-14695
▁틴	-14696
▁훅	-14697
감성	-14698
값이	-14699
걸음	-14700
겁다	-14701
고리	-14702
그가	-14703
기네	-14704
기발	-14705
꿈을	-14706
끈다	-14707
남친	-14708
났고	-14709
노소	-14710
느꼈	-14711
니를	-14712
니콜	-14713
데스	-14714
들게	-14715
들인	-14716
디다	-14717
뜬금	-14718
라드	-14719
락을	-14720
란게	-14721
러지	-14722
레알	-14723
렸을	-14724
마를	-14725
매일	-14726
먹음	-14727
몇번	-14728
모델	-14729
모도	-14730
무한	-14731
물가	-14732
미야	-14733
바꿔	-14734
발로	-14735
백한	-14736
법을	-14737
베스	-14738
브이	-14739
빈이	-14740
사무	-14741
사투	-14742
생명	-14743
서를	-14744
세대	-14745
세월	-14746
세의	-14747
소서	-14748
습니	-14749
시각	-14750
애씨	-14751
애의	-14752
어쩜	-14753
에의	-14754
연결	-14755
왜케	-14756
외엔	-14757
우석	-14758
은지	-14759
응원	-14760
의도	-14761
이럴	-14762
일드	-14763
자다	-14764
장군	-14765
정돈	-14766
제국	-14767
졸잼	-14768
주혁	-14769
진리	-14770
진부	-14771
질러	-14772
짝짝	-14773
천히	-14774
치며	-14775
치지	-14776
캐리	-14777
캔들	-14778
쿠삭	-14779
키드	-14780
탄생	-14781
통을	-14782
튼의	-14783
파는	-14784
포트	-14785
해낸	-14786
호구	-14787
환의	-14788
황후	-14789
흘러	-14790
OOD	-14791
her	-14792
▁It	-14793
▁No	-14794
▁on	-14795
▁가다	-14796
▁갈릴	-14797
▁강박	-14798
▁개가	-14799
▁건드	-14800
▁걷는	-14801
▁걸려	-14802
▁걸릴	-14803
▁것의	-14804
▁고만	-14805
▁골라	-14806
▁곳이	-14807
▁공산	-14808
▁구림	-14809
▁그룹	-14810
▁글래	-14811
▁금성	-14812
▁긍정	-14813
▁기절	-14814
▁김상	-14815
▁꾸밈	-14816
▁꾸역	-14817
▁낄낄	-14818
▁남이	-14819
▁낫네	-14820
▁낯설	-14821
▁누굴	-14822
▁눈도	-14823
▁눈은	-14824
▁대립	-14825
▁돈에	-14826
▁되요	-14827
▁될것	-14828
▁될지	-14829
▁두렵	-14830
▁디비	-14831
▁따른	-14832
▁똥칠	-14833
▁뜻이	-14834
▁리부	-14835
▁리브	-14836
▁마술	-14837
▁만듦	-14838
▁멸망	-14839
▁명절	-14840
▁무모	-14841
▁무튼	-14842
▁물리	-14843
▁미셸	-14844
▁민간	-14845
▁밍밍	-14846
▁바램	-14847
▁반의	-14848
▁변질	-14849
▁보냐	-14850
▁보수	-14851
▁보편	-14852
▁부재	-14853
▁브금	-14854
▁비포	-14855
▁뻔함	-14856
▁사서	-14857
▁삼각	-14858
▁서영	-14859
▁서유	-14860
▁서태	-14861
▁솔찍	-14862
▁쇼킹	-14863
▁숀펜	-14864
▁수목	-14865
▁수술	-14866
▁수습	-14867
▁슬플	-14868
▁안믿	-14869
▁안성	-14870
▁애는	-14871
▁애쓰	-14872
▁양키	-14873
▁영호	-14874
▁오리	-14875
▁울려	-14876
▁울음	-14877
▁이뿌	-14878
▁이와	-14879
▁인위	-14880
▁일은	-14881
▁작렬	-14882
▁잡다	-14883
▁장선	-14884
▁재벌	-14885
▁잭슨	-14886
▁잼따	-14887
▁잼이	-14888
▁적인	-14889
▁전파	-14890
▁접한	-14891
▁조미	-14892
▁조성	-14893
▁존스	-14894
▁죽임	-14895
▁줄줄	-14896
▁진자	-14897
▁짙은	-14898
▁찌푸	-14899
▁추적	-14900
▁축하	-14901
▁침략	-14902
▁킬빌	-14903
▁타입	-14904
▁태극	-14905
▁토르	-14906
▁편히	-14907
▁프랭	-14908
▁학원	-14909
▁했고	-14910
▁행운	-14911
▁형성	-14912
▁호평	-14913
▁호화	-14914
▁휴가	-14915
▁휴지	-14916
▁흠뻑	-14917
▁히스	-14918
♡♡♡	-14919
감독과	-14920
감으로	-14921
개막장	-14922
거같고	-14923
관람가	-14924
귀엽고	-14925
끝날때	-14926
남네요	-14927
내시간	-14928
내용에	-14929
느낌의	-14930
는건지	-14931
동영상	-14932
되는거	-14933
되는지	-14934
드럽게	-14935
들었다	-14936
들인가	-14937
레이터	-14938
렸을때	-14939
만들면	-14940
만한데	-14941
무서움	-14942
받아야	-14943
보라고	-14944
사랑해	-14945
산으로	-14946
세계를	-14947
시디어	-14948
실에서	-14949
싶네요	-14950
어야할	-14951
역시나	-14952
였는지	-14953
완성도	-14954
요일이	-14955
우면서	-14956
을거다	-14957
인거지	-14958
잇어요	-14959
있다고	-14960
자에게	-14961
전개도	-14962
주의에	-14963
지금은	-14964
지마요	-14965
지모르	-14966
진짜로	-14967
차이가	-14968
치면서	-14969
터지고	-14970
투성이	-14971
폰으로	-14972
필요가	-14973
하는걸	-14974
하셔서	-14975
했구나	-14976
했던거	-14977
!!^^	-14978
...)	-14979
▁(10	-14980
▁sbs	-14981
▁ᄊᄅᄀ	-14982
▁가문의	-14983
▁가족은	-14984
▁각본을	-14985
▁감성에	-14986
▁감정에	-14987
▁갔다가	-14988
▁걸작을	-14989
▁겁나게	-14990
▁고마워	-14991
▁관객은	-14992
▁그려진	-14993
▁극대화	-14994
▁극치를	-14995
▁금요일	-14996
▁긴박감	-14997
▁김수로	-14998
▁김정은	-14999
▁깨달음	-15000
▁나라는	-15001
▁나온게	-15002
▁나올수	-15003
▁나타내	-15004
▁남동생	-15005
▁남들이	-15006
▁노다메	-15007
▁놀라움	-15008
▁높은거	-15009
▁놓치지	-15010
▁누구를	-15011
▁눈물샘	-15012
▁느껴야	-15013
▁느낌과	-15014
▁다큐의	-15015
▁단어가	-15016
▁담아내	-15017
▁대박임	-15018
▁데이트	-15019
▁두려움	-15020
▁두려워	-15021
▁뒤돌아	-15022
▁마동석	-15023
▁마모루	-15024
▁막무가	-15025
▁만큼의	-15026
▁맛있는	-15027
▁매력과	-15028
▁멀쩡한	-15029
▁모니카	-15030
▁목적이	-15031
▁몸매가	-15032
▁몸부림	-15033
▁못봤다	-15034
▁무난한	-15035
▁무리가	-15036
▁무표정	-15037
▁미묘한	-15038
▁믿을수	-15039
▁바꿔라	-15040
▁바치는	-15041
▁박신혜	-15042
▁박유천	-15043
▁변하는	-15044
▁보는건	-15045
▁보아야	-15046
▁부분에	-15047
▁불편함	-15048
▁비극을	-15049
▁비참한	-15050
▁생각안	-15051
▁설정을	-15052
▁성격이	-15053
▁소방관	-15054
▁슬픔과	-15055
▁시걸의	-15056
▁시작해	-15057
▁시청율	-15058
▁신은경	-15059
▁심하네	-15060
▁싱크로	-15061
▁씨리즈	-15062
▁아는데	-15063
▁안되지	-15064
▁않다는	-15065
▁않은가	-15066
▁애잔한	-15067
▁양심도	-15068
▁어울림	-15069
▁얼굴에	-15070
▁없이도	-15071
▁엉뚱한	-15072
▁엔딩도	-15073
▁여진구	-15074
▁역사는	-15075
▁연기들	-15076
▁오디션	-15077
▁와진짜	-15078
▁우리도	-15079
▁월드컵	-15080
▁웨슬리	-15081
▁유아인	-15082
▁유익한	-15083
▁음모론	-15084
▁의지가	-15085
▁이기는	-15086
▁이렇다	-15087
▁이루는	-15088
▁이유도	-15089
▁일상의	-15090
▁자기만	-15091
▁자리를	-15092
▁자막이	-15093
▁자연의	-15094
▁잔인함	-15095
▁잘봤음	-15096
▁재밋네	-15097
▁재밌냐	-15098
▁전개로	-15099
▁전작을	-15100
▁전체를	-15101
▁절묘한	-15102
▁정재영	-15103
▁정확한	-15104
▁제레미	-15105
▁주는데	-15106
▁즐거워	-15107
▁지겹고	-15108
▁지금이	-15109
▁짠하고	-15110
▁짱인듯	-15111
▁찌질이	-15112
▁찍어서	-15113
▁채민서	-15114
▁철학이	-15115
▁최후의	-15116
▁코믹도	-15117
▁키드먼	-15118
▁토할뻔	-15119
▁파치노	-15120
▁팬이라	-15121
▁풍부한	-15122
▁필요도	-15123
▁하고자	-15124
▁하나경	-15125
▁하나씩	-15126
▁행복은	-15127
▁허니잼	-15128
▁홍진호	-15129
▁화면도	-15130
▁화면에	-15131
답답하고	-15132
대한민국	-15133
생각나서	-15134
생각보다	-15135
시리즈는	-15136
아니지만	-15137
아주아주	-15138
이었는데	-15139
적이었다	-15140
점준거중	-15141
▁1990	-15142
▁9~10	-15143
▁this	-15144
▁견자단이	-15145
▁그럴듯한	-15146
▁그려냈다	-15147
▁그립네요	-15148
▁기대하며	-15149
▁기본적인	-15150
▁기억속에	-15151
▁나오길래	-15152
▁나중에는	-15153
▁내용없는	-15154
▁내인생에	-15155
▁넘어가는	-15156
▁느껴져서	-15157
▁느낌으로	-15158
▁다른사람	-15159
▁담백하게	-15160
▁돈아까운	-15161
▁돈아까움	-15162
▁돈아깝고	-15163
▁동생이랑	-15164
▁들었는데	-15165
▁떨어져서	-15166
▁롱테이크	-15167
▁만들었지	-15168
▁명작이지	-15169
▁목소리는	-15170
▁무서웠음	-15171
▁무협영화	-15172
▁방황하는	-15173
▁배우들과	-15174
▁벗어나지	-15175
▁별로였던	-15176
▁보석같은	-15177
▁봤던영화	-15178
▁부담없이	-15179
▁부족함이	-15180
▁상관없이	-15181
▁생각밖에	-15182
▁생각하니	-15183
▁서스펜스	-15184
▁섹시하고	-15185
▁순수하게	-15186
▁순수함을	-15187
▁숨어있는	-15188
▁스포일러	-15189
▁시원시원	-15190
▁신기하고	-15191
▁아저씨가	-15192
▁애들한테	-15193
▁어거지로	-15194
▁어색해서	-15195
▁어이없어	-15196
▁어찌보면	-15197
▁여자애가	-15198
▁연기들도	-15199
▁영화로써	-15200
▁영화사에	-15201
▁영화평점	-15202
▁유머러스	-15203
▁유치하게	-15204
▁이제그만	-15205
▁있었네요	-15206
▁자막으로	-15207
▁자신에게	-15208
▁재밋던데	-15209
▁정신없이	-15210
▁제목으로	-15211
▁지나가는	-15212
▁촌스럽지	-15213
▁친구에게	-15214
▁타이타닉	-15215
▁파격적인	-15216
▁평점너무	-15217
▁하는구나	-15218
▁해주길래	-15219
▁확실하게	-15220
▁후반부는	-15221
▁후회한다	-15222
▁흡입력이	-15223
감동적이다	-15224
만이쁨여주	-15225
보고싶어요	-15226
스럽습니다	-15227
영화라지만	-15228
최고입니다	-15229
하긴하지만	-15230
▁나도모르게	-15231
▁드라마중에	-15232
▁매력적이고	-15233
▁사랑과전쟁	-15234
▁사랑입니다	-15235
▁생각한다면	-15236
▁시간아까운	-15237
▁시사회에서	-15238
▁심리묘사가	-15239
▁아니더라도	-15240
▁어쩔수없이	-15241
▁에니메이션	-15242
▁에반게리온	-15243
▁인터스텔라	-15244
▁자극적이고	-15245
▁주인공으로	-15246
▁지루하기도	-15247
▁하이라이트	-15248
▁한국영화를	-15249
▁흥미진진하게	-15250
▁재밌게봤습니다	-15251
▁기대안하고봤는데	-15252
▁ᄏᄏᄏᄏᄏᄏᄏᄏᄏᄏᄏᄏ	-15253
!"	-15254
).	-15255
-)	-15256
-_	-15257
/2	-15258
>.	-15259
?(	-15260
ma	-15261
ry	-15262
th	-15263
▁ᄎ	-15264
▁“	-15265
▁굵	-15266
▁꽥	-15267
▁닫	-15268
▁댓	-15269
▁랜	-15270
▁몹	-15271
▁빤	-15272
▁샬	-15273
▁솟	-15274
▁썻	-15275
▁엎	-15276
▁줫	-15277
▁촉	-15278
▁퀄	-15279
▁펠	-15280
가까	-15281
가득	-15282
갈수	-15283
겠니	-15284
고의	-15285
공간	-15286
공을	-15287
관념	-15288
관은	-15289
구여	-15290
귀가	-15291
그걸	-15292
그로	-15293
기들	-15294
깊이	-15295
꼬박	-15296
꾸역	-15297
끈한	-15298
나입	-15299
내놔	-15300
내라	-15301
넘어	-15302
놓는	-15303
눈빛	-15304
다녀	-15305
다섯	-15306
다이	-15307
댄스	-15308
드류	-15309
랜든	-15310
런지	-15311
려구	-15312
력의	-15313
련한	-15314
마부	-15315
막극	-15316
만난	-15317
만남	-15318
많네	-15319
매매	-15320
먹기	-15321
묘사	-15322
밀라	-15323
밖의	-15324
배를	-15325
번의	-15326
범인	-15327
부짖	-15328
북한	-15329
빵빵	-15330
사장	-15331
생긴	-15332
세용	-15333
셨다	-15334
수현	-15335
신다	-15336
신히	-15337
아웃	-15338
안감	-15339
양은	-15340
어릴	-15341
언젠	-15342
에나	-15343
예전	-15344
옥빈	-15345
요원	-15346
욕을	-15347
용석	-15348
울이	-15349
으루	-15350
이뻐	-15351
인디	-15352
인터	-15353
잇게	-15354
자본	-15355
잡이	-15356
전과	-15357
전도	-15358
전투	-15359
조각	-15360
조작	-15361
좀더	-15362
종의	-15363
좋앗	-15364
중심	-15365
춰진	-15366
칙칙	-15367
칼립	-15368
콩콩	-15369
크는	-15370
키가	-15371
트랙	-15372
표절	-15373
프만	-15374
피디	-15375
피언	-15376
하심	-15377
합이	-15378
호강	-15379
혹한	-15380
환을	-15381
환이	-15382
--;	-15383
..'	-15384
^.^	-15385
ᄒᄃᄃ	-15386
▁27	-15387
▁3.	-15388
▁93	-15389
▁go	-15390
▁ᄆᄎ	-15391
▁간접	-15392
▁견뎌	-15393
▁관능	-15394
▁관리	-15395
▁구석	-15396
▁그곳	-15397
▁근친	-15398
▁기계	-15399
▁기부	-15400
▁김두	-15401
▁김아	-15402
▁깊다	-15403
▁끄고	-15404
▁끌려	-15405
▁넘잼	-15406
▁넣고	-15407
▁네이	-15408
▁농구	-15409
▁느려	-15410
▁대로	-15411
▁더해	-15412
▁동심	-15413
▁되네	-15414
▁되니	-15415
▁두분	-15416
▁딸과	-15417
▁뗄수	-15418
▁리더	-15419
▁말론	-15420
▁멈출	-15421
▁모범	-15422
▁못잡	-15423
▁묘미	-15424
▁무릎	-15425
▁무명	-15426
▁뭘본	-15427
▁박상	-15428
▁박재	-15429
▁박힌	-15430
▁발악	-15431
▁법을	-15432
▁보인	-15433
▁복귀	-15434
▁본적	-15435
▁비둘	-15436
▁사연	-15437
▁살해	-15438
▁생길	-15439
▁서른	-15440
▁서우	-15441
▁세대	-15442
▁소나	-15443
▁소수	-15444
▁수업	-15445
▁수위	-15446
▁수학	-15447
▁스콜	-15448
▁스턴	-15449
▁스테	-15450
▁시망	-15451
▁시퀀	-15452
▁싶고	-15453
▁싸이	-15454
▁써야	-15455
▁쓸모	-15456
▁안줄	-15457
▁안함	-15458
▁않길	-15459
▁알면	-15460
▁알앗	-15461
▁앵글	-15462
▁언더	-15463
▁연구	-15464
▁연령	-15465
▁예정	-15466
▁완존	-15467
▁요한	-15468
▁웅장	-15469
▁위선	-15470
▁유년	-15471
▁유도	-15472
▁유산	-15473
▁유선	-15474
▁유튜	-15475
▁육체	-15476
▁은행	-15477
▁이가	-15478
▁이입	-15479
▁이집	-15480
▁일대	-15481
▁입을	-15482
▁잘짜	-15483
▁잡지	-15484
▁장백	-15485
▁장인	-15486
▁장화	-15487
▁재활	-15488
▁저능	-15489
▁전의	-15490
▁절절	-15491
▁조건	-15492
▁조악	-15493
▁죄악	-15494
▁주려	-15495
▁주식	-15496
▁주저	-15497
▁준수	-15498
▁중딩	-15499
▁지역	-15500
▁지쳐	-15501
▁지친	-15502
▁진작	-15503
▁집안	-15504
▁짓을	-15505
▁쫓아	-15506
▁창문	-15507
▁찾게	-15508
▁책은	-15509
▁책읽	-15510
▁청순	-15511
▁최신	-15512
▁최우	-15513
▁추석	-15514
▁치면	-15515
▁침몰	-15516
▁케미	-15517
▁크라	-15518
▁퇴마	-15519
▁퇴폐	-15520
▁파일	-15521
▁패스	-15522
▁필립	-15523
▁한회	-15524
▁해군	-15525
▁해설	-15526
▁했지	-15527
▁허우	-15528
▁허준	-15529
▁형식	-15530
▁홍경	-15531
▁활동	-15532
가에서	-15533
감정이	-15534
같았다	-15535
거기다	-15536
것들은	-15537
괜찮은	-15538
구성이	-15539
꼭봐야	-15540
나와라	-15541
는지는	-15542
다보니	-15543
도저히	-15544
된영화	-15545
들처럼	-15546
라마바	-15547
리는거	-15548
많아서	-15549
많은데	-15550
무조건	-15551
보는줄	-15552
보다더	-15553
보비치	-15554
본적이	-15555
부르는	-15556
부분을	-15557
분으로	-15558
빠지게	-15559
사랑의	-15560
살짜리	-15561
선생님	-15562
셨는데	-15563
소리만	-15564
시간은	-15565
시간의	-15566
시절의	-15567
시하는	-15568
아닐까	-15569
아이를	-15570
안본다	-15571
어보이	-15572
억지로	-15573
엔딩이	-15574
여자는	-15575
영화와	-15576
오그라	-15577
으니깐	-15578
이러스	-15579
인건지	-15580
인생을	-15581
입니당	-15582
자체는	-15583
작가는	-15584
잘어울	-15585
주의자	-15586
준영화	-15587
지면서	-15588
충분히	-15589
포칼립	-15590
하게만	-15591
하겠네	-15592
한거임	-15593
했기에	-15594
...;	-15595
dddd	-15596
reat	-15597
~!~!	-15598
▁1~2	-15599
▁7~8	-15600
▁^^*	-15601
▁bgm	-15602
▁bor	-15603
▁but	-15604
▁가난한	-15605
▁가볍지	-15606
▁가족들	-15607
▁개그는	-15608
▁개망작	-15609
▁개봉할	-15610
▁개졸작	-15611
▁개쩐다	-15612
▁건질게	-15613
▁게이는	-15614
▁결과가	-15615
▁결말만	-15616
▁경찰이	-15617
▁경쾌한	-15618
▁고질라	-15619
▁공감대	-15620
▁그치만	-15621
▁기대됨	-15622
▁기대할	-15623
▁김래원	-15624
▁김민준	-15625
▁김창완	-15626
▁나무랄	-15627
▁나서도	-15628
▁나오냐	-15629
▁나온건	-15630
▁낚였어	-15631
▁남녀의	-15632
▁낮은듯	-15633
▁너무낮	-15634
▁넣어서	-15635
▁놀랍고	-15636
▁다있냐	-15637
▁담백한	-15638
▁대학교	-15639
▁더빙판	-15640
▁데스노	-15641
▁도가니	-15642
▁뒤통수	-15643
▁드라큐	-15644
▁드러난	-15645
▁들어요	-15646
▁듯하다	-15647
▁떠나는	-15648
▁뜬금포	-15649
▁류승룡	-15650
▁마음도	-15651
▁만들까	-15652
▁만화로	-15653
▁많이나	-15654
▁말처럼	-15655
▁맞는듯	-15656
▁모아서	-15657
▁못본게	-15658
▁못하면	-15659
▁못해도	-15660
▁무한한	-15661
▁문제다	-15662
▁물체가	-15663
▁바뀌는	-15664
▁바람에	-15665
▁배역이	-15666
▁범인은	-15667
▁보내고	-15668
▁보내는	-15669
▁본다고	-15670
▁본사람	-15671
▁본인은	-15672
▁봐야될	-15673
▁부끄러	-15674
▁브로디	-15675
▁빠르기	-15676
▁뻔하디	-15677
▁사랑함	-15678
▁사이에	-15679
▁사춘기	-15680
▁사회가	-15681
▁성장기	-15682
▁세계가	-15683
▁순간의	-15684
▁순수함	-15685
▁스트레	-15686
▁스펙터	-15687
▁슬펐던	-15688
▁신경을	-15689
▁싶을때	-15690
▁쒸레기	-15691
▁악당이	-15692
▁안가네	-15693
▁안되냐	-15694
▁안보길	-15695
▁안봤다	-15696
▁어렵고	-15697
▁어쩐지	-15698
▁얼굴은	-15699
▁엄마를	-15700
▁없군요	-15701
▁여자도	-15702
▁역사가	-15703
▁역사와	-15704
▁연기며	-15705
▁열연이	-15706
▁열정을	-15707
▁였어요	-15708
▁예술적	-15709
▁요즘에	-15710
▁울나라	-15711
▁울트라	-15712
▁원작인	-15713
▁윤계상	-15714
▁이렇지	-15715
▁이상형	-15716
▁이용한	-15717
▁일본에	-15718
▁있도록	-15719
▁있으신	-15720
▁자전거	-15721
▁자존심	-15722
▁잼있어	-15723
▁저지른	-15724
▁전쟁은	-15725
▁제외한	-15726
▁존나게	-15727
▁좀비가	-15728
▁지나면	-15729
▁지르고	-15730
▁지못미	-15731
▁질질끄	-15732
▁짜증을	-15733
▁짱짱짱	-15734
▁찍었다	-15735
▁총으로	-15736
▁추천할	-15737
▁충격과	-15738
▁치밀어	-15739
▁케로로	-15740
▁케서방	-15741
▁크로우	-15742
▁탕웨이	-15743
▁평가는	-15744
▁평점높	-15745
▁표현된	-15746
▁풍경이	-15747
▁하는짓	-15748
▁한국을	-15749
▁한지민	-15750
▁합리화	-15751
▁했네요	-15752
▁했어도	-15753
▁형제의	-15754
▁호기심	-15755
▁흐른다	-15756
▁희생을	-15757
▁힐링이	-15758
▁힘들고	-15759
▁힘들듯	-15760
거같아서	-15761
다시한번	-15762
대단하다	-15763
들에게도	-15764
때문인지	-15765
분보다가	-15766
영화라는	-15767
영화인지	-15768
이정도면	-15769
인들에게	-15770
재미있어	-15771
좋겠어요	-15772
좋았는데	-15773
지도않은	-15774
지루해서	-15775
지못하고	-15776
처음으로	-15777
최악이다	-15778
하는건데	-15779
하지않는	-15780
한거같다	-15781
해보이는	-15782
흥미진진	-15783
..!!!	-15784
...10	-15785
..;;;	-15786
▁2011	-15787
▁4000	-15788
▁GOOD	-15789
▁가능성을	-15790
▁감독이다	-15791
▁감안해도	-15792
▁괜찮아요	-15793
▁교훈적인	-15794
▁극장판이	-15795
▁나오는건	-15796
▁나오니까	-15797
▁나이먹고	-15798
▁남자친구	-15799
▁너무했다	-15800
▁단편영화	-15801
▁대부분의	-15802
▁두번이나	-15803
▁들었어요	-15804
▁마지막을	-15805
▁막무가내	-15806
▁만든거지	-15807
▁만큼이나	-15808
▁말해준다	-15809
▁매력있고	-15810
▁매력적임	-15811
▁메시지도	-15812
▁명작으로	-15813
▁모자이크	-15814
▁목소리도	-15815
▁별로던데	-15816
▁보여지는	-15817
▁볼수없는	-15818
▁불쌍하고	-15819
▁비교된다	-15820
▁사람인데	-15821
▁산만하다	-15822
▁상관없는	-15823
▁수준낮은	-15824
▁순수함이	-15825
▁스토리라	-15826
▁시작된다	-15827
▁실화라서	-15828
▁씁쓸하다	-15829
▁아까웠음	-15830
▁아버지는	-15831
▁아쉬운건	-15832
▁아쉬울뿐	-15833
▁안가네요	-15834
▁안나오네	-15835
▁안무섭고	-15836
▁안주는데	-15837
▁않았다면	-15838
▁압도적인	-15839
▁어렷을때	-15840
▁어이상실	-15841
▁어쩌라는	-15842
▁억지웃음	-15843
▁엄마한테	-15844
▁없는건가	-15845
▁영화같음	-15846
▁영화군요	-15847
▁영화라도	-15848
▁예술이다	-15849
▁오래도록	-15850
▁올라갈때	-15851
▁외국영화	-15852
▁우주전쟁	-15853
▁위대하다	-15854
▁이거밖에	-15855
▁이거보면	-15856
▁이야기라	-15857
▁이정도의	-15858
▁인피니트	-15859
▁작품성을	-15860
▁잔인하다	-15861
▁잘하시고	-15862
▁재밌구만	-15863
▁재밌으면	-15864
▁저버리지	-15865
▁정체성을	-15866
▁제작진이	-15867
▁조연들의	-15868
▁종교적인	-15869
▁최고예요	-15870
▁최소한의	-15871
▁추구하는	-15872
▁친구들이	-15873
▁친구한테	-15874
▁클라이막	-15875
▁판타스틱	-15876
▁팬이지만	-15877
▁평점으로	-15878
▁표현하는	-15879
▁한국인이	-15880
▁할말없다	-15881
▁할머니가	-15882
▁할수있는	-15883
▁해주네요	-15884
것만으로도	-15885
이었습니다	-15886
재미없어요	-15887
▁기대되네요	-15888
▁기대했건만	-15889
▁기본적으로	-15890
▁느낄수있는	-15891
▁느낌이었다	-15892
▁되돌아보게	-15893
▁들었습니다	-15894
▁만들어놓고	-15895
▁반지의제왕	-15896
▁사람으로써	-15897
▁사랑이라는	-15898
▁사이코패스	-15899
▁수작이라고	-15900
▁쓰레기라는	-15901
▁아름다워요	-15902
▁안남기는데	-15903
▁안드로메다	-15904
▁움직이거나	-15905
▁일본영화의	-15906
▁잘만든영화	-15907
▁장난아니다	-15908
▁저예산으로	-15909
▁정말재밌게	-15910
▁찾아봤는데	-15911
▁처음이었다	-15912
▁한국영화에	-15913
▁아름다운영화	-15914
▁인상적이었다	-15915
▁재미없었어요	-15916
▁하나만으로도	-15917
ᄋᄋᄋᄋᄋᄋᄋᄋ	-15918
만이쁨여주만이쁨여주	-15919
!!♥!!♥!!♥!!♥	-15920
/3	-15921
_+	-15922
ab	-15923
gh	-15924
os	-15925
ᄂᄂ	-15926
▁Z	-15927
▁★	-15928
▁꾀	-15929
▁뉘	-15930
▁딜	-15931
▁랄	-15932
▁뺀	-15933
▁뻘	-15934
▁썅	-15935
▁씌	-15936
▁씻	-15937
▁앳	-15938
▁쫙	-15939
▁켜	-15940
▁큼	-15941
▁킴	-15942
▁텔	-15943
▁톤	-15944
▁힛	-15945
겁나	-15946
겄다	-15947
경험	-15948
고가	-15949
과거	-15950
관의	-15951
광이	-15952
국에	-15953
기며	-15954
기본	-15955
김기	-15956
끼는	-15957
나은	-15958
날듯	-15959
넬로	-15960
노는	-15961
노의	-15962
느낄	-15963
다행	-15964
단을	-15965
답지	-15966
당함	-15967
더가	-15968
드니	-15969
드레	-15970
든데	-15971
란걸	-15972
란드	-15973
람이	-15974
러드	-15975
렴풋	-15976
루지	-15977
를린	-15978
린건	-15979
릿한	-15980
멋짐	-15981
모험	-15982
목을	-15983
못할	-15984
미로	-15985
미소	-15986
바퀴	-15987
발음	-15988
범이	-15989
벗고	-15990
보려	-15991
볼걸	-15992
봤고	-15993
봤나	-15994
부들	-15995
분량	-15996
분쯤	-15997
분투	-15998
비도	-15999
상상	-16000
서사	-16001
선정	-16002
성인	-16003
세에	-16004
소라	-16005
스톱	-16006
슨과	-16007
승리	-16008
시코	-16009
실제	-16010
았지	-16011
앨런	-16012
어게	-16013
어찌	-16014
어휴	-16015
없던	-16016
었군	-16017
에노	-16018
에야	-16019
연예	-16020
영혼	-16021
와요	-16022
왕짱	-16023
운다	-16024
울수	-16025
을줄	-16026
이구	-16027
이더	-16028
이병	-16029
이소	-16030
익은	-16031
인형	-16032
잘안	-16033
장판	-16034
잭맨	-16035
잼잼	-16036
저의	-16037
전부	-16038
제라	-16039
제이	-16040
졌어	-16041
조용	-16042
조치	-16043
준비	-16044
줬던	-16045
차드	-16046
채영	-16047
출한	-16048
칠때	-16049
카의	-16050
커스	-16051
크게	-16052
타인	-16053
토벤	-16054
티티	-16055
파티	-16056
프의	-16057
하도	-16058
하에	-16059
행위	-16060
향을	-16061
호와	-16062
환경	-16063
희망	-16064
-0-	-16065
199	-16066
?;;	-16067
ect	-16068
ell	-16069
ime	-16070
~~♥	-16071
▁2.	-16072
▁26	-16073
▁4,	-16074
▁95	-16075
▁가깝	-16076
▁가질	-16077
▁개운	-16078
▁개쩔	-16079
▁거미	-16080
▁건담	-16081
▁겪는	-16082
▁견디	-16083
▁고난	-16084
▁공식	-16085
▁광기	-16086
▁광주	-16087
▁교도	-16088
▁글쓰	-16089
▁김유	-16090
▁김준	-16091
▁깔려	-16092
▁깨어	-16093
▁꼬박	-16094
▁나두	-16095
▁나약	-16096
▁남길	-16097
▁남상	-16098
▁너의	-16099
▁놀랬	-16100
▁다짐	-16101
▁답을	-16102
▁도로	-16103
▁됐지	-16104
▁되려	-16105
▁등에	-16106
▁등의	-16107
▁떠들	-16108
▁마시	-16109
▁마저	-16110
▁매니	-16111
▁목을	-16112
▁몸짓	-16113
▁못찾	-16114
▁무도	-16115
▁묵직	-16116
▁뭔말	-16117
▁바둑	-16118
▁바랄	-16119
▁박하	-16120
▁백번	-16121
▁버스	-16122
▁베니	-16123
▁부패	-16124
▁불교	-16125
▁붕괴	-16126
▁브리	-16127
▁사골	-16128
▁살자	-16129
▁상승	-16130
▁생김	-16131
▁서동	-16132
▁서지	-16133
▁섞여	-16134
▁성시	-16135
▁소련	-16136
▁소속	-16137
▁송중	-16138
▁수천	-16139
▁순위	-16140
▁숨겨	-16141
▁스텔	-16142
▁실천	-16143
▁심해	-16144
▁싼티	-16145
▁쌍벽	-16146
▁쓰잘	-16147
▁아르	-16148
▁아부	-16149
▁안해	-16150
▁억압	-16151
▁여느	-16152
▁였음	-16153
▁오른	-16154
▁온통	-16155
▁옮겨	-16156
▁왤캐	-16157
▁울궈	-16158
▁위기	-16159
▁위협	-16160
▁유희	-16161
▁으휴	-16162
▁이글	-16163
▁이면	-16164
▁이안	-16165
▁일기	-16166
▁일도	-16167
▁일진	-16168
▁입에	-16169
▁자녀	-16170
▁자의	-16171
▁잘되	-16172
▁잠자	-16173
▁장담	-16174
▁장수	-16175
▁장점	-16176
▁장황	-16177
▁잼써	-16178
▁저랑	-16179
▁저만	-16180
▁정경	-16181
▁조각	-16182
▁조한	-16183
▁종말	-16184
▁죽었	-16185
▁중견	-16186
▁진다	-16187
▁질주	-16188
▁짐작	-16189
▁차기	-16190
▁찬란	-16191
▁참내	-16192
▁처리	-16193
▁클럽	-16194
▁타는	-16195
▁타잔	-16196
▁탈락	-16197
▁평작	-16198
▁평타	-16199
▁표출	-16200
▁핑계	-16201
▁하실	-16202
▁한게	-16203
▁할일	-16204
▁해소	-16205
▁향기	-16206
▁허각	-16207
▁형이	-16208
감동적	-16209
같다는	-16210
거같네	-16211
거린다	-16212
게없다	-16213
굉장히	-16214
구장창	-16215
귀여운	-16216
귀엽다	-16217
그래요	-16218
기때문	-16219
끝나서	-16220
나이에	-16221
남긴다	-16222
는다고	-16223
다니엘	-16224
데없는	-16225
도좋고	-16226
됐지만	-16227
되었던	-16228
따뜻한	-16229
레스트	-16230
릴려고	-16231
말도안	-16232
머리가	-16233
보기는	-16234
봤는지	-16235
사랑이	-16236
세계가	-16237
소리를	-16238
쇼스키	-16239
시네마	-16240
시대가	-16241
싶은데	-16242
싸이코	-16243
씁니다	-16244
아먹는	-16245
아이는	-16246
안보고	-16247
았는지	-16248
얘기가	-16249
어가고	-16250
어릴때	-16251
어지고	-16252
엄마가	-16253
연기짱	-16254
영환줄	-16255
워싱턴	-16256
을려고	-16257
이래서	-16258
이상한	-16259
일만에	-16260
있는게	-16261
있는지	-16262
장면에	-16263
전문가	-16264
주었다	-16265
주의의	-16266
지가않	-16267
지에서	-16268
질질끌	-16269
추억이	-16270
통으로	-16271
프스키	-16272
하도록	-16273
한거야	-16274
해보는	-16275
해줬다	-16276
햇어요	-16277
했을듯	-16278
3456	-16279
^^;;	-16280
▁10,	-16281
▁5~6	-16282
▁ᅮᅮᅮ	-16283
▁강우석	-16284
▁같으니	-16285
▁거부감	-16286
▁것같다	-16287
▁것보다	-16288
▁결과물	-16289
▁고민을	-16290
▁곳곳에	-16291
▁공포와	-16292
▁공효진	-16293
▁과언이	-16294
▁교훈과	-16295
▁권하고	-16296
▁귀엽게	-16297
▁그런걸	-16298
▁그영화	-16299
▁길거리	-16300
▁길들여	-16301
▁나라면	-16302
▁나쁜놈	-16303
▁남아요	-16304
▁남자랑	-16305
▁남자인	-16306
▁내면을	-16307
▁내일이	-16308
▁놀랬다	-16309
▁눈물은	-16310
▁다르지	-16311
▁다큐는	-16312
▁다큐로	-16313
▁더준다	-16314
▁동화를	-16315
▁됬는데	-16316
▁들었던	-16317
▁따분한	-16318
▁따스한	-16319
▁딱봐도	-16320
▁때로는	-16321
▁마디로	-16322
▁말던가	-16323
▁말장난	-16324
▁말코비	-16325
▁망했다	-16326
▁매끄럽	-16327
▁맷데이	-16328
▁머리카	-16329
▁멜로물	-16330
▁모여서	-16331
▁모호한	-16332
▁묘사한	-16333
▁무고한	-16334
▁무식한	-16335
▁미래는	-16336
▁박한별	-16337
▁방송에	-16338
▁범죄를	-16339
▁보느라	-16340
▁보러가	-16341
▁보지않	-16342
▁부모가	-16343
▁분노를	-16344
▁불면증	-16345
▁빌려서	-16346
▁빠순이	-16347
▁빠지지	-16348
▁빠진다	-16349
▁뻔뻔한	-16350
▁상상도	-16351
▁새끼들	-16352
▁새롭다	-16353
▁샌들러	-16354
▁생기는	-16355
▁성공한	-16356
▁성우들	-16357
▁세기의	-16358
▁소설로	-16359
▁순진한	-16360
▁스나입	-16361
▁스릴과	-16362
▁심금을	-16363
▁아깝게	-16364
▁아이는	-16365
▁안나온	-16366
▁안들고	-16367
▁않았을	-16368
▁알았어	-16369
▁알지만	-16370
▁애국심	-16371
▁애니의	-16372
▁어렴풋	-16373
▁억지가	-16374
▁여인의	-16375
▁여행을	-16376
▁옆에서	-16377
▁와중에	-16378
▁외로움	-16379
▁우스꽝	-16380
▁우정과	-16381
▁울버린	-16382
▁울부짖	-16383
▁웨스턴	-16384
▁위안부	-16385
▁유머도	-16386
▁유승준	-16387
▁유해진	-16388
▁이걸로	-16389
▁이것만	-16390
▁이들의	-16391
▁이민정	-16392
▁이보단	-16393
▁이승기	-16394
▁이정현	-16395
▁이제껏	-16396
▁이하의	-16397
▁인디언	-16398
▁인물을	-16399
▁인상이	-16400
▁인연이	-16401
▁일본을	-16402
▁입가에	-16403
▁자격이	-16404
▁자비에	-16405
▁자식을	-16406
▁잠이나	-16407
▁재능이	-16408
▁재미짐	-16409
▁전율을	-16410
▁정서를	-16411
▁조인성	-16412
▁조지클	-16413
▁조화가	-16414
▁존쿠삭	-16415
▁졸작을	-16416
▁주는건	-16417
▁주제의	-16418
▁죽어나	-16419
▁죽음은	-16420
▁죽음이	-16421
▁중국이	-16422
▁진실된	-16423
▁진실이	-16424
▁질린다	-16425
▁찝찝함	-16426
▁차이를	-16427
▁철저한	-16428
▁초월한	-16429
▁최지우	-16430
▁춤추는	-16431
▁커플이	-16432
▁크레이	-16433
▁클레이	-16434
▁토마스	-16435
▁판치는	-16436
▁편집도	-16437
▁풍기는	-16438
▁프리퀄	-16439
▁하더니	-16440
▁한두번	-16441
▁한명도	-16442
▁한이다	-16443
▁함께한	-16444
▁현실적	-16445
▁호흡이	-16446
▁화나는	-16447
▁화면은	-16448
▁흘러가	-16449
▁흥행이	-16450
나오는데	-16451
디에이터	-16452
스타일이	-16453
스토리에	-16454
시디어스	-16455
시리즈를	-16456
아쉽지만	-16457
영화보고	-16458
이나네요	-16459
점이상은	-16460
중간중간	-16461
지않아서	-16462
지지않는	-16463
진심으로	-16464
했던영화	-16465
~~!!!	-16466
▁Best	-16467
▁ever	-16468
▁간직하고	-16469
▁감안하고	-16470
▁같았는데	-16471
▁공각기동	-16472
▁관객들을	-16473
▁관객들의	-16474
▁기대하는	-16475
▁기독교인	-16476
▁깊이있는	-16477
▁꼽으라면	-16478
▁끔찍하다	-16479
▁끝났으면	-16480
▁나비효과	-16481
▁나뿐인가	-16482
▁나왔는지	-16483
▁나한테는	-16484
▁남자들은	-16485
▁남자배우	-16486
▁눈물나게	-16487
▁눈물나는	-16488
▁느와르의	-16489
▁늘어지고	-16490
▁다봤는데	-16491
▁다좋은데	-16492
▁당시에도	-16493
▁대단하고	-16494
▁드러나는	-16495
▁따라하기	-16496
▁또하나의	-16497
▁러브레터	-16498
▁만점짜리	-16499
▁매력있다	-16500
▁매트릭스	-16501
▁매혹적인	-16502
▁멋있네요	-16503
▁몰입감도	-16504
▁밀려오는	-16505
▁밀려온다	-16506
▁방식으로	-16507
▁별점테러	-16508
▁보았어요	-16509
▁보지마요	-16510
▁부끄럽다	-16511
▁불우이웃	-16512
▁불편했다	-16513
▁비디오용	-16514
▁색다르고	-16515
▁생각나고	-16516
▁생각났다	-16517
▁스타일은	-16518
▁스토리며	-16519
▁슬펐어요	-16520
▁시각으로	-16521
▁시끄럽고	-16522
▁시덥잖은	-16523
▁시시하고	-16524
▁시시하다	-16525
▁시어머니	-16526
▁시점에서	-16527
▁시청률은	-16528
▁싱크로율	-16529
▁싸이코패	-16530
▁쓰레기라	-16531
▁아깝다고	-16532
▁아니구나	-16533
▁아련하고	-16534
▁아쉬웠던	-16535
▁아침부터	-16536
▁액션씬은	-16537
▁야한영화	-16538
▁야한장면	-16539
▁어느하나	-16540
▁어디에도	-16541
▁연쇄살인	-16542
▁영화구나	-16543
▁영화에는	-16544
▁영화여서	-16545
▁영화한편	-16546
▁예고편에	-16547
▁예쁘네요	-16548
▁오토바이	-16549
▁윌스미스	-16550
▁유발하는	-16551
▁이야기들	-16552
▁인도영화	-16553
▁일어나서	-16554
▁있는건지	-16555
▁작품성도	-16556
▁잘하는데	-16557
▁제목보고	-16558
▁좋아하던	-16559
▁좋았을걸	-16560
▁좋은작품	-16561
▁중학생때	-16562
▁지날수록	-16563
▁지니어스	-16564
▁지루한건	-16565
▁지루한데	-16566
▁처절하게	-16567
▁추천해요	-16568
▁토요명화	-16569
▁프로젝트	-16570
▁필요없이	-16571
▁하는영화	-16572
▁하면서도	-16573
▁한국에도	-16574
▁행복하다	-16575
▁현실감이	-16576
나다라마바	-16577
재밌습니다	-16578
▁괜찮은영화	-16579
▁노골적으로	-16580
▁다시보기로	-16581
▁등장인물들	-16582
▁또보고싶다	-16583
▁마지막에는	-16584
▁만들어버린	-16585
▁몇번을봐도	-16586
▁별로였는데	-16587
▁별로였어요	-16588
▁볼수있어서	-16589
▁봐야겠어요	-16590
▁생각됩니다	-16591
▁실망시키지	-16592
▁안나왔으면	-16593
▁어마어마한	-16594
▁업그레이드	-16595
▁연기력으로	-16596
▁우리나라도	-16597
▁유치하다고	-16598
▁이런드라마	-16599
▁이야기지만	-16600
▁잘어울리는	-16601
▁재미더럽게	-16602
▁재밌긴한데	-16603
▁전달하려는	-16604
▁지금에서야	-16605
▁후회합니다	-16606
▁마지막장면은	-16607
▁보고있습니다	-16608
▁쓰레기영화는	-16609
▁안좋아하는데	-16610
▁흥미진진하다	-16611
▁기대하고봤는데	-16612
▁처음부터끝까지	-16613
▁평점조절위원회	-16614
▁시간가는줄모르고	-16615
!!!!!!!!!!	-16616
▁.........	-16617
!!!!!!!!!!!!	-16618
쓰레기쓰레기쓰레기쓰레기	-16619
!!!!!!!!!!!!!!	-16620
;;;;;;;;;;;;;;;;	-16621
!'	-16622
+1	-16623
,4	-16624
-1	-16625
OD	-16626
ol	-16627
ri	-16628
~4	-16629
~5	-16630
ᄉᄉ	-16631
▁*	-16632
▁@	-16633
▁v	-16634
▁깃	-16635
▁깬	-16636
▁냅	-16637
▁득	-16638
▁램	-16639
▁삘	-16640
▁앜	-16641
▁얹	-16642
▁짭	-16643
▁쳤	-16644
▁쿄	-16645
▁핏	-16646
검사	-16647
것과	-16648
것임	-16649
격투	-16650
공룡	-16651
과도	-16652
관심	-16653
길을	-16654
남매	-16655
너는	-16656
네스	-16657
단계	-16658
단말	-16659
답고	-16660
당께	-16661
대상	-16662
던게	-16663
데서	-16664
되니	-16665
된듯	-16666
될까	-16667
될지	-16668
듣는	-16669
디아	-16670
디의	-16671
따로	-16672
뛴다	-16673
레나	-16674
려원	-16675
렸고	-16676
로이	-16677
료로	-16678
리리	-16679
마조	-16680
말투	-16681
망생	-16682
맞게	-16683
머신	-16684
머프	-16685
먹지	-16686
멍청	-16687
모드	-16688
목숨	-16689
몰라	-16690
문학	-16691
미오	-16692
민우	-16693
민정	-16694
민족	-16695
밀한	-16696
박자	-16697
반성	-16698
방울	-16699
별반	-16700
보가	-16701
본능	-16702
본데	-16703
부른	-16704
부여	-16705
분간	-16706
불패	-16707
비로	-16708
비와	-16709
빙빙	-16710
빨로	-16711
사바	-16712
성장	-16713
성재	-16714
소수	-16715
수와	-16716
시리	-16717
싫은	-16718
싶어	-16719
씬만	-16720
아래	-16721
아픔	-16722
앵글	-16723
어제	-16724
업고	-16725
여성	-16726
열에	-16727
와닿	-16728
와우	-16729
왔고	-16730
우를	-16731
우마	-16732
우며	-16733
우빈	-16734
윤아	-16735
이루	-16736
이치	-16737
인양	-16738
작렬	-16739
장진	-16740
전한	-16741
전화	-16742
젊은	-16743
점인	-16744
조폭	-16745
존스	-16746
주말	-16747
줄도	-16748
지리	-16749
지좀	-16750
질로	-16751
찍어	-16752
차를	-16753
찮은	-16754
참신	-16755
취급	-16756
치에	-16757
커녕	-16758
쿼터	-16759
크레	-16760
테고	-16761
테랑	-16762
토의	-16763
톨릭	-16764
티네	-16765
평해	-16766
포먼	-16767
폭발	-16768
피해	-16769
학대	-16770
한명	-16771
한숨	-16772
호크	-16773
혹시	-16774
후후	-16775
흔한	-16776
히로	-16777
히지	-16778
..(	-16779
..)	-16780
?!!	-16781
▁92	-16782
▁94	-16783
▁Th	-16784
▁ch	-16785
▁가네	-16786
▁강수	-16787
▁갖는	-16788
▁개미	-16789
▁거임	-16790
▁거칠	-16791
▁검사	-16792
▁견줄	-16793
▁결투	-16794
▁경각	-16795
▁고요	-16796
▁공동	-16797
▁괴기	-16798
▁구입	-16799
▁권장	-16800
▁권투	-16801
▁금발	-16802
▁기생	-16803
▁김병	-16804
▁깨고	-16805
▁꼽는	-16806
▁나갔	-16807
▁나네	-16808
▁낮을	-16809
▁내눈	-16810
▁내보	-16811
▁너를	-16812
▁넘나	-16813
▁년이	-16814
▁노란	-16815
▁놀아	-16816
▁누님	-16817
▁눈높	-16818
▁다봄	-16819
▁닮아	-16820
▁답습	-16821
▁대니	-16822
▁대만	-16823
▁도는	-16824
▁된거	-16825
▁됬다	-16826
▁들인	-16827
▁등을	-16828
▁딴거	-16829
▁때우	-16830
▁땜시	-16831
▁똥꼬	-16832
▁똥망	-16833
▁똥싸	-16834
▁러닝	-16835
▁막막	-16836
▁만다	-16837
▁맑은	-16838
▁매드	-16839
▁면을	-16840
▁무심	-16841
▁무자	-16842
▁미남	-16843
▁미지	-16844
▁바랬	-16845
▁바르	-16846
▁받지	-16847
▁발버	-16848
▁방어	-16849
▁벅차	-16850
▁범작	-16851
▁보상	-16852
▁보셨	-16853
▁부천	-16854
▁뷰티	-16855
▁비열	-16856
▁비춰	-16857
▁빌어	-16858
▁뻔해	-16859
▁사귀	-16860
▁사냥	-16861
▁사수	-16862
▁상쾌	-16863
▁샤워	-16864
▁선한	-16865
▁성기	-16866
▁세이	-16867
▁손이	-16868
▁스키	-16869
▁슴가	-16870
▁신발	-16871
▁심야	-16872
▁아낌	-16873
▁않냐	-16874
▁않으	-16875
▁애쓴	-16876
▁얘들	-16877
▁여인	-16878
▁여정	-16879
▁연개	-16880
▁열어	-16881
▁오죽	-16882
▁완결	-16883
▁왕자	-16884
▁용감	-16885
▁우웩	-16886
▁울뻔	-16887
▁웃어	-16888
▁원한	-16889
▁유연	-16890
▁음란	-16891
▁이국	-16892
▁이뭐	-16893
▁이분	-16894
▁이장	-16895
▁잃게	-16896
▁입은	-16897
▁입체	-16898
▁자부	-16899
▁작년	-16900
▁저럴	-16901
▁저번	-16902
▁점을	-16903
▁정성	-16904
▁조장	-16905
▁존예	-16906
▁졸음	-16907
▁좀만	-16908
▁좁은	-16909
▁주민	-16910
▁죽지	-16911
▁줬어	-16912
▁지긋	-16913
▁지브	-16914
▁지진	-16915
▁지킬	-16916
▁직원	-16917
▁집합	-16918
▁짓게	-16919
▁찾은	-16920
▁최루	-16921
▁치부	-16922
▁칙칙	-16923
▁콤비	-16924
▁타워	-16925
▁토마	-16926
▁토토	-16927
▁트렌	-16928
▁패륜	-16929
▁퍼시	-16930
▁편향	-16931
▁할것	-16932
▁허비	-16933
▁현장	-16934
▁훌쩍	-16935
▁휘둘	-16936
▁흘릴	-16937
같은건	-16938
거라곤	-16939
겟지만	-16940
겠더라	-16941
과함께	-16942
나라의	-16943
노키오	-16944
덕화가	-16945
됐어요	-16946
되어서	-16947
들에겐	-16948
따구로	-16949
래이션	-16950
레쉬맨	-16951
리가라	-16952
마누라	-16953
만화가	-16954
멋있다	-16955
몰입이	-16956
못했다	-16957
물가물	-16958
베스트	-16959
베이터	-16960
보여서	-16961
보자고	-16962
볼만함	-16963
분보다	-16964
사랑과	-16965
사랑에	-16966
생각도	-16967
생각함	-16968
세기에	-16969
스크린	-16970
시간만	-16971
시사회	-16972
쓰래기	-16973
아빠가	-16974
았을까	-16975
어디가	-16976
없구만	-16977
었으나	-16978
여기서	-16979
여주는	-16980
연출력	-16981
영화야	-16982
영화지	-16983
울었다	-16984
을때가	-16985
음ᄏᄏ	-16986
의미로	-16987
이구만	-16988
자리에	-16989
작품은	-16990
점밖에	-16991
점이라	-16992
좋았고	-16993
주려고	-16994
주셔서	-16995
줄알았	-16996
지르고	-16997
지르르	-16998
청소년	-16999
초반에	-17000
추억의	-17001
콘서트	-17002
통사고	-17003
트리고	-17004
편이랑	-17005
한테도	-17006
할지도	-17007
할텐데	-17008
했어야	-17009
▁0.1	-17010
▁9.5	-17011
▁for	-17012
▁not	-17013
▁가지는	-17014
▁간신히	-17015
▁갈등과	-17016
▁갈리는	-17017
▁감독에	-17018
▁같았음	-17019
▁개웃김	-17020
▁거의다	-17021
▁건가요	-17022
▁걸작이	-17023
▁경험을	-17024
▁굿바이	-17025
▁그것뿐	-17026
▁그러다	-17027
▁기막힌	-17028
▁기묘한	-17029
▁김옥빈	-17030
▁김윤석	-17031
▁꺼버린	-17032
▁꼬맹이	-17033
▁꾸준히	-17034
▁나와요	-17035
▁노력을	-17036
▁노출도	-17037
▁노출은	-17038
▁놀라는	-17039
▁누구야	-17040
▁눈부신	-17041
▁느껴진	-17042
▁다르고	-17043
▁대단해	-17044
▁대사로	-17045
▁대화가	-17046
▁댓글이	-17047
▁덤으로	-17048
▁돌리고	-17049
▁동생이	-17050
▁됐어요	-17051
▁되야지	-17052
▁된장녀	-17053
▁들으면	-17054
▁떠나고	-17055
▁떠나지	-17056
▁로빈윌	-17057
▁리차드	-17058
▁마니아	-17059
▁마시고	-17060
▁말라고	-17061
▁말하기	-17062
▁맘에들	-17063
▁맞나요	-17064
▁맞는지	-17065
▁머리는	-17066
▁모르면	-17067
▁못보는	-17068
▁못알아	-17069
▁못했음	-17070
▁무능력	-17071
▁무미건	-17072
▁뭉클한	-17073
▁뭐이런	-17074
▁뭐이리	-17075
▁미치게	-17076
▁민주화	-17077
▁바꿔서	-17078
▁바이블	-17079
▁발랄한	-17080
▁발전을	-17081
▁배슬기	-17082
▁베토벤	-17083
▁보려면	-17084
▁본거지	-17085
▁본인의	-17086
▁봣어요	-17087
▁봤더만	-17088
▁봤어야	-17089
▁북한의	-17090
▁분들도	-17091
▁불끄고	-17092
▁불친절	-17093
▁비교할	-17094
▁색다르	-17095
▁설명도	-17096
▁속시원	-17097
▁솔찍히	-17098
▁스피드	-17099
▁실상을	-17100
▁쌈마이	-17101
▁안돼는	-17102
▁안봤음	-17103
▁안쓰러	-17104
▁안하는	-17105
▁앉아서	-17106
▁않겠다	-17107
▁알겠네	-17108
▁알려진	-17109
▁알면서	-17110
▁어디다	-17111
▁언제적	-17112
▁엉망이	-17113
▁에리카	-17114
▁엠비씨	-17115
▁여태껏	-17116
▁연극을	-17117
▁연애의	-17118
▁영화사	-17119
▁영화여	-17120
▁예술로	-17121
▁오늘의	-17122
▁올라가	-17123
▁올리기	-17124
▁올바른	-17125
▁우리들	-17126
▁우정을	-17127
▁울린다	-17128
▁워스트	-17129
▁워싱턴	-17130
▁유튜브	-17131
▁윤은혜	-17132
▁의리로	-17133
▁의미로	-17134
▁이게머	-17135
▁이들을	-17136
▁이름에	-17137
▁이상우	-17138
▁있는건	-17139
▁있을지	-17140
▁자체에	-17141
▁장쯔이	-17142
▁재미에	-17143
▁재밌나	-17144
▁잼없는	-17145
▁잼없어	-17146
▁잼있네	-17147
▁저렴한	-17148
▁전개의	-17149
▁전기세	-17150
▁전체가	-17151
▁전편을	-17152
▁정서에	-17153
▁정유미	-17154
▁정이건	-17155
▁정준호	-17156
▁정체가	-17157
▁조금도	-17158
▁존재감	-17159
▁좋겠음	-17160
▁좋던데	-17161
▁좋아용	-17162
▁죄없는	-17163
▁주다니	-17164
▁주었다	-17165
▁주연이	-17166
▁주조연	-17167
▁죽어야	-17168
▁중간쯤	-17169
▁중국인	-17170
▁지들이	-17171
▁지진희	-17172
▁집중을	-17173
▁짓거리	-17174
▁착하고	-17175
▁천천히	-17176
▁최악은	-17177
▁추억은	-17178
▁충격적	-17179
▁케이스	-17180
▁콩가루	-17181
▁키스신	-17182
▁태권도	-17183
▁특별히	-17184
▁퍼포먼	-17185
▁편안한	-17186
▁평점과	-17187
▁포스트	-17188
▁표현의	-17189
▁풀어내	-17190
▁하여튼	-17191
▁하품만	-17192
▁할만한	-17193
▁할텐데	-17194
▁해석이	-17195
▁현대판	-17196
▁현재를	-17197
▁화이트	-17198
▁환상을	-17199
▁흥미도	-17200
▁히스레	-17201
♡♡♡♡	-17202
겠습니까	-17203
긴했는데	-17204
닼ᄏᄏᄏ	-17205
드라마다	-17206
등장인물	-17207
떨어지고	-17208
마지막회	-17209
명작이다	-17210
배우들은	-17211
본영화중	-17212
비디오로	-17213
사부일체	-17214
스러움이	-17215
시간가는	-17216
시리즈의	-17217
실망이다	-17218
안나온다	-17219
연기력도	-17220
영화로는	-17221
영화인듯	-17222
이라는데	-17223
일뿐이다	-17224
있었지만	-17225
점준것중	-17226
지금봐도	-17227
해줬으면	-17228
해피엔딩	-17229
했더라면	-17230
~~~^^	-17231
▁1998	-17232
▁감각적인	-17233
▁감명깊은	-17234
▁같았어요	-17235
▁개봉했을	-17236
▁거기다가	-17237
▁골때리는	-17238
▁공간에서	-17239
▁관객들이	-17240
▁국내에서	-17241
▁그대로의	-17242
▁그랬지만	-17243
▁꾸역꾸역	-17244
▁나에게도	-17245
▁나오지도	-17246
▁남자지만	-17247
▁내용이라	-17248
▁누군가를	-17249
▁답답하게	-17250
▁대리만족	-17251
▁대박영화	-17252
▁대부분이	-17253
▁데려다가	-17254
▁되었으면	-17255
▁만든다는	-17256
▁만들려면	-17257
▁만들었니	-17258
▁머릿속에	-17259
▁모르겠는	-17260
▁모습에서	-17261
▁무너지는	-17262
▁무서워요	-17263
▁무시무시	-17264
▁미국영화	-17265
▁미친영화	-17266
▁발연기는	-17267
▁보는건지	-17268
▁복잡하고	-17269
▁볼시간에	-17270
▁부족했다	-17271
▁분들에게	-17272
▁빠른전개	-17273
▁사람들만	-17274
▁살아있다	-17275
▁상상력에	-17276
▁상태에서	-17277
▁생각되는	-17278
▁서바이벌	-17279
▁설득력이	-17280
▁설정으로	-17281
▁성룡영화	-17282
▁스스로를	-17283
▁시간때우	-17284
▁시리즈물	-17285
▁신선했고	-17286
▁쓰레기에	-17287
▁아니자나	-17288
▁아포칼립	-17289
▁알고싶다	-17290
▁알려지지	-17291
▁어디가서	-17292
▁어른들을	-17293
▁언젠가는	-17294
▁영화내용	-17295
▁영화치곤	-17296
▁완벽했다	-17297
▁우디앨런	-17298
▁원한다면	-17299
▁이것밖에	-17300
▁이들에게	-17301
▁이때부터	-17302
▁이럴수가	-17303
▁이렇게나	-17304
▁이번에는	-17305
▁이영화로	-17306
▁있었다면	-17307
▁자신만의	-17308
▁자연스레	-17309
▁장면에선	-17310
▁장면으로	-17311
▁재밋다고	-17312
▁적절하게	-17313
▁전달하는	-17314
▁전해지는	-17315
▁정신분열	-17316
▁정신없고	-17317
▁제멋대로	-17318
▁제작진은	-17319
▁조잡하다	-17320
▁좋겠는데	-17321
▁주고싶은	-17322
▁줄거리만	-17323
▁중요하다	-17324
▁지저분한	-17325
▁질질끄는	-17326
▁짜증나요	-17327
▁짜증났음	-17328
▁챙겨보는	-17329
▁처음이자	-17330
▁촌스럽다	-17331
▁추억으로	-17332
▁클로즈업	-17333
▁특이하고	-17334
▁팬으로서	-17335
▁페미니즘	-17336
▁펼쳐지는	-17337
▁평점알바	-17338
▁폐지해라	-17339
▁포인트가	-17340
▁피해자가	-17341
▁필요없고	-17342
▁한국애니	-17343
▁행복했다	-17344
▁후회된다	-17345
▁흔해빠진	-17346
따뜻해지는	-17347
보고싶네요	-17348
ᅲᅲᅲᅲᅲᅲ	-17349
▁가슴아프고	-17350
▁가족드라마	-17351
▁기대했지만	-17352
▁느낌이네요	-17353
▁드라마지만	-17354
▁마스터피스	-17355
▁만들어주는	-17356
▁무서운영화	-17357
▁무엇보다도	-17358
▁보게됐는데	-17359
▁보고싶어서	-17360
▁빠져들었다	-17361
▁생각이든다	-17362
▁소름돋았다	-17363
▁싫어하는데	-17364
▁아니올시다	-17365
▁아름답네요	-17366
▁아무리봐도	-17367
▁액션영화가	-17368
▁어린이들이	-17369
▁어수선하고	-17370
▁연기자들이	-17371
▁의학드라마	-17372
▁재미없으면	-17373
▁재밌게봤던	-17374
▁제시카알바	-17375
▁짜증나네요	-17376
▁최악이네요	-17377
▁카리스마가	-17378
▁평론가들이	-17379
▁평점이너무	-17380
▁포스터보고	-17381
▁하나입니다	-17382
▁한국영화중	-17383
▁허무맹랑한	-17384
▁흘러나오는	-17385
▁흥미로웠다	-17386
▁공포영화라고	-17387
▁기대안했는데	-17388
▁너무재미있게	-17389
▁뭐하자는건지	-17390
▁비현실적이고	-17391
▁스토리전개가	-17392
▁애니메이션의	-17393
▁어처구니없는	-17394
▁여자주인공이	-17395
▁.......	-17396
▁마지막장면에서	-17397
▁........	-17398
.;	-17399
::	-17400
PD	-17401
UT	-17402
ia	-17403
ud	-17404
ᄂᄋ	-17405
▁낀	-17406
▁놨	-17407
▁닦	-17408
▁딥	-17409
▁랑	-17410
▁료	-17411
▁뭍	-17412
▁므	-17413
▁밨	-17414
▁뱃	-17415
▁뻐	-17416
▁쎄	-17417
▁쑤	-17418
▁씩	-17419
▁쟤	-17420
▁죤	-17421
▁째	-17422
▁쯧	-17423
▁퀼	-17424
▁팜	-17425
▁휩	-17426
▁휼	-17427
강력	-17428
거기	-17429
거도	-17430
거북	-17431
거짓	-17432
걸륜	-17433
곤데	-17434
구멍	-17435
극치	-17436
기어	-17437
김태	-17438
꾸로	-17439
끼가	-17440
끼들	-17441
내돈	-17442
넣기	-17443
넣어	-17444
노동	-17445
니오	-17446
다크	-17447
대소	-17448
도현	-17449
됐음	-17450
두는	-17451
딱히	-17452
랄라	-17453
람쥐	-17454
래쉬	-17455
량한	-17456
렇지	-17457
레어	-17458
루미	-17459
리슨	-17460
림의	-17461
마무	-17462
만약	-17463
맞춰	-17464
먼의	-17465
무술	-17466
미만	-17467
민씨	-17468
바꾸	-17469
박스	-17470
반의	-17471
밴드	-17472
버가	-17473
벌써	-17474
베일	-17475
보드	-17476
보로	-17477
보를	-17478
블로	-17479
비언	-17480
살려	-17481
서가	-17482
석천	-17483
설수	-17484
성격	-17485
세로	-17486
세연	-17487
세영	-17488
셔도	-17489
션스	-17490
셨네	-17491
수리	-17492
수면	-17493
수아	-17494
쉬고	-17495
슐리	-17496
스넌	-17497
시시	-17498
시요	-17499
쓰렉	-17500
아파	-17501
안가	-17502
앤딩	-17503
여년	-17504
여왕	-17505
연속	-17506
예모	-17507
예쁜	-17508
예회	-17509
오의	-17510
올드	-17511
올림	-17512
왔음	-17513
왜이	-17514
용을	-17515
이쁜	-17516
이서	-17517
이용	-17518
자한	-17519
잼씀	-17520
점씩	-17521
정세	-17522
졌을	-17523
조로	-17524
중근	-17525
쥔공	-17526
지겨	-17527
지길	-17528
지션	-17529
지와	-17530
진모	-17531
질은	-17532
짧은	-17533
짱나	-17534
착오	-17535
체류	-17536
초도	-17537
최근	-17538
치와	-17539
카와	-17540
컨셉	-17541
컬트	-17542
코난	-17543
코는	-17544
크에	-17545
클래	-17546
클리	-17547
타가	-17548
통이	-17549
투표	-17550
티의	-17551
파에	-17552
펜터	-17553
풍경	-17554
픽션	-17555
한부	-17556
해줌	-17557
행동	-17558
호흡	-17559
혹은	-17560
화로	-17561
회사	-17562
ack	-17563
erf	-17564
ith	-17565
ock	-17566
▁SM	-17567
▁do	-17568
▁가리	-17569
▁간에	-17570
▁갈망	-17571
▁감출	-17572
▁갖추	-17573
▁같애	-17574
▁개도	-17575
▁거참	-17576
▁걸음	-17577
▁겉만	-17578
▁고대	-17579
▁고무	-17580
▁고아	-17581
▁고추	-17582
▁공군	-17583
▁괴리	-17584
▁교양	-17585
▁구나	-17586
▁구도	-17587
▁구식	-17588
▁김종	-17589
▁김진	-17590
▁깊고	-17591
▁깔깔	-17592
▁꼬집	-17593
▁꾸며	-17594
▁끌지	-17595
▁끝장	-17596
▁낚여	-17597
▁네임	-17598
▁노트	-17599
▁놀고	-17600
▁놈은	-17601
▁눌러	-17602
▁능청	-17603
▁다닐	-17604
▁다뤄	-17605
▁다해	-17606
▁당대	-17607
▁당위	-17608
▁대상	-17609
▁대처	-17610
▁더러	-17611
▁도서	-17612
▁돈날	-17613
▁동시	-17614
▁뒤집	-17615
▁드팔	-17616
▁디젤	-17617
▁때리	-17618
▁때묻	-17619
▁뜨고	-17620
▁루이	-17621
▁류덕	-17622
▁만에	-17623
▁만원	-17624
▁많을	-17625
▁맑고	-17626
▁망침	-17627
▁맞을	-17628
▁맞출	-17629
▁매료	-17630
▁명성	-17631
▁명언	-17632
▁몽골	-17633
▁문채	-17634
▁물결	-17635
▁미련	-17636
▁바란	-17637
▁바비	-17638
▁박물	-17639
▁박준	-17640
▁반쪽	-17641
▁받쳐	-17642
▁버디	-17643
▁버젼	-17644
▁벅찬	-17645
▁베끼	-17646
▁병사	-17647
▁보듬	-17648
▁보삼	-17649
▁보스	-17650
▁볼일	-17651
▁부풀	-17652
▁브란	-17653
▁비약	-17654
▁비트	-17655
▁사업	-17656
▁산뜻	-17657
▁삼촌	-17658
▁선과	-17659
▁성냥	-17660
▁세기	-17661
▁센세	-17662
▁스쳐	-17663
▁슬슬	-17664
▁시놉	-17665
▁식당	-17666
▁썼다	-17667
▁쓰다	-17668
▁쓴거	-17669
▁아른	-17670
▁아청	-17671
▁아트	-17672
▁애도	-17673
▁애인	-17674
▁애청	-17675
▁얼음	-17676
▁에단	-17677
▁연락	-17678
▁오열	-17679
▁옳은	-17680
▁옷을	-17681
▁웨스	-17682
▁은유	-17683
▁은희	-17684
▁음산	-17685
▁이뻣	-17686
▁이서	-17687
▁이틀	-17688
▁인질	-17689
▁자이	-17690
▁자폐	-17691
▁작고	-17692
▁잡탕	-17693
▁잤음	-17694
▁장사	-17695
▁장엄	-17696
▁재생	-17697
▁재판	-17698
▁잼게	-17699
▁잼난	-17700
▁잼없	-17701
▁저를	-17702
▁전원	-17703
▁절친	-17704
▁정권	-17705
▁정복	-17706
▁존잘	-17707
▁졸린	-17708
▁주신	-17709
▁주요	-17710
▁지연	-17711
▁직설	-17712
▁직쏘	-17713
▁진국	-17714
▁쪼금	-17715
▁찐한	-17716
▁차갑	-17717
▁최상	-17718
▁춤도	-17719
▁춤추	-17720
▁캡틴	-17721
▁커트	-17722
▁터뜨	-17723
▁터질	-17724
▁토미	-17725
▁투박	-17726
▁틀에	-17727
▁판을	-17728
▁평온	-17729
▁폰부	-17730
▁폼만	-17731
▁풍부	-17732
▁프랑	-17733
▁피를	-17734
▁핀처	-17735
▁하길	-17736
▁하신	-17737
▁한층	-17738
▁함축	-17739
▁합격	-17740
▁확신	-17741
▁환영	-17742
▁황제	-17743
▁훔쳐	-17744
▁휼륭	-17745
▁힛걸	-17746
감정을	-17747
거리게	-17748
관계를	-17749
구석이	-17750
그렇다	-17751
기면서	-17752
나봐요	-17753
나오게	-17754
나왔다	-17755
나중에	-17756
느끼게	-17757
느라고	-17758
덴티티	-17759
도아닌	-17760
됐으면	-17761
되지만	-17762
라는건	-17763
력으로	-17764
마이갓	-17765
마조마	-17766
많은걸	-17767
말하는	-17768
매력이	-17769
박자가	-17770
버렸어	-17771
보고또	-17772
보기가	-17773
보기싫	-17774
보기에	-17775
보여준	-17776
보였다	-17777
분이면	-17778
사아자	-17779
상황이	-17780
세이상	-17781
셨어요	-17782
시절이	-17783
시켰다	-17784
심하게	-17785
아쉬운	-17786
아프고	-17787
아프다	-17788
안치고	-17789
액션의	-17790
어설픈	-17791
어진다	-17792
었군요	-17793
였을까	-17794
영화들	-17795
오면서	-17796
웃음만	-17797
원작이	-17798
음악은	-17799
음에도	-17800
이나는	-17801
이예요	-17802
인간들	-17803
있는듯	-17804
있다가	-17805
작품을	-17806
잼있게	-17807
잼있음	-17808
점이야	-17809
정말잘	-17810
졌다는	-17811
좋다고	-17812
짜증남	-17813
치지만	-17814
팬인데	-17815
페이스	-17816
하구요	-17817
한거다	-17818
합니당	-17819
ffff	-17820
ᅳᅳᅳᅳ	-17821
▁1.2	-17822
▁^^;	-17823
▁top	-17824
▁ᅳᅳᄏ	-17825
▁간단한	-17826
▁감동먹	-17827
▁감성과	-17828
▁감수성	-17829
▁감회가	-17830
▁개고생	-17831
▁갱스터	-17832
▁거리는	-17833
▁거시기	-17834
▁거품이	-17835
▁결승전	-17836
▁경찰은	-17837
▁경험이	-17838
▁고릴라	-17839
▁고생한	-17840
▁고스트	-17841
▁공포감	-17842
▁관점이	-17843
▁궁금함	-17844
▁궁금해	-17845
▁그랬냐	-17846
▁그림도	-17847
▁그토록	-17848
▁기분을	-17849
▁기준이	-17850
▁깎아내	-17851
▁꽝이다	-17852
▁끝없는	-17853
▁끝이다	-17854
▁나까지	-17855
▁나쁘게	-17856
▁나쁘다	-17857
▁나았을	-17858
▁나오긴	-17859
▁나타나	-17860
▁나탈리	-17861
▁난잡한	-17862
▁남았던	-17863
▁낮은게	-17864
▁내용만	-17865
▁내평생	-17866
▁느낀건	-17867
▁능력을	-17868
▁다른걸	-17869
▁다음엔	-17870
▁다큐가	-17871
▁달라서	-17872
▁도입부	-17873
▁돋았다	-17874
▁돌아간	-17875
▁동화책	-17876
▁되었던	-17877
▁뒷통수	-17878
▁들여다	-17879
▁들지만	-17880
▁때까지	-17881
▁만들엇	-17882
▁많은듯	-17883
▁맞먹는	-17884
▁매력의	-17885
▁맴돈다	-17886
▁메이저	-17887
▁무슨죄	-17888
▁문소리	-17889
▁문화를	-17890
▁미모와	-17891
▁미화한	-17892
▁바람이	-17893
▁받았던	-17894
▁배워라	-17895
▁변하지	-17896
▁보게됨	-17897
▁보고픈	-17898
▁보는지	-17899
▁보이나	-17900
▁봤었지	-17901
▁비교를	-17902
▁비교적	-17903
▁빠지고	-17904
▁뻔하지	-17905
▁뻔했다	-17906
▁사는게	-17907
▁사람에	-17908
▁사이의	-17909
▁살다가	-17910
▁살아남	-17911
▁삼국지	-17912
▁상큼한	-17913
▁색감도	-17914
▁생생히	-17915
▁서인국	-17916
▁선택이	-17917
▁설명할	-17918
▁손오공	-17919
▁손으로	-17920
▁송새벽	-17921
▁수밖에	-17922
▁수작을	-17923
▁스토커	-17924
▁시작된	-17925
▁시키지	-17926
▁싫다고	-17927
▁쓰나미	-17928
▁쓰세요	-17929
▁아깝단	-17930
▁아내가	-17931
▁아이랑	-17932
▁알게되	-17933
▁알바냐	-17934
▁암걸릴	-17935
▁암유발	-17936
▁앞부분	-17937
▁애매한	-17938
▁앨리스	-17939
▁어려움	-17940
▁어려워	-17941
▁어릴땐	-17942
▁어쩌구	-17943
▁없을것	-17944
▁에이미	-17945
▁여운은	-17946
▁여자랑	-17947
▁영화군	-17948
▁오늘날	-17949
▁오마쥬	-17950
▁왜자꾸	-17951
▁요근래	-17952
▁요소도	-17953
▁우베볼	-17954
▁울다가	-17955
▁울림이	-17956
▁움직임	-17957
▁웃긴데	-17958
▁웃었음	-17959
▁웃지요	-17960
▁웅장한	-17961
▁유승호	-17962
▁이대로	-17963
▁이런류	-17964
▁이런식	-17965
▁이런지	-17966
▁이미숙	-17967
▁이세상	-17968
▁이어서	-17969
▁있기는	-17970
▁있던데	-17971
▁있었을	-17972
▁있음을	-17973
▁작가야	-17974
▁잡아먹	-17975
▁저학년	-17976
▁전부인	-17977
▁전하는	-17978
▁정의는	-17979
▁제발좀	-17980
▁종류의	-17981
▁좋은지	-17982
▁주어진	-17983
▁주연을	-17984
▁즐기고	-17985
▁지루하	-17986
▁진정성	-17987
▁진행도	-17988
▁집중할	-17989
▁짜맞춘	-17990
▁짠하다	-17991
▁천국의	-17992
▁총싸움	-17993
▁최고야	-17994
▁최수종	-17995
▁케미가	-17996
▁코난이	-17997
▁킹왕짱	-17998
▁터진다	-17999
▁톰하디	-18000
▁티라노	-18001
▁티비판	-18002
▁파리의	-18003
▁파이널	-18004
▁편집을	-18005
▁필름이	-18006
▁하겠다	-18007
▁하던지	-18008
▁하려면	-18009
▁하모니	-18010
▁학생들	-18011
▁한니발	-18012
▁한참을	-18013
▁할려고	-18014
▁호러물	-18015
▁화면만	-18016
▁후회안	-18017
같습니다	-18018
나오네요	-18019
는거보고	-18020
드라마도	-18021
로게로게	-18022
방송에서	-18023
버렸네요	-18024
봐야겠다	-18025
스트레스	-18026
시간짜리	-18027
신기신기	-18028
아니었다	-18029
아저씨가	-18030
어이없네	-18031
영화보는	-18032
왠만하면	-18033
이거보고	-18034
이상으로	-18035
이상하고	-18036
이아니라	-18037
이야말로	-18038
입장에서	-18039
적이어서	-18040
점짜리는	-18041
좋습니다	-18042
줄알았음	-18043
지루했다	-18044
짜증나서	-18045
편보다는	-18046
하게하는	-18047
하겠는데	-18048
하는것이	-18049
했다는게	-18050
?....	-18051
▁;;;;	-18052
▁가물가물	-18053
▁가슴뭉클	-18054
▁가슴속에	-18055
▁가족들과	-18056
▁가족들이	-18057
▁강요하는	-18058
▁강추강추	-18059
▁개봉하고	-18060
▁공감되지	-18061
▁공감하기	-18062
▁괜찮을듯	-18063
▁국가대표	-18064
▁권선징악	-18065
▁그러는데	-18066
▁그렇네요	-18067
▁그와중에	-18068
▁극장판을	-18069
▁기대되요	-18070
▁긴급조치	-18071
▁깨달음을	-18072
▁나온영화	-18073
▁나왔다고	-18074
▁남깁니다	-18075
▁남녀노소	-18076
▁내인생의	-18077
▁너무좋고	-18078
▁넘쳐나는	-18079
▁누구인지	-18080
▁누군가가	-18081
▁느껴지고	-18082
▁늘어진다	-18083
▁다르지만	-18084
▁다음편이	-18085
▁두번다시	-18086
▁드라마네	-18087
▁드라마라	-18088
▁들어가서	-18089
▁들었지만	-18090
▁리암니슨	-18091
▁리얼리즘	-18092
▁만든거냐	-18093
▁만들었음	-18094
▁만화같은	-18095
▁망작이다	-18096
▁멋있어서	-18097
▁멍청하고	-18098
▁모아놓고	-18099
▁못한다는	-18100
▁무엇일까	-18101
▁무지하게	-18102
▁보기전에	-18103
▁보다보니	-18104
▁보셨으면	-18105
▁보았네요	-18106
▁보자마자	-18107
▁보지마삼	-18108
▁불과하다	-18109
▁불법체류	-18110
▁블레이드	-18111
▁비교해도	-18112
▁비슷하다	-18113
▁비주얼도	-18114
▁빠짐없이	-18115
▁사라지는	-18116
▁사람한테	-18117
▁사랑이다	-18118
▁사랑했던	-18119
▁살아가고	-18120
▁선사하는	-18121
▁성지순례	-18122
▁섹시하다	-18123
▁소재인데	-18124
▁송강호의	-18125
▁순수했던	-18126
▁스크린에	-18127
▁스펙터클	-18128
▁시사하는	-18129
▁시청자들	-18130
▁신비롭고	-18131
▁신선함이	-18132
▁심심하다	-18133
▁싶어졌다	-18134
▁아깝더라	-18135
▁아니어도	-18136
▁아니였다	-18137
▁아니였음	-18138
▁아련하다	-18139
▁안볼란다	-18140
▁안타까워	-18141
▁알바들아	-18142
▁알수있다	-18143
▁애들영화	-18144
▁얘기하고	-18145
▁어렵지만	-18146
▁어렸을땐	-18147
▁어우러져	-18148
▁여기서도	-18149
▁영화볼줄	-18150
▁영화속의	-18151
▁영화제작	-18152
▁영화치고	-18153
▁웃기지만	-18154
▁유치하긴	-18155
▁유치하지	-18156
▁음악으로	-18157
▁이건아니	-18158
▁이게무슨	-18159
▁이런일이	-18160
▁이럴거면	-18161
▁이루어진	-18162
▁이번에도	-18163
▁이연걸이	-18164
▁이해안됨	-18165
▁일깨워준	-18166
▁일상적인	-18167
▁있는거지	-18168
▁장난으로	-18169
▁재치있는	-18170
▁전반적인	-18171
▁전설적인	-18172
▁정신상태	-18173
▁조마조마	-18174
▁존재하지	-18175
▁좋아할듯	-18176
▁좋았을듯	-18177
▁주구장창	-18178
▁주윤발의	-18179
▁즐거웠던	-18180
▁지루하긴	-18181
▁지루하진	-18182
▁지루했고	-18183
▁참신하다	-18184
▁찾아보니	-18185
▁초월하는	-18186
▁코미디와	-18187
▁코믹으로	-18188
▁코엔형제	-18189
▁투모로우	-18190
▁평점이다	-18191
▁포스터의	-18192
▁포인트를	-18193
▁표현하고	-18194
▁풀어내는	-18195
▁하나님의	-18196
▁하하하하	-18197
▁한국전쟁	-18198
▁한마디만	-18199
▁한심하고	-18200
▁흥행실패	-18201
남자주인공	-18202
이런영화는	-18203
재밌는영화	-18204
점주고싶다	-18205
지않은영화	-18206
하게만드는	-18207
하나하나가	-18208
▁감동이었다	-18209
▁나았습니다	-18210
▁느낌입니다	-18211
▁대체적으로	-18212
▁떨어지네요	-18213
▁런닝타임이	-18214
▁명배우들의	-18215
▁반전이라고	-18216
▁별로였지만	-18217
▁보여주는데	-18218
▁생각하면서	-18219
▁스크린에서	-18220
▁시리즈중에	-18221
▁실망했어요	-18222
▁쓰레기통에	-18223
▁아니었는데	-18224
▁아름다움과	-18225
▁아름다워서	-18226
▁연기너무잘	-18227
▁연기때문에	-18228
▁영화보는데	-18229
▁영화였지만	-18230
▁영화평론가	-18231
▁오래간만에	-18232
▁이해안되는	-18233
▁잔인하지만	-18234
▁재미없어도	-18235
▁재미잇어요	-18236
▁잼있었어요	-18237
▁정말재미있	-18238
▁죄송하지만	-18239
▁중반까지는	-18240
▁한국드라마	-18241
▁한쿡영화의	-18242
▁행복합니다	-18243
▁홍콩영화의	-18244
▁다운받았는데	-18245
▁드라마였어요	-18246
▁보게되었는데	-18247
▁부자연스러운	-18248
▁소름끼치도록	-18249
▁아름답습니다	-18250
▁안타깝습니다	-18251
▁영화인것같다	-18252
▁잘보았습니다	-18253
▁감동이었습니다	-18254
▁드라마였습니다	-18255
ᄏᄏᄏᄏᄏᄏᄏᄏᄏᄏᄏᄏᄏᄏ	-18256
)/	-18257
33	-18258
GM	-18259
MD	-18260
cc	-18261
ho	-18262
se	-18263
tr	-18264
up	-18265
ᄏᄀ	-18266
▁갸	-18267
▁겜	-18268
▁긁	-18269
▁꺅	-18270
▁닳	-18271
▁둥	-18272
▁뱉	-18273
▁뵙	-18274
▁엥	-18275
▁윽	-18276
▁튼	-18277
▁틸	-18278
▁펴	-18279
갈등	-18280
감만	-18281
감탄	-18282
갔음	-18283
강의	-18284
거려	-18285
것네	-18286
겠소	-18287
겨우	-18288
경씨	-18289
고래	-18290
고향	-18291
공연	-18292
교회	-18293
궁창	-18294
그루	-18295
극에	-18296
글구	-18297
기게	-18298
나머	-18299
낚시	-18300
난해	-18301
난후	-18302
남의	-18303
넘넘	-18304
넘들	-18305
녀다	-18306
노쉬	-18307
니와	-18308
달고	-18309
담이	-18310
댄다	-18311
데드	-18312
독특	-18313
동원	-18314
돼서	-18315
되기	-18316
되도	-18317
두가	-18318
듣기	-18319
라클	-18320
래서	-18321
레가	-18322
레비	-18323
레의	-18324
로소	-18325
로윈	-18326
로지	-18327
루의	-18328
류로	-18329
르륵	-18330
마미	-18331
마법	-18332
마져	-18333
말라	-18334
말자	-18335
말지	-18336
말할	-18337
맛을	-18338
맨을	-18339
메세	-18340
모션	-18341
민수	-18342
민주	-18343
방금	-18344
방영	-18345
방이	-18346
방학	-18347
배로	-18348
벨이	-18349
변태	-18350
별이	-18351
봣던	-18352
부끄	-18353
사벽	-18354
삼아	-18355
새키	-18356
생김	-18357
세주	-18358
섹시	-18359
소개	-18360
소중	-18361
수술	-18362
시카	-18363
식당	-18364
십쇼	-18365
싶음	-18366
씬과	-18367
씬의	-18368
아동	-18369
아카	-18370
안을	-18371
알렌	-18372
았냐	-18373
업이	-18374
엇고	-18375
었니	-18376
역활	-18377
였군	-18378
영활	-18379
오를	-18380
왕자	-18381
월에	-18382
위의	-18383
유일	-18384
윤희	-18385
은왜	-18386
의로	-18387
이정	-18388
인종	-18389
일반	-18390
읽어	-18391
잘함	-18392
적을	-18393
절정	-18394
정아	-18395
정훈	-18396
조가	-18397
졸려	-18398
좋을	-18399
짱이	-18400
쨌든	-18401
쯤에	-18402
차승	-18403
찮게	-18404
처드	-18405
첨엔	-18406
초월	-18407
치로	-18408
침몰	-18409
카드	-18410
코를	-18411
콩달	-18412
테잎	-18413
텐츠	-18414
팀이	-18415
포함	-18416
폭탄	-18417
하랴	-18418
하품	-18419
할말	-18420
형은	-18421
호를	-18422
화된	-18423
[...]
